[PAD]	0
[BOS]	0
[EOS]	0
[UNK]	0
@-@	0
,	-2.82289
.	-2.92374
'	-3.35841
▁you	-3.68441
▁the	-3.68603
▁i	-3.68654
▁to	-3.84383
▁and	-3.93319
s	-3.96383
▁a	-4.16911
▁of	-4.44038
▁my	-4.5394
▁that	-4.54657
?	-4.62979
▁it	-4.67327
▁me	-4.72456
t	-4.75937
▁in	-4.82091
▁he	-4.83513
▁your	-4.83744
▁is	-4.88809
▁for	-5.05122
!	-5.09311
▁be	-5.13378
▁as	-5.14879
ll	-5.18543
▁with	-5.18835
▁this	-5.22124
▁have	-5.28827
▁him	-5.33248
▁if	-5.33919
▁what	-5.35204
▁his	-5.39388
▁but	-5.3985
▁on	-5.46712
▁	-5.47272
▁are	-5.52042
▁we	-5.55747
▁so	-5.56764
▁will	-5.57587
▁can	-5.65279
▁who	-5.67568
▁her	-5.69663
▁like	-5.70596
m	-5.725
▁do	-5.72614
n	-5.75308
▁all	-5.78691
re	-5.79816
▁was	-5.81452
▁they	-5.83178
▁(	-5.86019
▁no	-5.8604
ing	-5.87619
▁not	-5.88254
)	-5.90957
▁she	-5.91011
▁don	-5.91033
▁here	-5.93381
▁good	-5.93656
▁from	-5.94756
▁by	-6.00615
▁now	-6.00786
▁go	-6.00817
▁when	-6.01454
▁would	-6.03031
d	-6.03112
ve	-6.05186
▁at	-6.08859
▁love	-6.09657
▁let	-6.11251
▁or	-6.13488
▁out	-6.13943
▁come	-6.15163
▁man	-6.17139
▁"	-6.17325
▁has	-6.17526
▁up	-6.17958
▁about	-6.17982
▁sir	-6.1984
▁how	-6.21875
▁there	-6.223
▁one	-6.2551
▁them	-6.26021
▁then	-6.26111
▁tell	-6.2834
▁say	-6.29069
-	-6.29436
▁our	-6.29557
▁see	-6.30093
▁oh	-6.30219
▁know	-6.33677
▁than	-6.3391
▁were	-6.34319
▁more	-6.36104
▁lord	-6.38254
▁get	-6.38887
ed	-6.41511
▁well	-6.43716
▁just	-6.45095
▁their	-6.4583
▁us	-6.46211
▁an	-6.47205
▁did	-6.47513
▁king	-6.49412
▁make	-6.52131
▁think	-6.55152
▁even	-6.55308
to	-6.59636
▁because	-6.63086
▁take	-6.64444
▁been	-6.65289
▁give	-6.65785
▁time	-6.66983
▁only	-6.67168
▁too	-6.68286
▁could	-6.73505
▁where	-6.75256
▁why	-6.75743
▁god	-6.76427
▁had	-6.7648
▁should	-6.78609
▁some	-6.7935
▁away	-6.80364
▁any	-6.80432
▁look	-6.82128
▁which	-6.85187
▁way	-6.87271
▁father	-6.87586
▁won	-6.8844
▁want	-6.90313
:	-6.90512
▁does	-6.90908
▁right	-6.91608
▁men	-6.91778
▁yes	-6.92242
▁people	-6.9305
▁please	-6.94351
▁never	-6.95327
▁much	-7.00884
▁these	-7.01433
▁back	-7.01593
▁going	-7.02398
▁other	-7.03257
▁before	-7.08009
▁since	-7.11981
"	-7.13876
▁must	-7.14228
▁own	-7.14618
▁into	-7.16527
▁over	-7.18895
▁old	-7.19176
▁am	-7.1932
▁hear	-7.19368
▁very	-7.20163
ly	-7.20359
▁down	-7.20659
▁made	-7.23481
▁heart	-7.23769
▁life	-7.24893
▁put	-7.25677
▁may	-7.26519
▁again	-7.30675
."	-7.30694
▁two	-7.31709
▁speak	-7.32094
▁keep	-7.33965
▁death	-7.34077
▁things	-7.34322
▁true	-7.35003
▁night	-7.35161
▁better	-7.37028
▁such	-7.37074
▁said	-7.39136
▁still	-7.39158
▁off	-7.39733
▁son	-7.41168
▁enough	-7.41488
▁woman	-7.41541
▁die	-7.42527
▁dead	-7.42965
y	-7.43453
▁day	-7.43711
▁nothing	-7.4512
▁help	-7.45261
▁myself	-7.45463
▁little	-7.4588
▁though	-7.46049
▁being	-7.46154
▁find	-7.46317
▁world	-7.47448
▁anything	-7.47914
▁leave	-7.48274
l	-7.49539
▁those	-7.49543
▁name	-7.50447
▁young	-7.51574
▁wife	-7.5165
▁long	-7.51889
▁eyes	-7.52003
▁brother	-7.52304
▁caesar	-7.53583
▁while	-7.53839
▁against	-7.53854
▁himself	-7.56285
▁swear	-7.56454
▁bad	-7.56894
▁face	-7.57806
▁ever	-7.5782
▁master	-7.59198
▁lady	-7.59295
▁something	-7.59836
▁call	-7.59917
▁unti	-7.61681
▁listen	-7.61713
▁poor	-7.61795
▁wish	-7.62022
▁bring	-7.62693
▁noble	-7.63633
▁yourself	-7.64619
▁thing	-7.64833
▁most	-7.6524
▁everything	-7.65932
▁both	-7.6623
▁hope	-7.67121
▁great	-7.67206
▁done	-7.6744
▁duke	-7.68919
▁after	-7.69574
▁many	-7.69763
▁first	-7.69839
▁sweet	-7.70057
▁news	-7.70275
e	-7.71837
▁friend	-7.72257
▁fool	-7.72263
▁really	-7.72461
▁stay	-7.72701
▁same	-7.72754
▁every	-7.72846
▁hand	-7.73658
▁fight	-7.7404
▁without	-7.74068
▁daughter	-7.74812
▁husband	-7.74876
▁once	-7.7518
▁else	-7.75411
▁sure	-7.76371
▁friends	-7.7803
▁got	-7.78581
▁around	-7.80736
▁head	-7.80968
▁live	-7.81542
▁heard	-7.8186
▁show	-7.82347
▁money	-7.82582
▁prince	-7.82999
▁ask	-7.83451
▁told	-7.83634
▁words	-7.83774
▁stop	-7.84015
▁comes	-7.84323
▁beautiful	-7.84519
▁talk	-7.84912
▁someone	-7.84944
▁kill	-7.84971
▁feel	-7.85121
▁kind	-7.85793
▁makes	-7.86153
▁heaven	-7.86317
▁might	-7.87279
▁always	-7.88277
▁yet	-7.88332
▁mind	-7.88741
▁blood	-7.89936
▁honor	-7.89948
▁queen	-7.90126
▁house	-7.90589
▁word	-7.90602
▁best	-7.91282
▁already	-7.91414
▁need	-7.92174
▁mother	-7.93667
▁mean	-7.93799
▁play	-7.94325
▁sword	-7.94559
▁happy	-7.94653
▁three	-7.94731
▁dear	-7.94991
▁boy	-7.95003
▁home	-7.95098
▁care	-7.98359
▁madam	-7.98511
he	-7.98752
,"	-7.99141
▁another	-7.99932
▁each	-8.00342
▁doing	-8.00684
▁believe	-8.00845
▁antony	-8.01095
▁send	-8.01113
▁killed	-8.01219
▁letter	-8.01862
▁reason	-8.02941
▁left	-8.03025
▁through	-8.03425
▁wrong	-8.03551
▁place	-8.03706
▁coming	-8.04048
▁sleep	-8.04333
▁person	-8.05046
▁soon	-8.05985
▁thought	-8.07135
▁goodbye	-8.07318
▁body	-8.07948
▁anyone	-8.07967
▁talking	-8.087
▁everyone	-8.08779
▁together	-8.10045
▁saw	-8.10908
▁part	-8.11597
▁matter	-8.11968
▁war	-8.12199
▁thank	-8.12419
▁welcome	-8.12878
▁end	-8.13655
▁beg	-8.14551
▁rather	-8.14837
▁work	-8.15061
▁last	-8.15358
▁ready	-8.16316
▁new	-8.16378
▁stand	-8.1678
▁mine	-8.17148
▁wait	-8.17265
▁power	-8.17798
▁use	-8.19302
▁whatever	-8.19507
▁truth	-8.1989
▁gave	-8.20376
▁hands	-8.20402
▁either	-8.21325
▁gone	-8.21906
▁run	-8.22009
▁tomorrow	-8.22283
▁tonight	-8.2295
▁pay	-8.23037
▁sad	-8.23283
▁follow	-8.23772
▁times	-8.24369
▁married	-8.24727
▁turn	-8.24755
▁servant	-8.2509
▁alive	-8.2529
▁sent	-8.25361
▁women	-8.25697
▁rest	-8.25839
▁also	-8.25941
▁full	-8.26138
▁saying	-8.26506
▁morning	-8.26522
▁devil	-8.27212
▁battle	-8.27216
▁used	-8.27244
▁between	-8.27734
▁child	-8.27965
▁seen	-8.28296
▁beauty	-8.29248
▁earth	-8.29251
▁whole	-8.29892
▁remember	-8.30474
▁horse	-8.30895
▁act	-8.31094
▁its	-8.3111
▁afraid	-8.31351
▁england	-8.31879
▁peace	-8.31882
▁making	-8.32483
▁un	-8.32604
▁mistress	-8.32934
▁lie	-8.32947
▁alone	-8.32973
▁become	-8.33144
▁army	-8.34051
▁means	-8.34284
▁gentleman	-8.3506
▁bed	-8.35698
▁says	-8.36043
▁lost	-8.36835
▁meet	-8.36962
▁soul	-8.36992
▁marry	-8.37084
▁fear	-8.37187
▁romeo	-8.3753
▁thousand	-8.37538
▁sea	-8.38263
▁answer	-8.38493
▁far	-8.38903
▁richard	-8.39584
▁try	-8.40648
▁cousin	-8.43388
▁under	-8.4358
▁angry	-8.43678
▁quickly	-8.43713
▁eat	-8.43809
▁john	-8.44229
▁children	-8.44295
▁today	-8.45165
▁came	-8.45501
▁brave	-8.45924
▁luck	-8.46136
▁quiet	-8.46597
▁gods	-8.46759
▁sun	-8.46977
▁sister	-8.47029
▁hell	-8.47061
▁honest	-8.47175
▁rome	-8.47214
er	-8.47332
▁enemy	-8.47337
▁looks	-8.47448
▁given	-8.47649
▁tears	-8.47795
▁aren	-8.49432
▁crazy	-8.49861
▁watch	-8.50105
▁country	-8.50456
i	-8.5055
▁wise	-8.50683
▁story	-8.51122
al	-8.51706
▁wants	-8.51765
▁hate	-8.51904
▁next	-8.52401
▁girl	-8.52773
▁cry	-8.52847
▁half	-8.53073
▁seem	-8.53221
▁having	-8.54474
▁court	-8.54837
▁uncle	-8.54987
▁hurry	-8.5506
▁cut	-8.55392
▁crown	-8.55445
▁loved	-8.55454
▁fire	-8.56203
▁read	-8.563
▁sick	-8.56351
▁yours	-8.569
▁worse	-8.57084
▁gentlemen	-8.57094
in	-8.57665
r	-8.57683
▁lose	-8.57701
▁france	-8.5776
▁clothes	-8.57778
▁happen	-8.57812
speaking	-8.58202
▁fall	-8.5844
▁telling	-8.58686
▁strange	-8.59086
▁thoughts	-8.59823
▁brutus	-8.59923
▁side	-8.60136
▁royal	-8.60573
▁able	-8.60814
▁order	-8.60994
▁fact	-8.61146
▁case	-8.6134
▁drink	-8.61422
▁sorry	-8.61975
▁happened	-8.621
▁lot	-8.62265
▁break	-8.62277
▁whom	-8.62277
▁change	-8.62346
▁hard	-8.62479
▁plan	-8.63007
▁haven	-8.63068
▁getting	-8.63559
▁pardon	-8.64131
▁cassio	-8.64159
▁claudio	-8.64194
▁hour	-8.64238
▁shall	-8.64307
▁french	-8.64345
▁sing	-8.65032
▁knows	-8.65177
▁hold	-8.65267
▁evil	-8.65684
▁longer	-8.65716
▁sake	-8.65995
▁free	-8.66179
▁instead	-8.66365
▁villain	-8.66407
▁dog	-8.66609
▁prove	-8.66882
▁wine	-8.67359
▁ship	-8.67434
▁music	-8.67449
▁often	-8.68027
▁worth	-8.68037
▁died	-8.68054
▁less	-8.68091
▁shame	-8.68121
▁land	-8.68207
▁fine	-8.68232
▁years	-8.68459
▁looking	-8.68544
▁hide	-8.68725
▁born	-8.68931
▁open	-8.69019
▁along	-8.69611
▁promise	-8.69871
▁called	-8.69934
a	-8.69937
▁forgive	-8.69991
▁point	-8.70152
▁terrible	-8.70185
▁nature	-8.70404
▁moon	-8.70454
▁found	-8.7091
▁trust	-8.70913
▁pretty	-8.70962
▁throw	-8.71062
▁hero	-8.71248
▁kiss	-8.71377
▁taken	-8.71417
▁inside	-8.71614
▁except	-8.71765
▁law	-8.71819
▁grief	-8.72024
▁room	-8.72941
!"	-8.72974
▁wind	-8.73426
▁nor	-8.73529
▁soldier	-8.73532
▁ha	-8.73553
▁sit	-8.73742
▁set	-8.73798
▁twenty	-8.74149
▁city	-8.74163
▁ahead	-8.74351
▁hurt	-8.74848
▁ring	-8.74958
▁knew	-8.74958
▁marriage	-8.74963
giving	-8.75262
▁high	-8.757
▁hamlet	-8.758
▁gold	-8.75862
▁light	-8.75895
▁soldiers	-8.76413
▁age	-8.76499
ought	-8.76541
▁hair	-8.77433
▁write	-8.7746
▁unless	-8.7747
▁voice	-8.77582
▁second	-8.77725
▁return	-8.78012
▁dark	-8.78174
▁goes	-8.78179
▁business	-8.78282
▁water	-8.79118
▁t	-8.79145
▁trying	-8.79489
▁wear	-8.79894
se	-8.80004
▁fellow	-8.80239
▁foolish	-8.80793
▁least	-8.80866
▁moment	-8.80867
▁air	-8.81785
▁trouble	-8.81959
▁toward	-8.82129
▁thinking	-8.82226
▁indeed	-8.82605
▁took	-8.82778
▁revenge	-8.8318
▁worry	-8.8324
most	-8.8343
▁behind	-8.83476
▁praise	-8.8352
▁seems	-8.84008
▁lies	-8.84332
▁pity	-8.8438
▁lying	-8.84454
▁wake	-8.84861
▁farewell	-8.85271
▁lead	-8.85289
▁loves	-8.86108
▁cold	-8.86316
▁job	-8.86524
es	-8.86605
▁win	-8.87141
▁understand	-8.8716
o	-8.87344
▁reputation	-8.87444
▁others	-8.87456
est	-8.87766
▁lives	-8.87812
▁carry	-8.87814
▁grace	-8.87887
▁fast	-8.87917
▁deserve	-8.88019
▁near	-8.88051
▁therefore	-8.88052
▁cause	-8.88502
▁common	-8.88713
▁fighting	-8.88758
▁itself	-8.89148
▁lover	-8.89808
▁strong	-8.8987
▁actually	-8.8991
▁harry	-8.89945
▁honorable	-8.8996
▁servants	-8.90157
▁fortune	-8.90262
▁)	-8.90645
▁edward	-8.90896
▁judge	-8.90957
▁forever	-8.91052
as	-8.91092
▁forget	-8.91095
▁bear	-8.91247
▁nice	-8.91688
▁family	-8.91815
▁gentle	-8.91854
▁dream	-8.91882
▁holy	-8.91918
▁beat	-8.91983
▁turned	-8.92074
▁fair	-8.92255
▁calm	-8.92598
▁big	-8.93646
▁damn	-8.93704
▁lucentio	-8.93812
▁hey	-8.93919
▁al	-8.94066
▁sound	-8.94072
▁sorrow	-8.9419
▁ground	-8.94194
▁close	-8.94574
▁antonio	-8.94757
▁kate	-8.94779
▁exactly	-8.94788
▁truly	-8.94818
▁br	-8.95356
▁enemies	-8.95755
▁possible	-8.95777
▁kingdom	-8.9619
▁traitor	-8.96192
▁real	-8.96201
▁bit	-8.96521
▁mercy	-8.96764
▁anger	-8.96909
▁count	-8.9695
▁cannot	-8.96968
▁murder	-8.97056
▁sense	-8.97214
▁sin	-8.97646
▁justice	-8.97653
▁spirit	-8.97703
▁weak	-8.9771
▁highness	-8.97803
▁gives	-8.9794
▁curse	-8.98016
▁join	-8.98252
▁breath	-8.9835
▁maybe	-8.98883
▁taking	-8.99072
▁dare	-8.9924
▁angelo	-8.99932
▁four	-8.99948
▁eye	-9.0031
▁asked	-9.00395
▁wild	-9.00907
▁save	-9.00932
▁roman	-9.01428
▁waiting	-9.01504
▁rich	-9.01615
▁serious	-9.01908
▁white	-9.01926
▁pray	-9.02086
▁important	-9.02104
▁dinner	-9.03045
▁horrible	-9.03053
▁macbeth	-9.03075
▁living	-9.03094
▁walk	-9.03173
▁went	-9.03418
▁guy	-9.03643
▁accept	-9.04122
▁song	-9.04401
▁crying	-9.04539
▁friar	-9.05076
ness	-9.05227
▁s	-9.05299
▁fun	-9.05707
▁position	-9.05912
▁comfort	-9.06096
▁upon	-9.06163
the	-9.06291
▁wanted	-9.06302
▁english	-9.06329
▁days	-9.06421
▁herself	-9.06437
▁move	-9.06984
▁ten	-9.07157
▁innocent	-9.07215
▁black	-9.0747
▁leaving	-9.07512
▁doubt	-9.0761
on	-9.07852
▁start	-9.08179
▁grave	-9.08214
▁treat	-9.0834
▁agree	-9.08372
▁short	-9.08435
▁majesty	-9.08606
▁immediately	-9.08611
▁martius	-9.0866
▁past	-9.08881
▁bloody	-9.08953
▁worthy	-9.09024
▁chance	-9.09337
▁food	-9.09519
▁general	-9.105
▁proud	-9.10883
▁false	-9.10913
▁horses	-9.10925
▁pompey	-9.10944
▁bless	-9.11238
▁crime	-9.1167
▁captain	-9.11762
▁dangerous	-9.12027
▁neither	-9.12095
▁sometimes	-9.12181
▁grow	-9.12207
▁lips	-9.1242
▁hot	-9.12488
▁supposed	-9.13288
▁ago	-9.13549
▁hang	-9.139
▁sleeping	-9.14017
▁service	-9.1411
▁idea	-9.14445
▁wearing	-9.14868
▁pale	-9.14936
▁respect	-9.15232
▁joy	-9.15428
▁jew	-9.15451
▁hundred	-9.15516
▁faithful	-9.15653
▁themselves	-9.1571
▁sky	-9.15731
▁front	-9.15737
▁feelings	-9.16016
▁enjoy	-9.1623
▁consider	-9.16812
▁benedick	-9.17002
▁powerful	-9.17091
▁flowers	-9.17093
▁ah	-9.17509
▁monster	-9.1797
▁state	-9.18131
▁excellent	-9.18134
▁certain	-9.18166
▁deny	-9.18205
▁looked	-9.18265
▁command	-9.1872
ous	-9.18775
▁poison	-9.18996
▁drunk	-9.1911
▁public	-9.19426
▁completely	-9.19475
▁ladies	-9.19488
▁banished	-9.19524
▁wedding	-9.19531
▁hello	-9.19848
▁favor	-9.20322
▁o	-9.20483
▁control	-9.20485
▁pretend	-9.20541
▁falstaff	-9.20741
▁blind	-9.20858
able	-9.20873
▁town	-9.21134
▁excuse	-9.21476
▁lovers	-9.21694
▁messenger	-9.21761
▁tongue	-9.21773
▁minute	-9.21782
▁cruel	-9.21975
▁stupid	-9.22003
▁gloucester	-9.2204
▁letters	-9.22076
▁worst	-9.22104
▁ears	-9.22306
▁offer	-9.2294
▁standing	-9.23029
▁visit	-9.23052
▁imagine	-9.23091
▁protect	-9.23228
▁late	-9.23233
▁kept	-9.23352
▁bardolph	-9.23355
▁pain	-9.23539
▁joke	-9.23559
▁learn	-9.23577
▁admit	-9.23638
▁besides	-9.23785
▁feeling	-9.23947
▁laugh	-9.24048
▁courage	-9.24586
▁whe	-9.24601
▁serve	-9.24618
▁advice	-9.24687
▁fought	-9.24759
▁door	-9.24785
▁forward	-9.24871
▁lords	-9.25111
▁small	-9.25467
▁youth	-9.2551
▁hit	-9.25599
▁few	-9.26005
▁duty	-9.26036
▁bolingbroke	-9.26041
▁red	-9.26384
▁human	-9.27236
▁dance	-9.27238
▁obey	-9.27277
▁piece	-9.27358
▁flesh	-9.27407
▁course	-9.2741
▁cassius	-9.27441
▁anymore	-9.27458
▁whore	-9.27526
ther	-9.27864
▁upset	-9.27888
▁draw	-9.27921
▁early	-9.2812
▁harm	-9.28388
▁mood	-9.28691
▁clear	-9.28732
▁company	-9.28841
▁henry	-9.28862
▁challenge	-9.28898
▁safe	-9.2891
▁gets	-9.29124
▁speaking	-9.29487
▁teach	-9.29542
▁valentine	-9.30245
▁later	-9.30294
▁juliet	-9.30305
▁rosalind	-9.3034
▁asking	-9.30514
▁deep	-9.30548
▁beard	-9.30726
▁fat	-9.31328
▁patient	-9.31503
▁glad	-9.31555
▁future	-9.31633
▁otherwise	-9.31641
▁york	-9.31643
▁lion	-9.31667
▁takes	-9.31679
▁tybalt	-9.31734
▁disguise	-9.32136
▁de	-9.32254
▁charge	-9.32664
▁request	-9.32802
▁actions	-9.32841
▁catch	-9.33054
▁easy	-9.33119
▁awful	-9.33131
▁broken	-9.33266
▁plans	-9.33375
▁promised	-9.33574
▁owe	-9.33695
▁mark	-9.33908
▁killing	-9.34136
▁blame	-9.3431
▁storm	-9.34339
▁gracious	-9.34492
▁fate	-9.34543
▁wicked	-9.34552
▁throne	-9.34561
▁guilty	-9.34597
▁ran	-9.3461
▁mouth	-9.34614
▁iago	-9.34647
▁loving	-9.34648
▁sight	-9.34844
▁defend	-9.34896
▁orders	-9.34986
▁armor	-9.35139
▁likely	-9.35213
▁spend	-9.35855
▁punish	-9.35892
▁prison	-9.35914
▁different	-9.36011
▁lovely	-9.36044
▁signior	-9.36047
▁virtuous	-9.36047
▁message	-9.36051
▁attention	-9.3615
▁tree	-9.36282
▁happens	-9.3663
▁deal	-9.37373
▁choose	-9.37529
▁quick	-9.37582
▁sadness	-9.37588
▁sylvia	-9.37595
▁written	-9.37596
▁known	-9.37636
▁arms	-9.37655
▁blow	-9.37758
▁asleep	-9.37775
▁fools	-9.38172
▁fill	-9.38181
▁wounds	-9.38422
▁forest	-9.38577
▁deliver	-9.38591
▁secret	-9.38957
▁guess	-9.3905
▁situation	-9.39064
▁danger	-9.39112
▁hours	-9.39155
▁shut	-9.39187
▁whoever	-9.39264
▁pull	-9.39403
law	-9.3955
▁figure	-9.39856
▁mistake	-9.40024
▁thanks	-9.40036
▁meant	-9.40157
▁desire	-9.40306
▁nurse	-9.40382
▁church	-9.406
▁wonderful	-9.40602
▁ugly	-9.40658
▁precious	-9.40662
▁authority	-9.40662
▁happiness	-9.40667
▁slave	-9.4067
▁punishment	-9.4069
▁force	-9.4074
▁pass	-9.40823
▁mad	-9.41036
▁ones	-9.41566
▁sins	-9.42026
▁support	-9.42067
▁flower	-9.42086
▁none	-9.42107
▁avoid	-9.42124
▁beggar	-9.42239
▁percy	-9.42247
▁edmund	-9.42247
▁othello	-9.42248
▁behavior	-9.42253
▁sex	-9.42281
▁clarence	-9.42286
▁heavy	-9.42287
▁baby	-9.42288
▁wit	-9.42295
▁bastard	-9.42306
▁birth	-9.42316
▁calling	-9.42571
▁loyal	-9.42589
▁rid	-9.42935
▁low	-9.43107
▁buy	-9.43285
▁shake	-9.43651
▁ruin	-9.43745
▁goddess	-9.43813
▁subject	-9.43857
▁desdemona	-9.43862
▁further	-9.43867
▁knight	-9.43877
▁paper	-9.43881
▁shepherd	-9.43939
▁arrived	-9.43979
▁saint	-9.4403
▁forgotten	-9.44298
▁bet	-9.44314
bye	-9.44584
▁march	-9.45303
aside	-9.45376
▁wall	-9.45431
▁violent	-9.45444
▁coward	-9.45455
▁dying	-9.45543
▁tired	-9.45558
▁certainly	-9.45576
▁started	-9.45686
▁recognize	-9.45844
▁trick	-9.45971
▁heavens	-9.46565
▁playing	-9.46673
▁deserves	-9.46728
▁line	-9.47052
▁claim	-9.47073
▁easily	-9.47168
▁moor	-9.47291
▁fish	-9.47354
▁liar	-9.4737
▁bright	-9.47388
▁feet	-9.47412
▁deed	-9.47598
▁smile	-9.47785
▁allow	-9.47935
st	-9.48204
"?	-9.48309
▁straight	-9.48535
▁question	-9.48677
▁cleopatra	-9.48862
▁running	-9.48871
▁virgin	-9.48957
▁fell	-9.49008
▁natural	-9.49225
▁boys	-9.49242
▁rage	-9.49274
▁five	-9.49701
▁thinks	-9.49914
▁present	-9.49967
▁opinion	-9.50072
▁ride	-9.50219
▁lysander	-9.50586
▁carried	-9.50657
▁proteus	-9.50666
▁anyway	-9.50684
▁dressed	-9.5085
▁caused	-9.51031
▁legs	-9.51077
▁willing	-9.51426
▁acting	-9.51448
▁sons	-9.51483
▁lived	-9.52051
▁attack	-9.52108
▁prepare	-9.52155
▁appear	-9.52192
▁angel	-9.52266
▁wealth	-9.52267
▁feast	-9.52278
▁speech	-9.52286
▁smart	-9.52321
▁okay	-9.52335
▁bianca	-9.52338
▁bassanio	-9.5234
▁single	-9.52357
▁shallow	-9.52358
▁ashamed	-9.52377
▁hermia	-9.52382
▁beatrice	-9.52406
▁ruined	-9.52473
▁ghost	-9.52494
▁famous	-9.52502
▁strength	-9.52512
▁summer	-9.52532
▁field	-9.52551
▁risk	-9.5258
▁seemed	-9.52719
▁pure	-9.52782
▁arm	-9.52949
▁crimes	-9.52979
▁swords	-9.53199
▁self	-9.53688
▁value	-9.54076
▁earl	-9.54121
▁probably	-9.54126
▁committed	-9.54162
▁carefully	-9.54176
▁worthless	-9.54242
▁problem	-9.54308
▁blessed	-9.54321
▁dogs	-9.54354
▁magic	-9.54381
▁noise	-9.54441
▁hal	-9.55113
▁expect	-9.55474
▁within	-9.55782
▁health	-9.55852
▁cure	-9.55855
▁hearts	-9.55926
▁dromio	-9.55941
▁explain	-9.55942
▁loud	-9.55955
▁insane	-9.55958
▁spent	-9.55965
▁guard	-9.56003
▁strike	-9.56176
▁rank	-9.56453
▁manners	-9.56501
▁changed	-9.56633
▁drop	-9.57261
▁awake	-9.57538
ting	-9.5759
▁aside	-9.57601
▁reasons	-9.57693
▁deeds	-9.57696
▁appropriate	-9.57742
▁empty	-9.57837
▁outside	-9.57884
▁touch	-9.57969
▁damned	-9.58033
us	-9.58083
▁stick	-9.58143
▁tomb	-9.58211
▁treason	-9.58281
▁step	-9.58332
▁cover	-9.58348
▁ma	-9.58758
▁b	-9.59375
▁kings	-9.59458
▁disease	-9.59679
▁according	-9.59714
▁insult	-9.59821
▁grant	-9.59834
▁christian	-9.5996
▁pick	-9.60147
▁weep	-9.60263
▁turns	-9.60338
▁flatter	-9.60437
▁add	-9.60518
▁match	-9.60805
▁stars	-9.60967
▁d	-9.61326
▁list	-9.61519
▁perhaps	-9.61603
▁victory	-9.61605
▁simply	-9.61607
▁rise	-9.61626
▁faces	-9.6164
▁nobody	-9.6164
▁buried	-9.6165
▁pyramus	-9.61694
▁bottom	-9.61729
▁ships	-9.61855
▁loss	-9.61932
▁remain	-9.61939
▁ways	-9.6195
▁lucky	-9.61955
▁bird	-9.61975
▁dies	-9.62476
▁tear	-9.63131
▁suffer	-9.632
▁bother	-9.63281
▁island	-9.63295
▁keeps	-9.63451
▁share	-9.63503
▁silence	-9.63565
▁demetrius	-9.63611
▁refuse	-9.6365
▁lack	-9.63658
▁fit	-9.6366
▁however	-9.6369
▁reward	-9.638
▁swore	-9.63836
▁keeping	-9.63856
▁advantage	-9.63964
▁prisoner	-9.63965
▁action	-9.64106
▁foot	-9.64366
gotten	-9.64513
▁perform	-9.64658
▁souls	-9.65112
less	-9.65238
▁lay	-9.65322
▁neck	-9.65423
▁burn	-9.65486
▁thief	-9.65563
▁hastings	-9.6557
▁ourselves	-9.65611
▁third	-9.65618
▁proper	-9.65619
▁paid	-9.65724
▁fresh	-9.65816
▁allowed	-9.65926
▁greek	-9.65978
▁officer	-9.65979
ish	-9.6605
▁hanging	-9.66065
▁year	-9.66302
▁rain	-9.66362
▁shows	-9.66646
▁prayers	-9.66673
▁commit	-9.66842
▁working	-9.66863
▁priest	-9.66944
▁perfect	-9.67544
▁ocean	-9.67602
▁sheep	-9.67624
▁stopped	-9.67634
▁shakespeare	-9.67653
▁lust	-9.67654
▁richmond	-9.677
▁huge	-9.67889
▁fault	-9.68038
▁language	-9.68047
▁virtue	-9.68068
▁knees	-9.6809
▁smell	-9.68131
▁oath	-9.68135
▁romans	-9.68658
▁princes	-9.68979
ies	-9.69001
▁compare	-9.69102
▁faults	-9.69244
clock	-9.69312
▁confess	-9.6956
▁felt	-9.69714
▁wives	-9.69784
▁seven	-9.69808
▁scared	-9.6982
▁spoke	-9.6984
▁punished	-9.69871
▁six	-9.69901
▁treated	-9.69907
▁legal	-9.6994
▁considered	-9.69952
▁forced	-9.70073
▁title	-9.70178
▁tyrant	-9.70192
▁river	-9.70196
▁conscience	-9.70228
▁mighty	-9.70354
and	-9.71059
▁wonder	-9.71544
▁pistol	-9.71813
▁cupid	-9.71814
▁qualities	-9.71815
▁cried	-9.71821
▁handsome	-9.71857
▁decided	-9.72019
▁corpse	-9.72342
▁handkerchief	-9.72347
quite	-9.72489
▁heads	-9.73002
▁rule	-9.73452
▁lear	-9.73665
▁jealous	-9.73879
▁camillo	-9.73988
▁orlando	-9.73988
▁winter	-9.73996
▁suddenly	-9.74018
▁finished	-9.74096
▁healthy	-9.74217
or	-9.74238
▁escape	-9.7426
▁suffering	-9.74301
▁covered	-9.74501
▁friendship	-9.74581
▁book	-9.74661
▁widow	-9.74732
it	-9.7478
▁top	-9.74907
▁eating	-9.74962
▁helped	-9.75242
▁thisbe	-9.75266
en	-9.75385
▁heir	-9.75457
▁destroy	-9.75863
▁accuse	-9.75924
▁silent	-9.76154
an	-9.76172
▁st	-9.76192
▁despair	-9.76209
▁buckingham	-9.76211
▁hatred	-9.76213
▁bodies	-9.76276
▁bow	-9.76371
▁learned	-9.76413
▁honestly	-9.76439
singing	-9.76532
▁badly	-9.76708
▁ordered	-9.76729
am	-9.7675
▁doctor	-9.76833
▁freedom	-9.76835
▁humble	-9.76861
▁judgment	-9.76886
▁glove	-9.76897
▁brothers	-9.76898
▁dull	-9.76907
▁weapons	-9.77103
▁vows	-9.77439
▁warm	-9.77501
▁spirits	-9.77572
▁sounds	-9.77596
▁seek	-9.77767
▁test	-9.77855
▁describe	-9.78246
▁entire	-9.78422
▁kent	-9.78482
▁petruchio	-9.78483
▁patience	-9.78491
▁among	-9.78493
▁ducats	-9.7851
▁northumberland	-9.78537
▁golden	-9.78559
▁troops	-9.78586
▁whenever	-9.7867
▁named	-9.7876
▁idiot	-9.79155
▁character	-9.79156
▁waste	-9.79186
▁nine	-9.79351
▁double	-9.79579
till	-9.79629
▁worship	-9.79876
▁ear	-9.80209
▁bitter	-9.80751
▁beyond	-9.80806
▁venice	-9.80806
▁wrote	-9.80806
▁leonato	-9.80807
▁worried	-9.80808
▁permission	-9.80809
▁across	-9.8084
▁banquo	-9.80859
▁laertes	-9.8086
▁re	-9.80862
▁rotten	-9.80863
▁sign	-9.80874
▁knock	-9.80903
▁choice	-9.80948
▁intend	-9.80998
▁hanged	-9.81129
▁wishes	-9.81192
▁sentence	-9.8124
▁goodness	-9.81249
▁rush	-9.81264
▁picture	-9.81533
▁castle	-9.81538
▁gift	-9.81539
▁horns	-9.8157
▁spoken	-9.81582
▁shore	-9.81856
▁realize	-9.81977
▁express	-9.8207
▁convince	-9.82187
▁stone	-9.82243
▁remind	-9.82256
ver	-9.82462
▁swor	-9.82763
▁wash	-9.8293
▁rude	-9.83171
▁pride	-9.83185
▁portia	-9.83189
▁memory	-9.83191
▁subjects	-9.83194
▁miserable	-9.83203
▁recently	-9.83214
▁malvolio	-9.83243
looking	-9.83265
▁caught	-9.83274
▁laws	-9.83276
▁olivia	-9.83298
▁hardly	-9.83372
▁wide	-9.83389
▁bones	-9.83457
▁apart	-9.83548
▁tied	-9.83763
▁belong	-9.83805
▁followed	-9.83815
▁rough	-9.83917
▁equal	-9.83948
▁snake	-9.83978
▁bold	-9.8398
▁usual	-9.84002
▁mi	-9.84018
▁toby	-9.84331
▁following	-9.84332
▁tower	-9.84373
▁speaks	-9.84659
▁mr	-9.84991
▁meaning	-9.85184
▁arrest	-9.85565
▁lines	-9.85574
▁lunch	-9.8562
▁london	-9.85626
▁hidden	-9.85626
▁necklace	-9.85627
▁loyalty	-9.85637
▁tried	-9.85664
whispering	-9.85668
▁wisdom	-9.85681
▁jove	-9.85685
▁foul	-9.85694
▁citizens	-9.85946
▁cheer	-9.85951
▁slander	-9.85953
▁color	-9.8601
at	-9.86255
▁animal	-9.86471
▁offend	-9.87182
is	-9.87184
▁madame	-9.87577
▁sings	-9.87649
▁birds	-9.8776
▁star	-9.87975
▁witness	-9.88023
▁suit	-9.8807
▁niece	-9.88123
▁twice	-9.88124
▁definitely	-9.88127
▁poetry	-9.88128
▁yourselves	-9.8813
▁finally	-9.88146
▁begging	-9.88199
▁stronger	-9.88213
▁jack	-9.8828
▁steal	-9.88492
▁dress	-9.88521
▁raise	-9.88563
▁experience	-9.88663
▁nephew	-9.89018
▁breaking	-9.89061
▁streets	-9.89087
▁actors	-9.89162
▁brain	-9.89229
▁turning	-9.894
like	-9.90137
▁stole	-9.90337
▁dry	-9.90547
▁th	-9.90658
▁egypt	-9.90686
▁middle	-9.90688
▁private	-9.90688
▁nasty	-9.90689
▁example	-9.90689
▁goneril	-9.90689
▁armies	-9.90698
▁absolutely	-9.90719
▁knights	-9.90787
▁desires	-9.9079
▁nose	-9.90899
▁daughters	-9.90902
▁proof	-9.9094
ers	-9.91068
▁weeping	-9.91124
▁walking	-9.91262
▁notice	-9.91454
▁forbid	-9.91499
▁needs	-9.91505
▁singing	-9.91535
▁worn	-9.91596
▁depend	-9.91598
▁forehead	-9.91632
▁valuable	-9.91634
▁mirror	-9.91638
▁lieutenant	-9.91652
▁criminal	-9.91667
▁consul	-9.91749
▁amen	-9.91753
▁leaves	-9.91895
▁lend	-9.92124
te	-9.92232
ment	-9.92292
▁table	-9.92451
▁gifts	-9.92492
ful	-9.92614
man	-9.92651
▁names	-9.92778
▁careful	-9.93289
▁hortensio	-9.93321
▁simple	-9.93326
▁behalf	-9.93369
▁horatio	-9.9338
▁clearly	-9.93425
▁green	-9.93427
▁tranio	-9.93442
▁clothing	-9.93446
▁forces	-9.93467
▁coriolanus	-9.93573
offstage	-9.93607
▁greater	-9.93638
▁murdered	-9.93659
▁alas	-9.93664
▁intentions	-9.93983
you	-9.94025
h	-9.94126
▁wronged	-9.94161
ion	-9.94173
▁drinking	-9.9419
▁affection	-9.94198
▁persuade	-9.94291
▁tent	-9.943
▁sonnet	-9.94364
▁pleasure	-9.94367
▁scene	-9.94375
▁hat	-9.94382
▁shed	-9.94904
▁sharp	-9.957
▁decide	-9.958
▁blunt	-9.95845
▁dur	-9.95971
▁julia	-9.96023
▁wales	-9.96029
▁silly	-9.96031
▁paris	-9.96069
▁jesus	-9.96082
▁fancy	-9.96082
▁lepidus	-9.96084
▁journey	-9.96084
▁margaret	-9.96085
▁dirty	-9.96087
no	-9.96128
▁stood	-9.96171
▁offended	-9.9622
▁promises	-9.96246
she	-9.96435
▁lock	-9.96517
▁clouds	-9.96634
came	-9.96752
▁plays	-9.96778
▁pimp	-9.96828
▁jerk	-9.97022
▁bedroom	-9.97106
▁tune	-9.97442
▁francis	-9.97519
ar	-9.97602
▁ho	-9.97853
▁books	-9.98036
▁w	-9.98408
▁woo	-9.98431
▁broke	-9.98487
▁listening	-9.98502
▁clever	-9.98718
▁knife	-9.98796
▁m	-9.98823
▁gaunt	-9.98861
▁faster	-9.989
▁exchange	-9.98987
▁beaten	-9.99018
▁cheap	-9.99028
▁belly	-9.99116
▁prepared	-9.99261
▁receive	-9.9967
de	-9.99794
▁slow	-9.99843
▁poems	-9.99901
▁scoundrel	-9.99972
▁wound	-10.0003
▁passion	-10.0007
▁murderer	-10.001
▁evening	-10.0012
▁gates	-10.0029
▁matters	-10.0035
▁happening	-10.009
▁drive	-10.0095
▁walls	-10.0127
▁endure	-10.0143
▁separate	-10.0145
▁mock	-10.0148
▁harsh	-10.0162
▁edgar	-10.0165
▁slept	-10.0165
▁glory	-10.0165
▁satisfy	-10.0166
▁aufidius	-10.0166
▁baptista	-10.0166
▁nonsense	-10.0166
▁scotland	-10.0166
▁polixenes	-10.0166
▁twelve	-10.0166
▁impossible	-10.0166
▁property	-10.0166
▁trees	-10.0168
▁darkness	-10.0169
▁mowbray	-10.0172
▁perfectly	-10.0174
▁helena	-10.0175
▁destroyed	-10.0182
▁kindness	-10.0184
▁seriously	-10.0188
▁raised	-10.0201
▁acts	-10.0204
▁cheeks	-10.0208
▁surely	-10.0219
▁deadly	-10.0241
▁sail	-10.0258
▁continue	-10.0263
▁praised	-10.0264
▁vow	-10.0284
▁stands	-10.0285
▁prevent	-10.0288
▁dagger	-10.0293
▁girls	-10.0293
▁image	-10.0307
▁treasure	-10.0315
▁shine	-10.0327
▁dreams	-10.0335
▁traitors	-10.0339
▁handle	-10.0341
▁bite	-10.0347
▁blessing	-10.0358
▁feels	-10.036
me	-10.0371
▁disgrace	-10.0385
▁soft	-10.0404
▁meeting	-10.0411
▁offstage	-10.0424
▁guarantee	-10.0445
▁becomes	-10.0445
▁reveal	-10.0447
▁mention	-10.0455
▁fruit	-10.046
▁regret	-10.046
▁roderigo	-10.046
▁darling	-10.046
▁poisonous	-10.0462
▁feed	-10.0462
▁foolishness	-10.0463
▁caius	-10.0466
▁former	-10.0468
▁drowned	-10.0472
▁silver	-10.0474
▁locked	-10.0475
▁despi	-10.0484
▁accused	-10.05
▁served	-10.0518
▁rebels	-10.0525
▁carrying	-10.0534
▁friendly	-10.0538
▁argue	-10.0581
▁h	-10.0591
▁wars	-10.0593
▁contract	-10.0594
▁lancaster	-10.0594
▁window	-10.0599
▁prayer	-10.0607
▁p	-10.0614
▁begin	-10.0648
▁stage	-10.065
▁led	-10.0701
▁chase	-10.0702
▁drown	-10.0731
▁fake	-10.0735
▁fix	-10.0756
▁devoted	-10.0757
▁sirrah	-10.0763
▁hercules	-10.0763
▁westmoreland	-10.0763
▁unhappy	-10.0763
▁ceremony	-10.0763
▁everybody	-10.0764
▁regan	-10.0766
▁thieves	-10.0766
▁launcelot	-10.077
▁anywhere	-10.0771
▁cowardly	-10.0773
▁plain	-10.0778
▁sooner	-10.0787
▁eight	-10.0791
▁stolen	-10.0805
▁pieces	-10.0817
ted	-10.0837
▁acted	-10.0859
▁torture	-10.0868
▁kneel	-10.0872
g	-10.0875
▁pounds	-10.0883
th	-10.0884
from	-10.0884
▁stayed	-10.0895
▁cloak	-10.0902
▁shadow	-10.0909
▁grab	-10.0912
litary	-10.0915
▁report	-10.0916
▁month	-10.0916
▁months	-10.0919
▁gate	-10.0921
▁rope	-10.0931
▁skin	-10.0947
▁suggest	-10.1005
▁winds	-10.1039
▁emperor	-10.1075
▁opportunity	-10.1075
▁whip	-10.1084
▁wretched	-10.1086
▁dearest	-10.1087
▁satisfied	-10.109
▁above	-10.1091
▁bound	-10.1091
▁refer	-10.1095
▁wounded	-10.1096
▁moving	-10.1098
▁invite	-10.1102
▁nobles	-10.1109
▁sell	-10.112
▁sort	-10.1121
▁returned	-10.1123
▁party	-10.1125
▁kindly	-10.1131
▁eaten	-10.1132
▁greetings	-10.1133
▁older	-10.1137
▁jump	-10.117
▁honors	-10.1212
▁trip	-10.1233
▁fashion	-10.1233
▁debt	-10.1236
aught	-10.1241
▁game	-10.1241
▁gown	-10.125
▁mourn	-10.1277
▁animals	-10.1286
▁loose	-10.1298
▁jokes	-10.1318
▁places	-10.1328
▁asks	-10.1331
▁seal	-10.1335
▁cheat	-10.1357
▁surrender	-10.1384
▁cap	-10.1392
▁ariel	-10.1397
▁norfolk	-10.1398
▁capitol	-10.1398
▁cordelia	-10.1398
▁funny	-10.1398
▁generous	-10.1398
▁although	-10.1398
▁nobility	-10.1401
▁executed	-10.1404
▁medicine	-10.1405
▁noblemen	-10.1406
▁peter	-10.1406
▁betrayed	-10.1408
▁weather	-10.1413
▁greatest	-10.1414
▁beloved	-10.1416
▁defeated	-10.1417
▁tricked	-10.1423
▁fly	-10.1428
▁tribunes	-10.1429
▁wood	-10.1465
▁breaks	-10.1471
▁minds	-10.1509
▁watching	-10.1518
▁events	-10.1522
▁interest	-10.1525
▁finger	-10.1534
▁plague	-10.1557
▁purpose	-10.1561
▁fingers	-10.1561
▁rascal	-10.1562
▁appearance	-10.1563
▁suits	-10.1586
▁extreme	-10.159
▁dis	-10.1598
▁mask	-10.1631
by	-10.1635
ity	-10.1657
▁hill	-10.1669
▁spare	-10.1685
▁behave	-10.1715
▁difficult	-10.1718
▁large	-10.1722
▁garden	-10.1726
▁shameful	-10.1727
▁prefer	-10.173
▁grumio	-10.1731
▁cyprus	-10.1731
▁naples	-10.1731
▁douglas	-10.1731
▁penalty	-10.1731
▁mercutio	-10.1731
▁octavius	-10.1731
▁evidence	-10.1731
▁possibly	-10.1731
▁cries	-10.1733
▁countrymen	-10.1735
▁north	-10.1736
▁writing	-10.1738
▁eager	-10.1739
▁sexual	-10.174
▁mortimer	-10.1746
▁captured	-10.1751
▁highly	-10.1754
▁offered	-10.1765
▁hail	-10.1766
▁ordinar	-10.1784
▁knocking	-10.1795
▁laughing	-10.1797
ld	-10.1798
▁useless	-10.1805
▁firm	-10.1835
▁tie	-10.1844
▁clean	-10.1856
▁sneak	-10.188
▁fail	-10.1884
▁played	-10.1889
▁enter	-10.1891
▁thunder	-10.1892
sings	-10.1895
▁tailor	-10.1905
▁lower	-10.1906
▁jewel	-10.1907
▁result	-10.1908
▁spring	-10.1908
▁merchant	-10.1911
▁sees	-10.1917
▁maid	-10.1921
▁thane	-10.1929
▁tremble	-10.2048
▁c	-10.205
▁questions	-10.206
▁ransom	-10.2061
▁build	-10.2063
▁defeat	-10.2065
▁faint	-10.2066
▁guilt	-10.2067
▁monstrous	-10.2068
▁elizabeth	-10.2071
▁dowry	-10.2076
▁thomas	-10.2076
▁hotspur	-10.2076
▁charmian	-10.2076
▁vincentio	-10.2076
▁senate	-10.2076
▁safety	-10.2076
▁milan	-10.2076
▁lightning	-10.2077
▁greet	-10.2077
▁smiling	-10.2078
▁somebody	-10.2078
▁practice	-10.2083
▁group	-10.2083
▁dancing	-10.2085
▁frightened	-10.2086
▁bury	-10.2089
▁hiding	-10.209
▁secrets	-10.2094
▁plead	-10.2095
▁due	-10.2095
▁shouting	-10.2096
▁suffered	-10.2098
▁burned	-10.2101
▁began	-10.2103
▁heal	-10.2124
▁pour	-10.2149
▁saved	-10.2155
▁pleases	-10.2159
▁sighs	-10.2167
▁wasting	-10.2168
▁younger	-10.2169
▁grown	-10.222
▁suspect	-10.2249
▁imagination	-10.2257
▁parts	-10.2257
▁trumpet	-10.226
▁skill	-10.2262
▁round	-10.2266
▁relative	-10.2267
▁brains	-10.2299
▁spell	-10.2305
▁plot	-10.2305
▁bare	-10.2374
▁form	-10.2414
▁painful	-10.2426
▁blows	-10.243
▁stubborn	-10.2432
▁padua	-10.2433
▁thurio	-10.2433
▁cawdor	-10.2433
▁duncan	-10.2433
▁cornwall	-10.2433
▁amount	-10.2436
▁taste	-10.2438
▁provide	-10.2438
hearted	-10.2443
▁spread	-10.2443
▁condemned	-10.2444
▁greatness	-10.2445
▁losing	-10.2446
▁jealousy	-10.2451
▁vile	-10.2452
▁senators	-10.2455
▁fled	-10.246
▁passed	-10.2464
▁received	-10.2467
▁joined	-10.2477
▁courageous	-10.248
▁refused	-10.248
▁burning	-10.2482
▁clock	-10.2497
▁falls	-10.2508
up	-10.2509
filled	-10.2511
▁agreed	-10.2515
▁miles	-10.2529
cient	-10.2529
▁worms	-10.2532
▁pair	-10.2537
▁hopes	-10.2551
▁gain	-10.2556
▁mistaken	-10.256
▁guests	-10.2562
▁relatives	-10.2601
▁marketplace	-10.2622
▁audience	-10.2622
▁argument	-10.2632
▁peasant	-10.2635
▁insist	-10.2639
▁cup	-10.2646
▁travel	-10.2659
▁stones	-10.2677
▁fathers	-10.2677
▁belongs	-10.2681
▁cost	-10.2684
▁onto	-10.2693
▁using	-10.2698
▁lands	-10.2765
▁faith	-10.2772
▁wh	-10.2783
▁gather	-10.2791
▁thin	-10.2792
▁fierce	-10.2797
▁brief	-10.2797
▁teeth	-10.2803
▁emilia	-10.2803
▁octavia	-10.2803
▁lorenzo	-10.2803
▁target	-10.2803
▁contempt	-10.2803
▁merciful	-10.2803
▁provost	-10.2803
▁stephano	-10.2803
▁gratiano	-10.2803
▁sebastian	-10.2803
▁handwriting	-10.2803
▁honey	-10.2803
▁responsible	-10.2804
▁isabel	-10.2805
▁meanwhile	-10.2805
▁stories	-10.2806
▁bravery	-10.2809
▁presence	-10.2811
▁hungry	-10.2811
▁banishment	-10.2812
▁katherine	-10.2812
▁dew	-10.2812
▁whipped	-10.2812
▁eros	-10.2813
▁assume	-10.2814
▁safely	-10.2818
▁devils	-10.2819
▁deer	-10.282
▁rebellion	-10.282
▁cheerful	-10.2827
▁illness	-10.2828
▁l	-10.2829
▁kisses	-10.2859
▁honesty	-10.2871
▁cat	-10.2878
▁hateful	-10.2891
if	-10.2903
▁reach	-10.2905
▁mount	-10.291
▁deserved	-10.2945
▁grows	-10.2947
▁powers	-10.2949
▁troubles	-10.2967
▁hated	-10.2981
▁arrive	-10.2988
▁expression	-10.3017
▁benefit	-10.3021
▁montague	-10.3025
▁candle	-10.3026
▁co	-10.3032
▁chest	-10.3033
▁creature	-10.3038
▁woke	-10.305
▁believed	-10.3065
▁urge	-10.3069
▁rivers	-10.31
▁staying	-10.3104
▁officers	-10.311
▁south	-10.3112
▁discuss	-10.3142
▁bar	-10.3153
▁wretch	-10.317
▁angels	-10.3173
▁hereford	-10.3179
▁success	-10.3181
▁smooth	-10.3181
▁polite	-10.3182
▁davy	-10.3186
▁dawn	-10.3186
▁casca	-10.3187
▁phoebe	-10.3187
▁verona	-10.3187
▁ophelia	-10.3188
▁hostess	-10.3188
▁unfaithful	-10.3188
▁stabbed	-10.3188
▁pregnant	-10.319
▁nearby	-10.319
▁totally	-10.3194
▁bible	-10.3195
▁shylock	-10.3196
▁trinculo	-10.3196
▁afternoon	-10.3196
▁beginning	-10.3197
▁sacred	-10.3197
▁bleeding	-10.3197
▁throughout	-10.3199
▁dust	-10.32
▁poins	-10.3201
▁cheated	-10.3203
▁arrested	-10.3208
▁frightening	-10.3209
▁meat	-10.3225
▁delivered	-10.3229
my	-10.3231
▁stocks	-10.3235
▁celebrate	-10.3249
▁affairs	-10.3251
▁heavenly	-10.3254
ry	-10.3254
▁princess	-10.3255
▁miss	-10.3259
▁growing	-10.3265
▁adam	-10.3272
▁sides	-10.3278
▁terms	-10.3285
▁toast	-10.3286
▁tall	-10.3298
▁school	-10.3339
▁talked	-10.3348
▁sisters	-10.3405
▁difference	-10.3416
▁rumor	-10.342
▁breast	-10.3424
▁number	-10.3429
▁rose	-10.3436
▁shape	-10.345
▁tide	-10.3483
▁virtues	-10.3498
▁vote	-10.3505
▁prisoners	-10.3516
▁beating	-10.353
▁reading	-10.3532
▁delay	-10.3546
▁spot	-10.3549
▁predict	-10.3551
▁roar	-10.3555
▁main	-10.3557
▁kick	-10.3567
ught	-10.3572
▁represent	-10.3574
▁valiant	-10.3581
▁fever	-10.3582
▁diana	-10.3586
▁divine	-10.3587
▁gremio	-10.3587
▁macduff	-10.3587
▁nerissa	-10.3587
▁denmark	-10.3587
▁midnight	-10.3588
▁constable	-10.3588
▁archbishop	-10.3588
▁particular	-10.3588
▁conversation	-10.3588
▁earlier	-10.3588
▁unnatural	-10.3589
▁whisper	-10.3589
▁misery	-10.3589
▁amazed	-10.359
▁current	-10.359
▁agreement	-10.3591
▁witch	-10.3591
▁maiden	-10.3592
▁assure	-10.3594
▁box	-10.3598
▁volsces	-10.3599
▁knowing	-10.3599
▁athens	-10.36
▁fallen	-10.3604
▁trade	-10.361
▁closely	-10.3611
▁sane	-10.3615
▁sitting	-10.3633
▁marks	-10.3634
▁quietly	-10.3635
▁snow	-10.3639
coming	-10.3649
▁musicians	-10.3668
▁starting	-10.3673
▁andrew	-10.3674
▁crow	-10.368
▁lance	-10.3684
out	-10.3707
▁willow	-10.3707
▁demands	-10.3708
▁advise	-10.372
▁busy	-10.3722
for	-10.3728
▁brings	-10.3736
▁honored	-10.374
▁songs	-10.3759
▁repay	-10.3776
▁trumpets	-10.3779
▁referr	-10.3782
▁climb	-10.3792
▁profession	-10.3819
▁pound	-10.3825
▁funeral	-10.3827
▁herald	-10.383
▁weapon	-10.3835
▁embrace	-10.3836
▁statue	-10.3836
▁respond	-10.3839
▁throat	-10.3841
▁poem	-10.3849
▁criminals	-10.3855
▁signs	-10.3871
▁salt	-10.39
▁threaten	-10.3957
ether	-10.397
▁exile	-10.3976
▁scorn	-10.3977
▁forth	-10.3984
▁corrupt	-10.3988
▁borrow	-10.3991
▁condemn	-10.3991
▁sudden	-10.3997
▁holds	-10.3998
▁lucius	-10.4003
▁ladder	-10.4003
▁amazing	-10.4004
▁catesby	-10.4004
▁glendower	-10.4004
▁worries	-10.4004
▁political	-10.4004
▁battlefield	-10.4005
▁happily	-10.4005
▁madman	-10.4006
▁madness	-10.4006
▁pleasant	-10.4006
▁grass	-10.4006
▁charles	-10.4007
▁original	-10.4009
▁sink	-10.4012
▁cross	-10.4012
▁tries	-10.4013
▁venus	-10.4014
▁properly	-10.4016
▁robin	-10.4018
▁signor	-10.402
▁burden	-10.402
▁deceived	-10.4026
▁bought	-10.4036
▁frighten	-10.4037
▁wings	-10.4046
▁waves	-10.405
▁forty	-10.4065
▁special	-10.4079
▁pretending	-10.4088
▁produce	-10.4097
▁answered	-10.41
▁weight	-10.4113
▁cursed	-10.4116
▁stink	-10.4139
▁dirt	-10.4151
▁needed	-10.4165
▁hates	-10.4167
▁cast	-10.4167
▁votes	-10.4168
▁pile	-10.4173
nothing	-10.4187
▁works	-10.4191
▁guys	-10.4198
▁pig	-10.4206
▁paying	-10.4223
▁survive	-10.424
▁role	-10.4244
▁shot	-10.4251
▁ambition	-10.4251
▁concern	-10.4257
▁page	-10.4259
▁celebration	-10.426
▁savage	-10.4264
▁trial	-10.4266
▁pocket	-10.427
▁street	-10.4271
▁accusation	-10.4272
▁mortal	-10.4273
▁regard	-10.4274
▁rock	-10.4278
▁leader	-10.4285
▁arrow	-10.4292
led	-10.4307
▁social	-10.4319
▁fears	-10.432
▁stranger	-10.4326
▁note	-10.433
▁advance	-10.4332
▁le	-10.434
▁frown	-10.4354
▁refuses	-10.4361
▁neglect	-10.4379
▁guards	-10.4392
▁fields	-10.44
▁capture	-10.4415
▁cowards	-10.4434
▁peaceful	-10.4435
▁cominius	-10.4437
▁enobarbus	-10.4437
▁ferdinand	-10.4437
▁jessica	-10.4437
▁religious	-10.4437
▁apollo	-10.4437
▁fulvia	-10.4437
▁george	-10.4437
▁kinsman	-10.4437
▁ungrateful	-10.4437
▁influence	-10.4437
▁duties	-10.4438
▁deputy	-10.4438
▁camp	-10.4438
▁bigger	-10.4441
▁tender	-10.4442
▁daylight	-10.4442
▁gray	-10.4443
▁strict	-10.4445
▁obedient	-10.445
▁deeply	-10.4454
▁created	-10.4458
▁conquered	-10.4459
▁bride	-10.4465
▁freely	-10.4471
▁earn	-10.4474
▁loan	-10.4474
▁parents	-10.4475
▁bro	-10.4476
▁poisoned	-10.4482
▁fairy	-10.4486
▁weigh	-10.4488
▁total	-10.449
▁charges	-10.449
▁edge	-10.4503
faced	-10.4514
▁manage	-10.4515
▁doors	-10.4518
▁allies	-10.452
▁credit	-10.4528
▁seize	-10.4532
▁coins	-10.4546
▁messengers	-10.4546
▁shoes	-10.4552
▁leading	-10.4554
▁spit	-10.4555
god	-10.4557
▁moved	-10.4557
ng	-10.4562
driven	-10.4591
▁mix	-10.4594
▁falling	-10.4594
▁ju	-10.4636
▁execution	-10.4699
▁wandering	-10.4719
▁road	-10.4724
▁capulet	-10.4727
▁flood	-10.473
▁guest	-10.4733
▁couple	-10.4735
▁lamb	-10.4745
▁rules	-10.4758
▁lowlife	-10.4763
▁path	-10.4765
▁actor	-10.4766
▁plant	-10.4772
▁vice	-10.4776
▁oaths	-10.4777
▁chain	-10.4782
▁sleeps	-10.4798
▁scratch	-10.4821
▁guide	-10.483
▁crowd	-10.4833
▁nest	-10.485
ling	-10.4855
▁dish	-10.4856
▁appears	-10.4862
ical	-10.4867
▁suppose	-10.4867
▁modest	-10.4881
▁tricks	-10.4882
ho	-10.4888
▁absence	-10.4892
▁destiny	-10.4892
▁plenty	-10.4892
▁pedro	-10.4892
▁litio	-10.4892
▁inheritance	-10.4892
▁wolf	-10.4892
▁ireland	-10.4892
▁lark	-10.4893
▁price	-10.4893
▁witty	-10.4893
▁juno	-10.4894
▁constantly	-10.4895
▁knowledge	-10.4896
▁furious	-10.4897
▁popular	-10.4903
▁abandoned	-10.4903
reading	-10.4904
▁stockings	-10.4905
▁dried	-10.4907
▁determined	-10.4908
▁nobleman	-10.4909
▁glass	-10.4909
▁chosen	-10.4911
▁serving	-10.4916
▁chooses	-10.4918
▁prick	-10.4921
▁mourning	-10.4925
▁cheating	-10.4926
▁expected	-10.4928
▁pulled	-10.4928
▁helping	-10.4928
▁below	-10.4929
▁boots	-10.4933
▁intended	-10.4935
▁merely	-10.4935
▁style	-10.4937
▁ancestors	-10.4944
▁stealing	-10.4946
▁horn	-10.4985
▁weeds	-10.4986
le	-10.5014
▁west	-10.502
▁drawn	-10.5025
w	-10.5061
▁thus	-10.5067
▁rumors	-10.5084
▁mess	-10.5085
▁finish	-10.5093
▁creatures	-10.5094
▁spells	-10.5096
▁sat	-10.5112
also	-10.5114
▁banish	-10.5117
ation	-10.5119
▁proven	-10.5122
▁la	-10.5124
▁ended	-10.5126
▁jewels	-10.5126
▁member	-10.5144
continu	-10.5147
▁hearing	-10.5148
▁shines	-10.5152
il	-10.5184
▁offense	-10.5213
ne	-10.5217
▁husbands	-10.5302
▁interpret	-10.5309
▁hurts	-10.5318
▁wears	-10.5319
oh	-10.5327
▁complete	-10.5328
▁swearing	-10.5334
▁stuff	-10.5339
▁prize	-10.5339
▁damage	-10.5342
▁confirm	-10.5358
▁similar	-10.5362
▁desperate	-10.5362
▁joking	-10.5364
▁personal	-10.5365
▁weakness	-10.5368
▁antipholus	-10.5368
▁dauphin	-10.5368
▁gonzalo	-10.5368
▁thirty	-10.5368
▁expensive	-10.5368
▁heavily	-10.5368
▁ignorant	-10.5368
▁fiery	-10.5368
▁happier	-10.5369
▁virginity	-10.5369
▁mantua	-10.537
▁filthy	-10.537
▁planned	-10.5371
▁fairies	-10.5371
▁fury	-10.5372
▁gently	-10.5373
▁forgiveness	-10.5374
▁confused	-10.5377
▁hoping	-10.5379
▁dozen	-10.5379
▁cambio	-10.538
▁naked	-10.538
▁somewhere	-10.5381
▁dignity	-10.5384
▁fame	-10.5387
▁sickness	-10.5387
▁patiently	-10.5387
▁split	-10.5388
▁display	-10.5388
▁higher	-10.5388
▁lowly	-10.5388
▁circumstances	-10.539
▁publicly	-10.539
▁caliban	-10.5391
▁deformed	-10.5392
red	-10.5398
▁hunting	-10.54
▁quality	-10.5403
▁uses	-10.5405
▁carrie	-10.5427
▁necessary	-10.5428
▁walked	-10.5429
▁respected	-10.5431
▁g	-10.544
▁humans	-10.5444
▁temper	-10.545
▁ability	-10.5457
▁changes	-10.5461
▁sailors	-10.5464
▁favors	-10.5494
▁settle	-10.5495
▁wasted	-10.5509
▁lift	-10.551
▁scar	-10.5512
▁crowns	-10.5522
▁fleet	-10.5526
▁record	-10.5549
▁stake	-10.5577
▁spite	-10.5587
ward	-10.5598
▁masters	-10.5617
▁curses	-10.5637
▁poet	-10.5669
▁cool	-10.5694
▁sweetheart	-10.5694
▁emotion	-10.5697
▁warrior	-10.5698
good	-10.5699
▁decision	-10.5699
▁week	-10.5702
▁duel	-10.5706
▁kills	-10.5718
▁key	-10.5727
▁christ	-10.5741
▁drum	-10.5747
▁bond	-10.5747
▁reads	-10.5752
▁odd	-10.5753
▁flee	-10.5753
rs	-10.5753
▁cell	-10.5754
▁restrain	-10.5764
▁dishonor	-10.5773
▁deaths	-10.5774
▁f	-10.5779
▁remains	-10.5781
▁hole	-10.5813
▁prais	-10.5834
▁perfume	-10.584
▁foreign	-10.5847
▁push	-10.5856
your	-10.5859
▁absolute	-10.5863
▁search	-10.5865
▁cloth	-10.5865
▁ambitious	-10.5868
▁extra	-10.5868
▁female	-10.5868
▁perdita	-10.5868
▁vulgar	-10.5868
▁warwick	-10.5868
▁hermione	-10.5868
▁opposite	-10.5868
▁government	-10.5868
▁julius	-10.5868
▁transform	-10.5869
▁albany	-10.5869
▁planning	-10.587
▁feeble	-10.5871
▁italy	-10.5871
▁blue	-10.5871
▁history	-10.5872
▁invisible	-10.5872
▁cliff	-10.5872
▁swallow	-10.5874
▁obvious	-10.5874
▁slowly	-10.5878
▁followers	-10.5881
▁famili	-10.5885
▁divided	-10.5889
▁pack	-10.589
▁brown	-10.5892
▁stuffed	-10.5894
▁host	-10.5925
▁met	-10.5941
▁east	-10.5943
▁welsh	-10.595
▁speaker	-10.5958
▁possessions	-10.596
▁riding	-10.5967
▁drinks	-10.5977
▁armed	-10.5984
yes	-10.5997
▁drums	-10.6002
▁puns	-10.6006
ually	-10.6045
▁tough	-10.6074
▁robe	-10.6086
her	-10.6107
▁walks	-10.6124
▁address	-10.6126
▁source	-10.6164
▁torment	-10.6166
▁lo	-10.6167
▁hunt	-10.6181
▁measure	-10.6182
▁charm	-10.6187
ce	-10.6202
▁pa	-10.6208
▁egyptian	-10.6213
▁helmet	-10.6223
▁william	-10.6229
▁civil	-10.623
▁skull	-10.6232
▁ease	-10.626
▁beside	-10.631
▁coin	-10.6315
▁bill	-10.6334
▁repent	-10.6344
fully	-10.6358
▁bottle	-10.6361
▁declare	-10.637
▁dido	-10.637
▁study	-10.6372
ill	-10.6375
▁steel	-10.6382
▁abandon	-10.6382
▁accus	-10.6382
▁silk	-10.6385
▁correct	-10.6388
▁recent	-10.6389
▁shoulder	-10.639
▁conquer	-10.6393
▁arrogant	-10.6394
▁cesario	-10.6394
▁fortinbras	-10.6394
▁grievances	-10.6394
▁poverty	-10.6394
▁responsibility	-10.6394
▁stanley	-10.6394
▁tavern	-10.6394
▁titinius	-10.6394
▁venetian	-10.6394
▁ensign	-10.6395
▁grandmother	-10.6395
▁rogue	-10.6395
▁eleven	-10.6395
▁trembling	-10.6395
▁gratitude	-10.6398
▁supper	-10.6399
▁latin	-10.64
▁begged	-10.6401
▁tiny	-10.6402
▁beast	-10.6404
▁lordship	-10.6404
▁approval	-10.6404
▁topas	-10.6405
▁slaves	-10.6406
▁lazy	-10.6406
▁fifty	-10.6407
▁worcester	-10.6407
▁legitimate	-10.641
▁status	-10.6411
▁secretly	-10.6415
▁fixed	-10.6419
▁bald	-10.6421
▁forgot	-10.6422
▁jacket	-10.6423
▁withered	-10.6424
▁moral	-10.6425
▁fairly	-10.6425
▁coat	-10.6426
▁yellow	-10.6428
▁bravely	-10.6446
▁approve	-10.6452
▁shown	-10.6457
that	-10.6472
▁spending	-10.6477
▁fires	-10.6477
▁kissed	-10.6484
▁praying	-10.6524
▁awhile	-10.6532
▁sold	-10.6542
▁worked	-10.6551
ring	-10.6581
▁shoulders	-10.6594
▁kissing	-10.6595
▁moves	-10.6602
▁marrying	-10.663
letting	-10.665
▁manner	-10.6673
▁wished	-10.6678
▁senses	-10.6688
▁rat	-10.6716
▁orchard	-10.6758
▁confession	-10.6759
▁viola	-10.676
▁habit	-10.6769
ily	-10.6772
▁demand	-10.6772
▁condition	-10.6782
▁limit	-10.6783
▁turk	-10.6786
▁shout	-10.6786
▁purse	-10.6789
▁speed	-10.6791
▁mountain	-10.6791
▁payment	-10.6792
▁profit	-10.6809
▁titles	-10.6819
ate	-10.6853
▁fond	-10.6854
of	-10.6856
▁hears	-10.6867
▁bridge	-10.6873
▁returns	-10.6885
▁surround	-10.6921
▁criticize	-10.693
▁despise	-10.6931
▁betray	-10.6933
dding	-10.6937
▁thrust	-10.6939
▁exact	-10.6945
▁aumerle	-10.695
▁barnardine	-10.695
▁gertrude	-10.695
▁harbor	-10.695
▁malcolm	-10.695
▁miranda	-10.695
▁paulina	-10.695
▁silvius	-10.695
▁thursday	-10.695
▁treacherous	-10.695
▁yesterday	-10.695
▁nightingale	-10.695
▁violence	-10.695
▁navy	-10.695
▁ridiculous	-10.695
▁distance	-10.695
▁orsino	-10.695
▁corioles	-10.695
▁titania	-10.695
▁melancholy	-10.695
▁messala	-10.695
▁oracle	-10.695
▁eventually	-10.6951
▁abbey	-10.6951
▁imprisoned	-10.6951
▁depressed	-10.6951
▁post	-10.6951
▁prospero	-10.6952
▁pinch	-10.6952
▁leather	-10.6952
▁starving	-10.6952
▁liege	-10.6952
▁engaged	-10.6953
▁mister	-10.6953
▁expert	-10.6956
▁afterward	-10.6957
▁meantime	-10.6957
▁appeal	-10.6957
▁acknowledge	-10.6958
▁bull	-10.6958
▁rejected	-10.6959
▁torch	-10.696
▁highest	-10.696
▁raging	-10.6961
▁disgusting	-10.6961
▁beware	-10.6963
▁glorious	-10.6963
▁saddle	-10.6964
▁shillings	-10.6966
▁flies	-10.6966
▁merry	-10.6967
▁milk	-10.6968
▁wept	-10.6968
▁built	-10.6969
▁rejoice	-10.6971
▁r	-10.6974
▁grieve	-10.6975
▁lately	-10.6975
▁focus	-10.6976
▁attractive	-10.6977
▁somehow	-10.6977
▁prey	-10.6977
▁sweetest	-10.6978
▁create	-10.698
▁insulted	-10.6991
▁attacked	-10.6992
▁pierce	-10.6996
▁rewarded	-10.6999
▁separated	-10.7003
▁noticed	-10.7007
▁runs	-10.7016
▁leap	-10.7024
▁mythic	-10.7044
▁pearls	-10.7048
▁sly	-10.707
▁details	-10.7072
▁feared	-10.7075
▁worm	-10.7085
▁approach	-10.7088
▁efforts	-10.7102
▁remembered	-10.7104
uck	-10.7117
▁custom	-10.7128
▁wander	-10.7147
▁graves	-10.7164
▁regards	-10.7166
▁accusations	-10.717
▁doubts	-10.7174
▁height	-10.7254
▁sails	-10.7277
▁kingdoms	-10.7281
five	-10.7295
▁sever	-10.7306
▁rhyme	-10.7323
p	-10.7334
▁di	-10.7337
▁proverb	-10.7355
▁account	-10.7357
▁instinct	-10.736
▁block	-10.7361
▁instrument	-10.7368
▁vision	-10.7369
▁leads	-10.7384
▁wheel	-10.7384
▁roof	-10.739
▁complain	-10.7403
▁sets	-10.7422
reads	-10.7424
▁mile	-10.7426
▁apple	-10.7433
go	-10.7436
▁boar	-10.7473
▁band	-10.7478
▁proceed	-10.7496
▁deceive	-10.7511
▁discover	-10.7526
▁fickle	-10.7537
▁alexander	-10.7538
▁burgundy	-10.7538
▁coffin	-10.7538
▁devotion	-10.7538
▁exeter	-10.7538
▁fifteen	-10.7538
▁clerk	-10.7538
▁scepter	-10.7538
▁charity	-10.7538
▁unusual	-10.7538
▁touchstone	-10.7539
▁unlucky	-10.7539
▁oliver	-10.754
▁hunger	-10.754
▁gloomy	-10.7541
▁ladyship	-10.7541
▁grey	-10.7543
▁fiend	-10.7543
▁veins	-10.7545
▁bastards	-10.7545
▁everywhere	-10.7545
▁affected	-10.7546
▁dreadful	-10.7547
▁plainly	-10.7549
▁length	-10.7551
▁monsieur	-10.7552
▁witches	-10.7552
▁concerned	-10.7556
▁robbed	-10.7556
▁cash	-10.7556
▁missed	-10.7558
▁sum	-10.7562
▁reasonable	-10.757
▁flattery	-10.7571
▁mud	-10.7574
▁quarrel	-10.7576
▁defy	-10.7578
▁pleased	-10.7583
u	-10.7585
▁stain	-10.7589
▁token	-10.7591
▁approaching	-10.7604
▁nails	-10.7606
▁attendants	-10.7606
▁press	-10.7613
ic	-10.7623
▁groans	-10.7626
▁described	-10.7634
▁.	-10.7641
▁crowned	-10.7655
▁draws	-10.7656
▁sacrifice	-10.7663
▁dreaming	-10.7678
▁breathing	-10.7691
▁hi	-10.7697
▁paint	-10.7697
▁commands	-10.7711
▁board	-10.7719
▁offers	-10.7729
▁doll	-10.7747
▁official	-10.775
▁arrows	-10.7763
▁bearing	-10.7765
king	-10.7789
▁skills	-10.782
▁lean	-10.7832
▁fo	-10.784
ier	-10.7871
▁windows	-10.7874
▁begins	-10.7877
b	-10.7893
▁causes	-10.7894
▁talks	-10.7897
amen	-10.7919
▁tempt	-10.7921
men	-10.793
▁scold	-10.7936
▁fortunes	-10.7958
▁answers	-10.7966
▁compassion	-10.7973
▁stare	-10.7976
▁stomach	-10.7979
▁palace	-10.7979
▁conclusion	-10.7987
▁document	-10.7989
▁miracle	-10.7991
▁direction	-10.7991
▁suspicion	-10.7993
▁rot	-10.7994
▁effort	-10.7995
▁term	-10.8001
▁boast	-10.8003
▁en	-10.8003
▁base	-10.8008
▁task	-10.801
▁tale	-10.8024
▁leg	-10.8063
▁crack	-10.8076
▁,	-10.8078
▁resist	-10.8082
▁smiles	-10.8109
▁repeat	-10.8111
▁retreat	-10.8123
▁announce	-10.8135
▁release	-10.8138
▁pluck	-10.8144
▁inherit	-10.8151
▁u	-10.8152
▁consent	-10.8152
▁shoot	-10.8152
▁ignore	-10.8153
▁battles	-10.8154
▁divide	-10.8155
▁jail	-10.8157
▁eternal	-10.8157
▁disdain	-10.8163
▁symbol	-10.8163
▁audrey	-10.8163
▁bridegroom	-10.8163
▁complexion	-10.8163
▁destruction	-10.8163
▁encounter	-10.8163
▁jupiter	-10.8163
▁leontes	-10.8163
▁michael	-10.8163
▁ratcliffe	-10.8163
▁period	-10.8163
▁ephesus	-10.8163
▁isabella	-10.8163
▁bankrupt	-10.8163
▁alonso	-10.8164
▁continually	-10.8164
▁chaos	-10.8164
▁easier	-10.8164
▁liquor	-10.8164
▁weird	-10.8164
▁trustworthy	-10.8164
▁mythology	-10.8165
▁shook	-10.8165
▁yield	-10.8165
▁grieving	-10.8165
▁branches	-10.8165
▁exhausted	-10.8166
▁royalty	-10.8166
▁household	-10.8166
▁space	-10.8166
▁suicide	-10.8166
▁contain	-10.8167
▁velvet	-10.8168
▁families	-10.8168
▁bail	-10.8168
▁fortunate	-10.8169
▁shining	-10.8169
"!	-10.8169
▁reign	-10.8173
▁denied	-10.8173
▁involved	-10.8173
▁crude	-10.8174
▁overwhelmed	-10.8176
▁tedious	-10.8177
▁fluellen	-10.8177
▁philosophy	-10.8177
▁suspicious	-10.8177
▁losses	-10.8178
▁pence	-10.8179
▁staff	-10.8179
▁greedy	-10.818
▁triumph	-10.8188
▁pushed	-10.8194
▁flow	-10.8194
▁gorge	-10.8205
isn	-10.8206
▁lustful	-10.8211
▁gaze	-10.8218
▁undo	-10.822
▁theater	-10.8229
▁suitors	-10.8236
▁scare	-10.8246
▁mocking	-10.8251
▁landed	-10.8258
▁blowing	-10.8258
▁complaints	-10.8259
▁requires	-10.826
▁bid	-10.8266
▁dearly	-10.8268
▁points	-10.827
▁verses	-10.8278
▁poorly	-10.8305
▁sour	-10.832
▁shoe	-10.8321
▁sinful	-10.8323
▁neighbors	-10.8324
▁ink	-10.833
▁judg	-10.8366
▁services	-10.837
▁sp	-10.8375
▁weeks	-10.8377
▁thick	-10.8377
▁se	-10.8392
be	-10.8415
▁pursue	-10.8421
way	-10.8434
▁roses	-10.8442
▁starts	-10.8452
▁forgiven	-10.8477
▁woods	-10.8492
▁check	-10.8504
▁sigh	-10.8513
▁committ	-10.8525
▁ox	-10.8527
born	-10.8531
▁humbl	-10.8539
▁effect	-10.8591
▁suck	-10.8611
▁labor	-10.8628
▁shrew	-10.8632
▁disaster	-10.8634
▁content	-10.8635
▁rob	-10.8646
▁ballad	-10.8646
▁temple	-10.8652
▁chamber	-10.8654
▁thumb	-10.8661
▁ned	-10.8663
▁intention	-10.8663
▁prostitute	-10.8671
▁neighbor	-10.8675
▁stable	-10.8679
▁aim	-10.8713
▁writer	-10.8735
▁ends	-10.8752
▁overwhelm	-10.8769
▁claims	-10.8773
▁strikes	-10.8789
▁partner	-10.8791
▁encourage	-10.8801
what	-10.8816
▁preserve	-10.8817
all	-10.8821
▁unfair	-10.8824
▁dorset	-10.8828
▁agrippa	-10.883
▁bachelor	-10.883
▁council	-10.883
▁enormous	-10.883
▁ganymede	-10.883
▁guildenstern	-10.883
▁intelligence	-10.883
▁oswald	-10.883
▁pomfret	-10.883
▁wednesday	-10.883
▁philippi	-10.883
▁shrewsbury	-10.883
▁pitiful	-10.883
▁rooster	-10.883
▁giant	-10.883
tempered	-10.883
▁countries	-10.883
▁utter	-10.8831
▁accompany	-10.8831
▁penny	-10.8831
▁deaf	-10.8832
▁hawk	-10.8832
▁grew	-10.8832
▁governor	-10.8832
▁adultery	-10.8833
▁speechless	-10.8833
▁alright	-10.8833
▁issue	-10.8834
▁directly	-10.8834
▁fuss	-10.8835
▁anybody	-10.8835
▁hangman	-10.8835
▁murderous	-10.8836
▁infected	-10.8836
▁grateful	-10.8837
▁drunken	-10.8838
▁successful	-10.8838
▁terrifying	-10.8838
▁changing	-10.8841
▁cutting	-10.8841
▁yeah	-10.8844
▁scolded	-10.8844
▁skinny	-10.8844
▁motion	-10.8847
▁oak	-10.8847
▁farther	-10.8847
▁threatened	-10.8851
▁hired	-10.8853
▁secure	-10.8853
▁scolding	-10.8856
▁lute	-10.8858
▁elements	-10.8861
▁treachery	-10.8861
▁troy	-10.8861
▁painting	-10.8862
▁mocked	-10.8862
▁shortly	-10.8865
▁unworth	-10.8868
▁pants	-10.887
▁traveling	-10.887
▁missing	-10.8871
▁confessed	-10.8872
▁survived	-10.8875
▁flying	-10.8875
▁managed	-10.8876
▁tame	-10.8877
▁loudly	-10.8882
iness	-10.8882
▁bitch	-10.8882
▁wo	-10.8884
▁closer	-10.8892
▁lame	-10.8893
▁experienced	-10.8902
▁ragged	-10.8905
don	-10.891
▁flattering	-10.8911
▁endless	-10.8917
▁partly	-10.8919
▁dances	-10.8927
▁e	-10.8937
▁theseus	-10.894
▁opened	-10.8945
▁thread	-10.8948
▁store	-10.896
▁capable	-10.8978
some	-10.8983
so	-10.8989
▁tongues	-10.9002
▁cave	-10.901
▁mars	-10.901
▁sleepy	-10.9026
id	-10.9037
we	-10.9043
▁chains	-10.905
▁emotions	-10.9062
▁poets	-10.9065
▁vices	-10.9067
▁melt	-10.9098
house	-10.91
rew	-10.9101
▁throats	-10.9115
one	-10.9122
▁anne	-10.9169
▁likes	-10.917
▁toad	-10.9188
▁woode	-10.9188
▁pen	-10.9189
▁reports	-10.919
▁shadows	-10.9201
▁pun	-10.9232
▁type	-10.9246
▁ass	-10.9257
▁mis	-10.9266
▁ale	-10.9269
▁dig	-10.927
▁noon	-10.9272
love	-10.9283
▁li	-10.9288
▁wrongs	-10.9294
calling	-10.9308
▁submit	-10.9308
▁thousands	-10.931
▁snakes	-10.9319
▁corn	-10.9328
▁ca	-10.9338
▁pin	-10.9343
▁harvest	-10.9347
▁reflection	-10.9347
▁meal	-10.9348
▁ape	-10.9348
▁pan	-10.935
▁summon	-10.9357
▁jester	-10.9365
▁signal	-10.9366
▁dukedom	-10.937
▁knee	-10.937
▁priests	-10.9393
▁building	-10.9413
▁corner	-10.9434
▁voices	-10.9435
▁desert	-10.9441
ding	-10.9443
▁cook	-10.9469
▁problems	-10.9469
▁root	-10.9478
f	-10.9504
▁entertain	-10.9518
▁maria	-10.9519
▁arrange	-10.9525
▁burst	-10.9526
▁priam	-10.953
▁accomplish	-10.953
▁provoke	-10.953
▁slaughter	-10.9531
▁possess	-10.9535
▁final	-10.9542
responsibilities	-10.9544
▁anticipati	-10.9544
▁applause	-10.9544
▁athenian	-10.9544
▁banquet	-10.9544
▁bohemia	-10.9544
▁chariot	-10.9544
▁escort	-10.9544
▁integrity	-10.9544
▁philosopher	-10.9544
▁sovereign	-10.9544
▁tragedy	-10.9544
▁troilus	-10.9544
▁babies	-10.9544
▁menenius	-10.9544
▁monmouth	-10.9544
▁senior	-10.9544
▁fourteen	-10.9544
▁burial	-10.9544
▁description	-10.9544
▁leander	-10.9544
▁fencing	-10.9545
▁womb	-10.9545
▁warrant	-10.9545
▁reply	-10.9545
▁fortuneteller	-10.9546
▁honorably	-10.9547
▁fetch	-10.9547
▁sweat	-10.9547
▁related	-10.9547
▁attract	-10.9547
▁beggars	-10.9548
▁minor	-10.9549
▁deceitful	-10.955
▁information	-10.955
▁truthfully	-10.955
▁boring	-10.9551
▁shaking	-10.9551
▁pledge	-10.9551
▁wipe	-10.9556
▁smother	-10.9557
▁witnesses	-10.9558
▁cannon	-10.9558
▁inherited	-10.9559
▁allegiance	-10.956
▁bread	-10.9561
▁modesty	-10.9562
▁equally	-10.9562
▁interrupt	-10.9563
▁abused	-10.957
▁gladly	-10.9574
▁passes	-10.9576
▁closest	-10.9577
▁heels	-10.9579
▁ti	-10.9597
▁appeared	-10.9598
▁earned	-10.9598
▁salute	-10.9605
▁wisely	-10.9606
▁strangely	-10.9606
▁stained	-10.9606
▁gossip	-10.9606
▁picked	-10.961
▁attach	-10.961
▁disgraced	-10.9612
▁grandfather	-10.9614
▁laughed	-10.9616
▁bag	-10.9619
▁commanded	-10.9621
▁soften	-10.9623
▁beards	-10.9632
▁pitch	-10.9654
▁reject	-10.9664
▁fra	-10.9666
▁cured	-10.9667
▁greatly	-10.9701
▁implie	-10.9704
▁rebel	-10.9712
▁pains	-10.9727
▁starve	-10.9732
▁dared	-10.9737
ary	-10.9747
▁holes	-10.9758
▁turks	-10.9761
▁echo	-10.977
▁respects	-10.9786
which	-10.9793
▁size	-10.9801
▁plants	-10.9809
▁whores	-10.9849
▁numbers	-10.9855
▁listened	-10.9915
▁ropes	-10.9917
▁kneels	-10.9945
▁attend	-10.9946
▁nights	-10.9954
▁occasion	-10.9959
aid	-10.9961
ial	-10.998
▁murders	-11.0006
here	-11.0023
cially	-11.0026
can	-11.0026
ice	-11.0045
▁companions	-11.0066
▁na	-11.0067
▁owed	-11.007
▁stab	-11.0108
▁abuse	-11.0109
▁delight	-11.0109
▁bark	-11.0114
▁rises	-11.0119
▁appetite	-11.0138
▁lied	-11.0138
▁superior	-11.014
▁flag	-11.0143
▁detail	-11.0146
▁feather	-11.0149
▁warning	-11.0151
▁nation	-11.0162
▁trap	-11.0167
▁ruler	-11.0175
c	-11.0185
uring	-11.0189
▁shirt	-11.0189
▁tragic	-11.0189
▁finds	-11.019
▁invent	-11.0209
▁writes	-11.0217
▁chin	-11.0222
▁circle	-11.0224
▁liars	-11.0242
ter	-11.0254
▁owl	-11.0264
▁cherish	-11.0278
▁howl	-11.0288
▁lawful	-11.0291
▁achieve	-11.0297
▁proclaim	-11.0303
▁solemn	-11.0307
▁fox	-11.0309
▁cinna	-11.0313
▁obedience	-11.0313
▁polonius	-11.0313
▁confidence	-11.0313
▁gallows	-11.0314
▁imitation	-11.0314
▁dignified	-11.0314
▁shelter	-11.0314
▁insanity	-11.0314
▁celia	-11.0314
▁cunning	-11.0314
▁schoolboy	-11.0314
▁lucio	-11.0314
▁terrified	-11.0315
▁floor	-11.0315
▁pisa	-11.0315
▁gentlewoman	-11.0315
▁wrinkled	-11.0315
▁ingratitude	-11.0315
▁whorehouse	-11.0315
▁passage	-11.0317
▁imagining	-11.0318
▁sober	-11.0318
▁consideration	-11.0319
▁youthful	-11.032
▁creep	-11.032
▁spoiled	-11.0322
▁obviously	-11.0323
▁copy	-11.0324
▁mar	-11.0325
▁wax	-11.0326
▁nym	-11.0327
▁tempted	-11.0327
▁apply	-11.0328
▁jaques	-11.0329
▁biondello	-11.033
▁mankind	-11.033
ping	-11.033
▁chaste	-11.0331
▁assembled	-11.0332
▁surprised	-11.0333
▁blushing	-11.0334
▁gower	-11.0334
▁entirely	-11.0334
▁tail	-11.0334
▁respectable	-11.0336
▁inspired	-11.0337
▁african	-11.0338
▁setting	-11.0338
▁smaller	-11.0338
▁arranged	-11.0343
▁conceived	-11.0343
▁appreciate	-11.0344
▁sang	-11.0345
▁descend	-11.0346
▁revealed	-11.0348
▁admire	-11.0352
▁male	-11.0353
▁struggle	-11.0354
▁mission	-11.0356
▁bell	-11.0358
▁laces	-11.0361
▁alike	-11.0361
▁mentioned	-11.0363
▁rare	-11.0364
▁granted	-11.0366
▁mistakes	-11.0366
▁discovered	-11.0367
▁iron	-11.0372
▁stormy	-11.0374
▁drowning	-11.0375
▁sailing	-11.0379
▁touched	-11.0381
▁elbow	-11.0387
▁endured	-11.039
▁escaped	-11.041
▁sharpen	-11.0463
▁cue	-11.0476
▁watched	-11.0482
▁loses	-11.0485
▁writers	-11.0513
▁dover	-11.0526
▁keys	-11.0561
▁dedicate	-11.0565
▁ba	-11.0575
▁kneeling	-11.0577
▁troubled	-11.0579
▁menas	-11.0597
▁cloud	-11.0602
▁steps	-11.0603
ally	-11.0604
▁rocks	-11.0615
nd	-11.0615
espe	-11.064
▁sorts	-11.068
▁breathe	-11.0694
▁slut	-11.0709
▁notes	-11.0716
down	-11.0762
ance	-11.0771
▁daggers	-11.0773
▁blessings	-11.0776
▁patch	-11.0778
▁heirs	-11.0782
▁murderers	-11.0788
▁mild	-11.0872
▁brag	-11.0909
▁wrap	-11.0911
▁fights	-11.0912
▁spur	-11.0912
▁succeed	-11.0913
▁port	-11.0928
▁corpses	-11.0936
et	-11.0942
▁potion	-11.0942
▁tiger	-11.0947
▁accident	-11.0952
▁exist	-11.0958
▁uniform	-11.0967
▁opponent	-11.0969
▁leek	-11.0969
▁shield	-11.0969
▁rival	-11.0972
▁misfortune	-11.0974
▁musician	-11.0979
▁riot	-11.0982
▁season	-11.0986
▁sailor	-11.0991
▁rings	-11.0994
▁whet	-11.1001
▁defense	-11.1014
▁egg	-11.1017
ngest	-11.1022
▁diseases	-11.1023
▁sits	-11.1025
our	-11.105
▁chat	-11.1061
▁logic	-11.1069
▁ghosts	-11.107
▁fully	-11.1084
▁pleas	-11.1092
▁prepar	-11.1108
▁saints	-11.1111
▁depart	-11.1117
▁chose	-11.1121
▁remove	-11.1123
▁shipwreck	-11.1133
▁stamp	-11.1133
▁bush	-11.1136
▁constant	-11.1141
▁su	-11.1143
▁combat	-11.1145
▁disloyal	-11.1146
▁determine	-11.1147
▁alexas	-11.1147
▁carthage	-11.1147
▁chastity	-11.1147
▁conspiracy	-11.1147
▁cuckoo	-11.1147
▁destructive	-11.1147
▁fabric	-11.1147
▁fragile	-11.1147
▁garbage	-11.1147
▁generosity	-11.1147
▁lantern	-11.1147
▁masquerade	-11.1147
▁oberon	-11.1147
▁obscene	-11.1147
▁prologue	-11.1147
▁pyrrhus	-11.1147
▁sheriff	-11.1147
▁syracuse	-11.1147
▁afford	-11.1147
▁messina	-11.1147
▁tyranny	-11.1147
▁inspiration	-11.1147
▁conduct	-11.1147
▁eglamour	-11.1147
▁victorious	-11.1147
▁disposition	-11.1147
▁instructions	-11.1147
▁belief	-11.1147
▁departure	-11.1147
▁artist	-11.1147
▁petty	-11.1147
▁bunch	-11.1147
▁drench	-11.1147
▁sparrow	-11.1147
▁kidding	-11.1147
▁entertainment	-11.1147
▁lullaby	-11.1147
▁courtesy	-11.1147
▁envy	-11.1148
▁springtime	-11.1148
▁rotting	-11.1148
▁booze	-11.1148
▁bragging	-11.1148
▁rosaline	-11.1149
▁winning	-11.1149
▁doomed	-11.115
skinned	-11.115
▁enraged	-11.115
▁permit	-11.1151
▁disobey	-11.1151
▁outrageous	-11.1151
▁mouse	-11.1151
▁extent	-11.1152
▁notorious	-11.1152
▁englishmen	-11.1152
▁cursing	-11.1152
▁spies	-11.1152
▁distracted	-11.1154
▁arguing	-11.1154
▁disturbed	-11.1154
▁prime	-11.1156
▁unbelievable	-11.1156
▁jailer	-11.1156
▁normal	-11.1158
▁wrinkles	-11.1158
▁helen	-11.116
▁deserted	-11.116
▁slaughtered	-11.1162
▁boss	-11.1162
▁crawl	-11.1166
▁privately	-11.1166
▁chief	-11.1167
▁beer	-11.1167
▁seduced	-11.117
k	-11.1171
▁soil	-11.1171
▁latest	-11.1172
▁crush	-11.1178
▁rudely	-11.1178
▁whichever	-11.1178
▁reached	-11.1178
▁sealed	-11.1181
▁breed	-11.1184
▁mouths	-11.1185
▁unkind	-11.1186
▁bait	-11.1187
▁pause	-11.1188
▁deserving	-11.119
▁slandered	-11.1193
▁bribe	-11.1198
▁nicely	-11.1199
▁froth	-11.1199
▁willingly	-11.1202
▁settled	-11.1203
▁sanctuary	-11.1206
▁follows	-11.1213
▁threatening	-11.1221
▁storms	-11.1224
▁treaty	-11.1224
▁tortured	-11.1227
▁metal	-11.1228
▁lecture	-11.1233
▁myth	-11.1244
▁wave	-11.1248
▁sweeter	-11.1258
▁educated	-11.1272
▁wrongly	-11.1274
do	-11.1279
▁depict	-11.1295
age	-11.1305
▁pit	-11.1314
▁spy	-11.1315
▁introduce	-11.1317
▁graceful	-11.1322
▁fan	-11.1326
▁hector	-11.1336
▁minutes	-11.1339
▁mayor	-11.1342
▁lent	-11.1353
▁verse	-11.1355
▁race	-11.1371
▁rip	-11.1379
▁worrying	-11.1382
▁beasts	-11.1404
▁traditional	-11.1427
▁swears	-11.1428
▁decisions	-11.144
▁freed	-11.145
▁offenses	-11.1451
▁deck	-11.1477
tuck	-11.149
▁hills	-11.1494
ory	-11.1512
▁pearl	-11.1524
▁hall	-11.1539
hand	-11.1571
ssed	-11.1598
▁rash	-11.1613
point	-11.1616
▁hire	-11.1642
▁passions	-11.1665
▁sting	-11.1683
▁caps	-11.1695
▁pre	-11.1733
▁clown	-11.1735
two	-11.1748
▁cock	-11.1767
not	-11.1771
▁grand	-11.1773
▁gloves	-11.1779
▁tend	-11.1786
standing	-11.1806
▁revolt	-11.1844
▁praises	-11.185
▁bleed	-11.1851
▁harp	-11.1856
▁horror	-11.1856
▁flock	-11.1857
▁liked	-11.1861
light	-11.1867
▁conflict	-11.1868
▁waters	-11.1875
▁talent	-11.1875
▁rabbit	-11.188
▁possession	-11.1888
▁scale	-11.1892
▁hairs	-11.1896
▁burns	-11.1897
lang	-11.1898
▁curtain	-11.1902
▁teacher	-11.1904
▁shop	-11.1906
▁boat	-11.191
▁tro	-11.1914
▁bloom	-11.1914
▁christians	-11.1916
▁demon	-11.1924
time	-11.1939
▁greeting	-11.1944
▁quarrels	-11.1954
▁slip	-11.1965
▁quit	-11.1982
▁parthia	-11.1997
▁virgins	-11.2002
headed	-11.2005
day	-11.2006
▁blush	-11.2011
▁direct	-11.202
til	-11.2027
ure	-11.2029
▁rescue	-11.2034
▁restore	-11.2037
▁inform	-11.2037
▁decay	-11.2042
▁expose	-11.2042
▁affect	-11.2043
▁seat	-11.2049
▁courteous	-11.2049
▁swift	-11.2049
▁instant	-11.205
▁mutt	-11.2052
▁appoint	-11.2056
▁balthasar	-11.2056
▁cottage	-11.2056
▁destined	-11.2056
▁energy	-11.2056
▁entourage	-11.2056
▁indebted	-11.2056
▁lucillius	-11.2056
▁platform	-11.2056
▁salisbury	-11.2056
▁syphilis	-11.2056
▁brabantio	-11.2056
▁illegitimate	-11.2056
▁imaginary	-11.2056
▁innocence	-11.2056
▁beneath	-11.2056
▁confront	-11.2056
▁education	-11.2056
▁tiber	-11.2056
▁vicious	-11.2056
▁oxford	-11.2056
▁barrel	-11.2056
▁wreath	-11.2056
▁danish	-11.2056
▁italian	-11.2056
▁territories	-11.2056
▁errand	-11.2056
▁hussy	-11.2056
▁everlasting	-11.2056
▁marshal	-11.2056
▁view	-11.2056
▁pathetic	-11.2056
▁marcus	-11.2056
▁breakfast	-11.2056
▁quince	-11.2057
▁league	-11.2057
▁robbery	-11.2057
▁babbling	-11.2057
▁judas	-11.2057
▁inclined	-11.2057
▁tunis	-11.2057
▁terribly	-11.2057
▁refusing	-11.2057
▁calf	-11.2058
▁undertaking	-11.2058
▁wrestling	-11.2058
▁nile	-11.2058
▁titus	-11.2058
▁freeze	-11.2059
▁waist	-11.2059
▁protection	-11.2059
▁solution	-11.206
▁infinite	-11.206
▁unfortunately	-11.2061
▁dishonorable	-11.2062
▁limb	-11.2063
▁dropped	-11.2063
▁norway	-11.2063
▁sunday	-11.2064
▁englishman	-11.2065
▁blast	-11.2065
▁demonstrate	-11.2067
father	-11.2067
▁humor	-11.2067
▁hardship	-11.2067
▁laughter	-11.2068
▁politely	-11.207
▁unt	-11.207
▁duck	-11.2071
▁dice	-11.2071
▁iras	-11.2074
▁sicilia	-11.2074
▁backward	-11.2074
▁brilliant	-11.2074
▁claudius	-11.2074
▁protest	-11.2075
▁personally	-11.2075
▁corporal	-11.2076
▁boldly	-11.2076
▁injustice	-11.2078
his	-11.2078
▁rites	-11.2078
▁apologize	-11.208
▁dishonored	-11.208
▁speeches	-11.208
▁wickedness	-11.2081
▁guts	-11.2081
▁someday	-11.2081
▁consequences	-11.2082
▁bushes	-11.2083
▁beef	-11.2083
▁renounce	-11.2084
▁palm	-11.2084
▁resemble	-11.2084
▁mute	-11.2087
▁sweetness	-11.2088
▁gathered	-11.2088
▁melted	-11.209
▁fainted	-11.209
▁entered	-11.209
▁failed	-11.2091
▁interested	-11.2093
▁complaining	-11.2095
▁planet	-11.2095
▁brass	-11.2098
▁harder	-11.2103
▁commoners	-11.2105
▁cares	-11.2115
▁exiled	-11.2116
▁wealthy	-11.2118
▁foolishly	-11.2122
▁hounds	-11.2123
▁dove	-11.2129
▁passionate	-11.2132
▁moods	-11.2132
▁squire	-11.2138
▁makeup	-11.2145
▁signed	-11.2149
▁somewhat	-11.215
▁aware	-11.2156
▁spin	-11.2157
▁marked	-11.2158
▁flames	-11.2163
▁sentenced	-11.2164
▁covering	-11.2166
▁thorns	-11.2167
▁balls	-11.2176
▁grim	-11.2181
▁sounded	-11.2184
▁haunt	-11.2185
▁heat	-11.219
this	-11.2191
▁penis	-11.2194
gives	-11.2195
▁seeds	-11.2196
▁courtiers	-11.2197
▁passing	-11.2204
▁bigge	-11.2209
▁str	-11.2212
▁goose	-11.2216
▁kinds	-11.2219
▁talents	-11.2227
▁blamed	-11.223
▁trusted	-11.2235
▁sweetly	-11.2254
▁excused	-11.2254
▁ours	-11.2255
▁feathers	-11.2256
▁laughs	-11.2259
▁bay	-11.226
▁rulers	-11.2261
▁rais	-11.2267
▁excuses	-11.2275
▁cain	-11.2277
pe	-11.2286
▁inch	-11.23
▁effects	-11.23
stone	-11.2304
see	-11.2306
sir	-11.231
▁shouts	-11.2323
▁instruments	-11.2329
▁odds	-11.2331
▁crab	-11.2332
▁con	-11.2349
▁frowns	-11.2365
▁riches	-11.2368
sn	-11.2374
▁cart	-11.2374
▁sh	-11.2376
▁owner	-11.2381
dded	-11.2383
ine	-11.2386
▁lambs	-11.2392
▁hangs	-11.2407
▁dine	-11.2408
▁chances	-11.2411
▁positions	-11.2455
▁barel	-11.2461
em	-11.2473
▁income	-11.248
ruck	-11.2487
▁masks	-11.2501
▁examine	-11.2535
ck	-11.2538
▁debts	-11.2547
▁games	-11.2553
▁crows	-11.2564
side	-11.2583
▁bo	-11.2591
owned	-11.2599
▁sorrows	-11.2613
ible	-11.2625
▁hung	-11.2626
▁noses	-11.267
let	-11.268
▁headed	-11.271
▁class	-11.272
▁wage	-11.273
waking	-11.275
natural	-11.2778
▁sincere	-11.2794
kneeling	-11.2804
▁hats	-11.2809
▁ripe	-11.2835
▁improve	-11.2839
▁inspire	-11.2843
▁pro	-11.2847
▁inferior	-11.2853
▁nerve	-11.2853
▁discussion	-11.2854
▁lament	-11.2859
minded	-11.2865
▁rewards	-11.2869
▁petition	-11.2872
▁outfit	-11.2877
▁farmer	-11.2881
▁million	-11.2881
▁threat	-11.2883
▁affair	-11.2887
aked	-11.2891
▁lap	-11.2891
ering	-11.2896
▁stream	-11.2897
▁moron	-11.2899
▁commander	-11.2905
▁moan	-11.2906
▁insults	-11.2908
▁hits	-11.2913
▁misunderstand	-11.2916
▁sticks	-11.2916
▁object	-11.2923
▁increase	-11.2926
▁kid	-11.2951
▁lights	-11.2952
▁lesson	-11.2962
▁opinions	-11.2979
▁glance	-11.3002
they	-11.3012
when	-11.3027
▁tolerate	-11.3027
▁surprise	-11.303
▁manly	-11.304
▁maintain	-11.3041
▁assault	-11.3041
▁fulfill	-11.3042
▁impatient	-11.3049
▁unfortunate	-11.305
▁dishonest	-11.3052
▁solid	-11.3053
▁arch	-11.3054
▁immoral	-11.3055
▁immortal	-11.3056
▁antigonus	-11.3056
▁birnam	-11.3056
▁cimber	-11.3056
▁coronation	-11.3056
▁empire	-11.3056
▁encouraging	-11.3056
▁endeavor	-11.3056
▁essence	-11.3056
▁eunuch	-11.3056
▁fabian	-11.3056
▁frederick	-11.3056
▁hippolyta	-11.3056
▁illyria	-11.3056
▁inflict	-11.3056
▁insignificant	-11.3056
▁lucetta	-11.3056
▁rosencrantz	-11.3056
▁splendid	-11.3056
▁tarquin	-11.3056
▁ursula	-11.3056
▁vienna	-11.3056
▁vomit	-11.3056
▁abroad	-11.3056
▁mouldy	-11.3056
▁scroop	-11.3056
▁sugar	-11.3056
▁aliena	-11.3056
▁april	-11.3056
▁bellario	-11.3056
▁holiday	-11.3056
▁humility	-11.3056
▁lawrence	-11.3056
▁pindarus	-11.3056
▁bundle	-11.3056
▁relationship	-11.3056
▁relax	-11.3056
▁sixteen	-11.3056
▁sullen	-11.3056
▁witchcraft	-11.3056
▁patron	-11.3056
▁walter	-11.3056
▁metellus	-11.3056
▁narrow	-11.3056
▁fleance	-11.3056
▁publius	-11.3056
▁center	-11.3056
▁salic	-11.3056
▁katherina	-11.3056
▁level	-11.3056
▁understood	-11.3056
▁gallop	-11.3056
▁mischief	-11.3057
▁capacity	-11.3057
▁impressive	-11.3057
▁thoroughly	-11.3057
▁injury	-11.3057
▁estate	-11.3057
▁bargain	-11.3057
▁mockery	-11.3057
▁sixty	-11.3057
▁harmony	-11.3058
▁performance	-11.3058
▁smoke	-11.3058
▁conceal	-11.3058
▁cruelty	-11.3058
▁redeem	-11.3058
▁donkey	-11.3059
▁waving	-11.306
▁housewife	-11.306
▁sorrowful	-11.306
▁allows	-11.306
▁weakened	-11.3061
▁gouge	-11.3061
▁model	-11.3063
▁chair	-11.3065
▁crooked	-11.3065
▁shade	-11.3065
▁load	-11.3066
▁begun	-11.3066
▁weaknesses	-11.3066
▁terror	-11.3066
▁pet	-11.3066
▁eyelids	-11.3067
▁sixth	-11.3068
▁market	-11.3068
▁bushy	-11.3068
▁mustard	-11.3069
▁nobly	-11.3069
▁villains	-11.307
▁twist	-11.3071
▁chattering	-11.3072
▁strongest	-11.3072
▁hag	-11.3072
▁lovesick	-11.3073
▁proclaimed	-11.3073
▁moaning	-11.3074
▁executioner	-11.3074
▁absent	-11.3075
▁eyesight	-11.3076
▁softly	-11.3077
▁harshly	-11.3077
▁sighed	-11.3078
▁nighttime	-11.3078
▁shamefully	-11.3078
▁fertile	-11.3078
▁emotional	-11.308
▁incredible	-11.308
▁promising	-11.3082
▁dishes	-11.3082
▁rescued	-11.3086
▁watchmen	-11.3087
▁exposed	-11.3088
▁sa	-11.3089
▁naturally	-11.3092
▁whispering	-11.3093
▁sighing	-11.3096
▁irish	-11.3099
▁puppet	-11.3101
▁suspected	-11.3102
▁studying	-11.3103
▁sensitive	-11.3103
▁confirmed	-11.3104
▁pleading	-11.3113
▁scent	-11.3113
▁fitting	-11.3117
▁opposed	-11.3119
▁wooing	-11.312
▁extend	-11.3121
▁strongly	-11.3122
▁bothered	-11.3123
▁art	-11.3131
▁risky	-11.3143
▁avoided	-11.3143
▁sheets	-11.3145
▁bowing	-11.3146
▁react	-11.3146
▁ex	-11.3153
▁nymphs	-11.3158
▁banks	-11.3159
who	-11.3163
▁rags	-11.3164
▁bind	-11.3178
▁sadly	-11.3182
▁lions	-11.319
▁lad	-11.3191
▁pranks	-11.3192
▁car	-11.32
▁marching	-11.3206
▁bend	-11.3207
▁counted	-11.3209
▁spoils	-11.3214
▁ice	-11.3215
▁dumb	-11.3223
▁wrestle	-11.3226
▁resign	-11.3237
▁curtains	-11.3249
▁spurs	-11.3253
▁tom	-11.3258
▁hid	-11.3263
▁righteous	-11.3267
▁aunt	-11.327
▁parade	-11.3272
▁addition	-11.328
▁butcher	-11.3314
▁screw	-11.3316
old	-11.3319
ow	-11.3325
▁brat	-11.3338
▁linen	-11.3342
▁careless	-11.3352
owed	-11.3354
▁waited	-11.3359
▁conditions	-11.3377
▁mountains	-11.3378
▁recommend	-11.3391
▁dro	-11.3409
ined	-11.3412
▁crowds	-11.3417
▁rats	-11.3451
▁herod	-11.3481
jan	-11.3487
▁card	-11.3511
▁ro	-11.3515
▁peasants	-11.354
▁arrives	-11.3553
▁fired	-11.3562
▁merchants	-11.3574
▁dares	-11.3575
▁noblest	-11.3581
▁devour	-11.3592
▁stirr	-11.3599
ble	-11.361
▁bas	-11.3626
▁mast	-11.3627
ially	-11.3673
▁super	-11.3675
maker	-11.3698
ious	-11.3701
ster	-11.3707
upper	-11.371
▁stretch	-11.372
▁sirs	-11.3731
▁seas	-11.3767
attered	-11.3777
um	-11.3786
▁carve	-11.3791
▁hut	-11.3793
▁fits	-11.38
espec	-11.382
▁si	-11.3829
▁mixe	-11.3853
▁hay	-11.3854
esn	-11.3881
▁fellows	-11.3882
▁pe	-11.3891
ped	-11.3915
capable	-11.3924
▁mothers	-11.3939
▁groan	-11.3961
▁graveyard	-11.3963
▁monkey	-11.3963
▁flute	-11.3966
▁require	-11.3968
▁conqueror	-11.3972
▁wallet	-11.3972
▁lunatic	-11.3977
▁garland	-11.3978
▁cabin	-11.3979
▁spoil	-11.3982
▁fooling	-11.3983
▁lawyer	-11.3984
nce	-11.3987
▁bartender	-11.3988
▁comparison	-11.399
▁weeps	-11.3992
▁cuckold	-11.3994
▁courtier	-11.3997
protected	-11.3998
▁cheek	-11.3998
hic	-11.3999
▁grove	-11.4002
▁grain	-11.4003
▁deprive	-11.4003
iest	-11.4005
▁scot	-11.4007
▁phrase	-11.4012
▁challeng	-11.4017
▁plott	-11.4037
▁lip	-11.4038
▁wits	-11.4047
▁presents	-11.406
▁fed	-11.4103
▁cow	-11.4106
▁scholar	-11.4118
▁overthrow	-11.4133
▁seduce	-11.4139
▁collect	-11.4149
▁dismiss	-11.4154
▁craft	-11.4155
▁idle	-11.4159
▁delicate	-11.416
▁actual	-11.4162
ably	-11.4163
▁eve	-11.4164
▁blank	-11.4165
▁boatswain	-11.4167
▁cicero	-11.4167
▁doomsday	-11.4167
▁duchess	-11.4167
▁dunsinane	-11.4167
▁epitaph	-11.4167
▁escalus	-11.4167
▁florizel	-11.4167
▁gullible	-11.4167
▁jacob	-11.4167
▁kitchen	-11.4167
▁misunderstood	-11.4167
▁monastery	-11.4167
▁nimble	-11.4167
▁opportunities	-11.4167
▁pattern	-11.4167
▁peddler	-11.4167
▁phoenix	-11.4167
▁prophecy	-11.4167
▁reliable	-11.4167
▁rutland	-11.4167
▁testimony	-11.4167
▁vaughan	-11.4167
▁falcon	-11.4167
▁monarch	-11.4167
▁tullus	-11.4167
▁excellence	-11.4167
▁hospitality	-11.4167
▁rowland	-11.4167
▁entrance	-11.4167
▁eyebrows	-11.4167
▁rosemary	-11.4167
▁dizzy	-11.4167
▁fifth	-11.4167
▁feud	-11.4167
▁decius	-11.4167
▁chapel	-11.4167
▁contrary	-11.4167
▁forbidden	-11.4167
▁assignment	-11.4167
▁aeneas	-11.4168
▁daily	-11.4168
▁magician	-11.4168
▁repaid	-11.4168
▁nightgown	-11.4168
▁scum	-11.4168
▁overflow	-11.4168
▁adriana	-11.4169
▁whining	-11.4169
colored	-11.4169
▁wench	-11.4169
▁thwarted	-11.4169
▁underworld	-11.4169
▁whipping	-11.4169
▁belt	-11.417
▁mariana	-11.417
▁perfection	-11.417
▁mutiny	-11.417
▁nick	-11.417
▁corruption	-11.417
▁convent	-11.4171
▁describing	-11.4171
▁recite	-11.4171
▁vain	-11.4172
▁blushes	-11.4173
▁exercise	-11.4173
▁downfall	-11.4173
▁snail	-11.4174
▁insolent	-11.4174
▁fade	-11.4176
▁lousy	-11.4176
▁lowest	-11.4176
▁normally	-11.4176
▁smack	-11.4176
▁reference	-11.4178
▁jeweler	-11.4178
▁finery	-11.4178
▁glasses	-11.4179
▁jaws	-11.4179
▁arrangements	-11.4179
▁comfortable	-11.418
▁universe	-11.4181
▁horsemen	-11.4183
▁vial	-11.4183
▁instruct	-11.4183
▁urgent	-11.4183
points	-11.4183
▁ashore	-11.4184
▁complaint	-11.4184
▁parties	-11.4186
▁delighted	-11.4187
▁arras	-11.4187
▁establish	-11.4189
▁elegant	-11.4189
▁tapestry	-11.4189
▁explanation	-11.4189
▁peacefully	-11.4189
▁barren	-11.419
▁balance	-11.419
▁smarter	-11.419
▁fatal	-11.419
▁fourth	-11.4191
▁decorated	-11.4191
ranking	-11.4192
▁sl	-11.4193
▁pricked	-11.4194
▁peers	-11.4195
▁required	-11.4196
▁outshine	-11.4199
▁trained	-11.4201
▁sole	-11.4201
▁borrowed	-11.4202
▁boxes	-11.4205
▁aloud	-11.4205
▁possessed	-11.4206
▁violently	-11.4209
▁overcome	-11.4211
▁spill	-11.4212
▁released	-11.4217
▁borachio	-11.4218
▁prevented	-11.4219
▁cruelly	-11.422
▁damnation	-11.422
▁adores	-11.4221
▁frowning	-11.4221
▁relieve	-11.4223
▁despised	-11.4224
▁hollow	-11.4225
▁admired	-11.4226
▁proudly	-11.4227
▁eighty	-11.4228
▁advocate	-11.4229
▁omens	-11.4234
▁features	-11.4235
▁soundly	-11.4236
▁drugs	-11.4238
▁ra	-11.4238
▁caus	-11.4238
▁united	-11.4238
▁satisfaction	-11.4239
▁herbs	-11.4241
▁flatterers	-11.4243
▁pleasing	-11.4245
▁naughty	-11.4247
▁spreading	-11.4247
▁roast	-11.4252
▁wa	-11.4254
▁peto	-11.4255
▁openly	-11.4255
▁moody	-11.4259
▁bath	-11.426
▁rightful	-11.426
▁matched	-11.4266
▁oldest	-11.4271
▁vi	-11.4274
▁wool	-11.428
▁requests	-11.428
▁offering	-11.4292
▁gestures	-11.4301
▁obstacles	-11.4302
cy	-11.4304
▁senseless	-11.4308
▁assured	-11.4308
▁oil	-11.4311
▁unit	-11.4316
▁shove	-11.4316
▁pointless	-11.4319
▁map	-11.4324
▁expecting	-11.4325
▁attacking	-11.4329
▁buying	-11.433
meaningless	-11.4331
▁cuckolds	-11.4343
▁ross	-11.4349
▁whim	-11.4349
▁recover	-11.435
▁foam	-11.4362
▁stern	-11.4364
rank	-11.4365
▁fatten	-11.4372
▁eggs	-11.4376
▁replace	-11.4377
▁ashes	-11.438
▁wondering	-11.4392
▁apes	-11.4412
▁imagined	-11.4414
▁comforting	-11.4422
ennis	-11.4429
▁hint	-11.4436
now	-11.4474
▁weed	-11.4484
▁suspicions	-11.4484
▁understanding	-11.4485
▁officials	-11.4495
▁sores	-11.4497
▁jews	-11.4512
rely	-11.4512
land	-11.4519
▁fighter	-11.4523
▁torn	-11.4538
▁cop	-11.4552
▁captains	-11.456
▁charms	-11.4562
▁formal	-11.4565
▁warriors	-11.4568
▁practical	-11.4576
▁train	-11.4625
▁strangers	-11.4629
▁pr	-11.4638
▁mate	-11.4665
called	-11.467
ned	-11.4688
▁wart	-11.4695
▁ar	-11.4695
▁...	-11.4711
▁cups	-11.4719
▁farm	-11.4734
▁severe	-11.4738
▁fails	-11.4741
▁tar	-11.4743
▁stir	-11.4765
hose	-11.4765
▁appearances	-11.4773
▁butter	-11.4783
▁maids	-11.4796
▁cats	-11.4804
▁outlive	-11.483
otic	-11.4865
▁judges	-11.4882
▁snatch	-11.489
ened	-11.4891
▁bud	-11.4912
free	-11.4913
▁sonnets	-11.4914
▁beca	-11.4922
cal	-11.4931
thank	-11.4932
▁welcomed	-11.4941
▁hug	-11.4953
ent	-11.4972
▁graces	-11.4995
but	-11.5029
▁tradition	-11.5031
three	-11.5032
▁rebuke	-11.5045
▁widows	-11.5061
▁struggl	-11.5062
taking	-11.5065
ified	-11.5081
romeo	-11.5085
ts	-11.5092
pardon	-11.5101
▁mental	-11.5106
ant	-11.5106
▁liver	-11.5119
vast	-11.513
▁pine	-11.5131
▁swim	-11.514
▁ren	-11.5146
▁club	-11.5154
▁scheme	-11.5155
▁sheath	-11.5178
▁bells	-11.5186
▁lots	-11.5196
▁soak	-11.5204
▁costume	-11.5211
▁student	-11.5212
▁stool	-11.5218
▁alliance	-11.5226
▁valley	-11.5227
▁bears	-11.5227
▁native	-11.5228
▁favorite	-11.5231
▁cushion	-11.5233
▁ambassador	-11.524
▁error	-11.524
▁blade	-11.5243
▁representative	-11.5243
▁stray	-11.5244
▁citizen	-11.5246
▁sinner	-11.5248
▁prank	-11.5249
▁sleeve	-11.525
ordinar	-11.527
▁illusion	-11.5273
▁thorn	-11.5288
▁coal	-11.5304
▁date	-11.5306
▁venture	-11.5314
stern	-11.5319
▁twin	-11.5325
come	-11.5325
▁believ	-11.5349
▁india	-11.5371
▁decree	-11.5382
▁incredibl	-11.5387
▁avenge	-11.5397
▁decorate	-11.5398
▁papers	-11.54
▁contradict	-11.5403
▁reprimand	-11.5403
▁anxious	-11.541
▁europe	-11.541
▁rational	-11.541
▁steep	-11.5411
▁conceive	-11.5414
▁joyful	-11.5415
▁frivol	-11.5417
▁govern	-11.5417
▁afflict	-11.5417
▁intelligent	-11.5417
▁belmont	-11.5417
▁berkeley	-11.5417
▁bullcalf	-11.5417
▁calphurnia	-11.5417
▁cauldron	-11.5417
▁centaur	-11.5417
▁cobweb	-11.5417
▁congregation	-11.5417
▁daniel	-11.5417
▁dolabella	-11.5417
▁donalbain	-11.5417
▁epilogue	-11.5417
▁flimsy	-11.5417
▁honeysuckle	-11.5417
▁marcellus	-11.5417
▁mercury	-11.5417
▁offensive	-11.5417
▁porcupine	-11.5417
▁promiscuous	-11.5417
▁prophecies	-11.5417
▁religion	-11.5417
▁seyton	-11.5417
▁system	-11.5417
▁tyrrel	-11.5417
▁underneath	-11.5417
▁vengeance	-11.5417
▁verdict	-11.5417
▁coleville	-11.5417
▁fountain	-11.5417
▁harfleur	-11.5417
▁abilities	-11.5417
▁benvolio	-11.5417
▁conrade	-11.5417
▁florence	-11.5417
▁paradise	-11.5417
▁attitude	-11.5417
▁surrey	-11.5417
▁urine	-11.5417
▁barber	-11.5417
▁enslave	-11.5417
▁lartius	-11.5417
▁ignorance	-11.5417
▁rialto	-11.5417
▁wolves	-11.5417
▁impatience	-11.5417
▁moonshine	-11.5417
▁admirable	-11.5417
▁grapes	-11.5417
▁geese	-11.5417
▁senile	-11.5417
▁disfigure	-11.5417
▁spinning	-11.5417
▁ages	-11.5417
▁scotsman	-11.5417
▁adopt	-11.5417
▁infect	-11.5417
▁childhood	-11.5417
▁uncertain	-11.5417
▁literally	-11.5417
▁outweigh	-11.5418
▁schoolmaster	-11.5418
▁marble	-11.5418
▁famine	-11.5418
thing	-11.5418
▁anxiety	-11.5418
▁bucket	-11.5418
▁paul	-11.5418
▁chilly	-11.5418
▁indirectly	-11.5418
▁ditch	-11.5418
▁confident	-11.5418
▁treasury	-11.5418
▁seductive	-11.5419
▁pitied	-11.5419
▁agony	-11.5419
▁exceed	-11.5419
▁poland	-11.5419
▁lulla	-11.5419
▁swimming	-11.5419
▁division	-11.5419
▁lunchtime	-11.5419
▁stony	-11.5419
▁bandage	-11.542
▁unreasonable	-11.542
▁astonished	-11.5421
▁fife	-11.5421
▁drunkard	-11.5421
▁vouch	-11.5421
▁process	-11.5421
▁mature	-11.5422
▁compete	-11.5422
▁gang	-11.5423
▁thankful	-11.5423
▁shovel	-11.5424
▁convincing	-11.5424
▁wager	-11.5424
▁legend	-11.5424
▁conjure	-11.5425
▁satan	-11.5426
▁deathbed	-11.5426
▁floating	-11.5426
▁rarely	-11.5427
▁triumphant	-11.5427
▁torches	-11.5428
▁office	-11.5428
▁useful	-11.5429
▁peril	-11.543
▁ankles	-11.543
▁spilled	-11.5431
▁correctly	-11.5432
▁dismissed	-11.5432
▁tainted	-11.5433
▁treatment	-11.5433
▁desperately	-11.5433
▁girlfriend	-11.5434
▁humiliated	-11.5434
▁heigh	-11.5434
▁stoop	-11.5434
▁beach	-11.5435
▁stops	-11.5436
▁branch	-11.5436
▁supply	-11.5437
▁kingship	-11.5438
▁countryman	-11.5439
▁topic	-11.544
▁inhuman	-11.544
▁sleepless	-11.544
▁rode	-11.544
▁trivial	-11.5441
▁spanish	-11.5441
▁cressida	-11.5441
▁daytime	-11.5443
▁belch	-11.5445
laborate	-11.5445
▁negotiat	-11.5445
▁recorder	-11.5448
▁cancel	-11.5448
informed	-11.5448
▁lifetime	-11.5449
gs	-11.5449
▁evils	-11.5451
▁larger	-11.5451
▁flame	-11.5454
▁preparations	-11.5454
▁sweating	-11.5455
▁nap	-11.5456
▁formation	-11.5457
▁crossed	-11.5458
▁scorned	-11.5458
▁removed	-11.5459
▁justif	-11.5459
▁sneaky	-11.5459
▁hoped	-11.546
▁warn	-11.5463
▁provoked	-11.5464
▁flat	-11.5466
▁achieved	-11.5467
▁logs	-11.5468
▁addressed	-11.5468
▁convert	-11.5469
▁painter	-11.5471
▁asia	-11.5472
▁harden	-11.5475
▁sailed	-11.5479
▁hasty	-11.5484
will	-11.5484
▁indicate	-11.5493
▁ignored	-11.5497
▁fates	-11.5506
▁vagina	-11.5506
▁lily	-11.5512
▁roaring	-11.5513
▁generations	-11.5524
▁flaws	-11.5524
▁infants	-11.5526
▁decent	-11.5532
▁strings	-11.5532
▁debate	-11.5541
▁howling	-11.5542
▁nicer	-11.5546
▁aboard	-11.5548
▁buds	-11.555
▁logical	-11.5556
▁lime	-11.5556
▁enjoyed	-11.5561
▁conspire	-11.5568
spite	-11.5571
▁travelers	-11.5572
▁station	-11.5584
▁outcome	-11.5584
▁representatives	-11.5594
▁crop	-11.5596
▁overhear	-11.5599
▁fog	-11.5608
▁shorten	-11.5609
▁phrases	-11.5618
▁ceremoni	-11.5626
▁moist	-11.5635
▁lessons	-11.5642
▁towns	-11.5646
▁threats	-11.5649
▁inner	-11.5649
▁chopp	-11.5652
▁ache	-11.5653
▁puff	-11.5653
▁disgraceful	-11.5659
▁beautifully	-11.5662
▁brow	-11.5664
▁sway	-11.5666
cable	-11.5667
▁roots	-11.5669
▁cha	-11.5671
indulge	-11.5681
▁enjoying	-11.5682
▁behaved	-11.5683
ying	-11.5687
▁misfortunes	-11.5688
pped	-11.5705
▁picking	-11.5712
▁vari	-11.5719
▁contains	-11.5728
▁stinks	-11.5739
▁shaken	-11.5747
▁hook	-11.5766
▁pot	-11.577
eval	-11.5775
▁item	-11.5783
el	-11.5793
▁nell	-11.5823
▁tales	-11.5828
shearing	-11.5833
▁robes	-11.5835
▁consist	-11.585
more	-11.5859
▁scars	-11.5864
▁drawing	-11.5866
▁guns	-11.5867
▁boil	-11.5876
▁sew	-11.5877
▁associate	-11.5878
▁ball	-11.5878
▁closed	-11.59
▁advances	-11.5906
▁spiritual	-11.5915
▁defect	-11.5922
nuck	-11.5926
▁du	-11.5939
▁pockets	-11.5943
▁shave	-11.5948
ch	-11.5948
▁agrees	-11.5958
▁wi	-11.5959
ipped	-11.5963
▁statues	-11.5964
▁urges	-11.5967
▁ringing	-11.5967
▁concerns	-11.5969
▁candles	-11.599
▁seeming	-11.5992
▁heroic	-11.5993
▁returning	-11.6003
▁denie	-11.6011
ha	-11.6013
▁slap	-11.6039
ions	-11.6068
▁toss	-11.6073
why	-11.6075
off	-11.6076
▁childish	-11.6078
▁dread	-11.6104
▁cato	-11.6117
▁inn	-11.6119
▁tu	-11.6124
▁mangle	-11.6125
▁ne	-11.6167
ah	-11.6181
doubted	-11.6203
▁n	-11.6209
ung	-11.6213
ever	-11.6225
▁ate	-11.6242
▁pleasures	-11.6266
▁pigs	-11.6271
face	-11.6284
sh	-11.631
op	-11.6329
▁mac	-11.6346
sweet	-11.6381
▁admitt	-11.6398
tell	-11.6399
boy	-11.6443
being	-11.6469
horse	-11.6477
).	-11.6485
give	-11.6491
▁smells	-11.6508
▁plea	-11.6514
▁languages	-11.6522
▁toads	-11.6522
nt	-11.6533
▁chas	-11.6533
control	-11.6548
class	-11.6553
▁adds	-11.6578
spoken	-11.6588
▁prop	-11.6592
▁village	-11.6604
▁snap	-11.6615
▁scream	-11.6623
▁mob	-11.6624
▁attempt	-11.6631
▁raven	-11.6636
dea	-11.6638
▁bestow	-11.6643
▁brook	-11.6643
▁crook	-11.6644
▁dragon	-11.6645
▁bubble	-11.6646
▁drag	-11.6646
▁sport	-11.665
ugh	-11.6651
▁pillow	-11.6656
ive	-11.6658
▁spider	-11.6661
▁plantagenet	-11.6661
▁straw	-11.6663
▁elder	-11.6663
▁quarter	-11.6664
▁pirate	-11.6666
▁garter	-11.6666
▁obstacle	-11.6672
▁ancestor	-11.6675
▁attendant	-11.6675
▁sand	-11.6675
▁gesture	-11.6676
▁feasts	-11.6682
▁gun	-11.6684
▁suitor	-11.6697
▁reflect	-11.6707
▁access	-11.6708
▁traveler	-11.6716
ess	-11.6725
▁attacks	-11.6728
▁roll	-11.6743
▁disrespect	-11.6744
bringing	-11.6751
▁nail	-11.6758
talking	-11.6759
▁struc	-11.6766
get	-11.6792
▁africa	-11.6799
drawing	-11.6799
▁disturb	-11.6805
▁rouse	-11.6809
▁disgust	-11.6815
▁devise	-11.682
▁imitate	-11.6822
▁execute	-11.6823
▁includ	-11.6826
▁surpass	-11.6827
▁reduce	-11.6827
▁chatter	-11.6829
▁oppose	-11.6832
▁distract	-11.6834
▁scatter	-11.6835
▁physical	-11.6839
▁frank	-11.6842
with	-11.6843
▁amuse	-11.6843
▁flirt	-11.6844
▁scandal	-11.6845
▁remorse	-11.6845
▁disagree	-11.6845
▁majestic	-11.6845
▁domestic	-11.6845
▁exhibit	-11.6846
▁recruit	-11.6846
▁autolycus	-11.6846
▁autumn	-11.6846
▁cathedral	-11.6846
▁crispin	-11.6846
▁diamond	-11.6846
▁enhance	-11.6846
▁gadshill	-11.6846
▁gregory	-11.6846
▁hellespont	-11.6846
▁jephthah	-11.6846
▁leisure	-11.6846
▁ligarius	-11.6846
▁montano	-11.6846
▁olympus	-11.6846
▁playwright	-11.6846
▁portrait	-11.6846
▁proclamation	-11.6846
▁progress	-11.6846
▁project	-11.6846
▁prophesie	-11.6846
▁ravenspurgh	-11.6846
▁reinforcements	-11.6846
▁replied	-11.6846
▁shroud	-11.6846
▁society	-11.6846
▁sycorax	-11.6846
▁trebonius	-11.6846
▁vanity	-11.6846
▁victim	-11.6846
▁arthur	-11.6846
▁calais	-11.6846
▁currency	-11.6846
▁disregard	-11.6846
▁eastcheap	-11.6846
▁invasion	-11.6846
▁irresponsible	-11.6846
▁irritable	-11.6846
▁medlar	-11.6846
▁scripture	-11.6846
▁vessel	-11.6846
▁warfare	-11.6846
▁buckram	-11.6846
▁horrifying	-11.6846
▁admiration	-11.6846
▁cambridge	-11.6846
▁tearsheet	-11.6846
▁toothache	-11.6846
baiting	-11.6846
▁derby	-11.6846
▁osric	-11.6846
▁adieu	-11.6846
▁parrot	-11.6846
▁entitle	-11.6846
▁repeal	-11.6846
▁bosom	-11.6846
▁coventry	-11.6846
▁exceptional	-11.6846
▁available	-11.6846
▁buzzard	-11.6846
▁descendants	-11.6846
▁unpleasant	-11.6846
▁degree	-11.6846
▁sermon	-11.6846
▁knives	-11.6846
▁knighthood	-11.6846
▁monday	-11.6846
▁tubal	-11.6846
▁contagious	-11.6846
▁minister	-11.6846
▁gutter	-11.6846
▁surface	-11.6846
▁fangres	-11.6846
▁ginger	-11.6846
▁fantasy	-11.6846
▁trickery	-11.6846
▁disturbance	-11.6846
▁bridle	-11.6846
▁judea	-11.6846
▁romantic	-11.6847
▁slightest	-11.6847
▁horribly	-11.6847
▁bagot	-11.6847
▁unkindness	-11.6847
▁freezing	-11.6848
▁sunset	-11.6848
▁deception	-11.6848
▁trash	-11.6848
▁response	-11.6848
▁siward	-11.6848
▁cities	-11.6848
▁cowardice	-11.6848
▁welshman	-11.6849
▁hmm	-11.6849
▁frozen	-11.6849
▁sexton	-11.6849
▁skillfully	-11.6849
▁daybreak	-11.685
▁precisely	-11.685
▁coast	-11.685
▁sympathy	-11.685
▁hostage	-11.685
mouthed	-11.685
▁broad	-11.6851
▁apparently	-11.6851
▁reality	-11.6851
▁cleverness	-11.6851
▁hush	-11.6851
ize	-11.6851
▁punk	-11.6852
▁physically	-11.6852
▁elderly	-11.6852
▁inexperienced	-11.6852
▁romance	-11.6852
▁wrecked	-11.6853
▁harmless	-11.6853
▁distinguished	-11.6853
▁slavery	-11.6853
▁orbit	-11.6853
▁sinned	-11.6853
▁frost	-11.6854
▁pursuing	-11.6854
▁basis	-11.6856
▁smear	-11.6856
▁lungs	-11.6856
▁wrestler	-11.6857
▁faithfulness	-11.6858
▁wildness	-11.6858
▁rusty	-11.6859
▁sewing	-11.6859
▁linger	-11.6859
▁clay	-11.6859
▁captive	-11.686
▁ruins	-11.6861
▁sockets	-11.6861
▁legions	-11.6862
▁resources	-11.6862
▁sunk	-11.6862
▁disorder	-11.6862
▁strato	-11.6863
▁sweaty	-11.6866
▁wield	-11.6867
race	-11.6868
▁thighs	-11.6868
▁sincerely	-11.6869
▁shipwrecked	-11.6869
▁soothe	-11.687
▁departed	-11.687
▁stamped	-11.6871
▁cheerfully	-11.6872
▁assembly	-11.6873
ternal	-11.6873
▁sampson	-11.6873
▁individual	-11.6873
▁liberty	-11.6873
▁accomplished	-11.6874
▁interrupted	-11.6874
▁summoned	-11.6874
▁louder	-11.6874
▁wagon	-11.6875
▁preach	-11.6875
▁text	-11.6876
▁groaning	-11.6878
▁intense	-11.6878
▁yards	-11.6879
▁remarkable	-11.6879
▁easter	-11.688
▁shocked	-11.6881
▁thugs	-11.6882
esday	-11.6882
▁behaving	-11.6883
▁supplies	-11.6884
▁bitterly	-11.6885
▁confuse	-11.6885
▁frequent	-11.6885
▁ri	-11.6886
▁touches	-11.6886
▁banners	-11.6888
▁upbringing	-11.6888
▁churches	-11.6891
▁tenth	-11.6892
▁snare	-11.6892
▁bursting	-11.6894
▁deceiver	-11.6896
▁barking	-11.6897
▁shooting	-11.69
▁comedy	-11.691
▁sla	-11.6912
▁arise	-11.6913
▁announced	-11.6915
▁suitable	-11.6915
▁accommodated	-11.6916
▁rape	-11.6918
▁chew	-11.6919
▁charming	-11.6919
▁skilled	-11.6921
▁ivy	-11.6923
▁rolling	-11.6926
▁sicker	-11.6927
▁witnessed	-11.6929
▁goodnight	-11.6934
▁track	-11.6936
▁protector	-11.6939
▁bullets	-11.6942
▁longest	-11.6944
▁robb	-11.6952
▁overwhelming	-11.6952
▁generally	-11.6953
▁crash	-11.6957
▁visor	-11.6957
▁lightly	-11.6958
▁goats	-11.6958
▁folks	-11.6959
▁rising	-11.6965
portion	-11.697
▁mist	-11.6971
▁neat	-11.6979
izing	-11.6983
▁vulnerable	-11.6987
▁falsely	-11.699
▁nonny	-11.6992
▁troublemakers	-11.6998
▁slandering	-11.6999
▁obeyed	-11.7003
▁wink	-11.7003
▁supported	-11.7003
▁flea	-11.7004
▁tools	-11.7008
▁muse	-11.701
▁choke	-11.7016
▁kinder	-11.7026
▁deliberate	-11.703
▁boot	-11.7032
▁hood	-11.7036
▁items	-11.7043
▁destroying	-11.7044
▁sleeves	-11.7044
▁prayed	-11.7051
▁corners	-11.7052
▁calmed	-11.7057
▁shared	-11.7059
conspired	-11.7061
▁va	-11.7065
▁ja	-11.707
▁diseased	-11.7071
▁swell	-11.7079
mon	-11.7082
▁streams	-11.7086
▁fold	-11.7088
ening	-11.7089
▁glances	-11.7091
▁finding	-11.7099
▁highway	-11.7102
▁backs	-11.7103
▁millions	-11.7106
head	-11.7117
▁caves	-11.7125
▁pie	-11.7135
▁capit	-11.7148
▁courted	-11.716
▁exists	-11.7162
▁cr	-11.7164
▁pins	-11.7172
▁traps	-11.7183
▁superiors	-11.7188
▁stoic	-11.7191
▁owen	-11.7192
ian	-11.7193
▁ru	-11.7214
▁summons	-11.7217
▁stabs	-11.722
▁medi	-11.7224
▁skip	-11.7226
▁coats	-11.724
▁contents	-11.7244
▁dutiful	-11.7248
▁ideas	-11.7253
▁miracles	-11.7269
▁directions	-11.727
▁restraint	-11.7279
look	-11.7286
ty	-11.7291
▁wig	-11.7295
▁irritate	-11.7296
▁compose	-11.7297
lord	-11.7302
▁hurting	-11.7307
▁leash	-11.731
▁mo	-11.7329
▁visions	-11.7336
▁companion	-11.734
▁confine	-11.734
ered	-11.7341
▁helmets	-11.735
▁waking	-11.7367
ties	-11.7376
▁mass	-11.7379
▁talker	-11.7383
▁rant	-11.7398
worthy	-11.7411
▁keeper	-11.7415
▁couples	-11.7423
▁hopeless	-11.7429
▁j	-11.7442
▁strive	-11.7483
▁travels	-11.7524
▁hack	-11.7533
hed	-11.7547
▁pal	-11.7568
▁arguments	-11.7572
hair	-11.7575
▁fooled	-11.7587
▁compar	-11.7604
▁results	-11.7614
▁springs	-11.7625
ut	-11.7636
how	-11.7654
treating	-11.7697
▁fr	-11.7741
▁images	-11.7743
▁wins	-11.7752
▁beds	-11.7769
act	-11.7775
▁meetings	-11.7779
▁iv	-11.7788
▁tents	-11.7789
are	-11.7794
buckler	-11.7795
que	-11.7798
▁mocks	-11.7815
▁memorize	-11.7832
.(	-11.7837
▁jobs	-11.7841
ities	-11.7855
▁reputations	-11.7855
▁imm	-11.786
▁pu	-11.7882
ely	-11.7883
▁halt	-11.7883
woman	-11.7896
▁colors	-11.7897
caesar	-11.7941
▁houses	-11.796
▁ta	-11.796
ie	-11.7966
▁pictures	-11.797
▁idiots	-11.7992
keeper	-11.8006
▁y	-11.8029
▁doctors	-11.8038
board	-11.8049
▁horri	-11.8072
▁regula	-11.8074
heart	-11.8076
▁uncover	-11.8079
▁drama	-11.808
madam	-11.8089
▁acqui	-11.811
▁wor	-11.8132
▁rubb	-11.8136
▁commission	-11.8173
ated	-11.8186
ked	-11.8192
moon	-11.8195
▁necks	-11.8209
piece	-11.8211
shall	-11.8216
ability	-11.822
fall	-11.8224
▁putt	-11.8234
take	-11.8244
knock	-11.8245
tial	-11.8245
▁nag	-11.8245
▁cod	-11.8256
educated	-11.8263
▁poetic	-11.8267
▁collapse	-11.8272
penis	-11.8276
owing	-11.8277
returning	-11.8283
▁hurl	-11.8289
size	-11.8293
▁dessert	-11.8304
▁surgeon	-11.8304
▁temptation	-11.8304
▁goblet	-11.8306
▁shift	-11.8309
▁riddle	-11.8309
▁impression	-11.8313
▁newborn	-11.8313
year	-11.8317
▁monument	-11.832
▁chicken	-11.8321
▁exploit	-11.8321
▁disappear	-11.8326
▁swamp	-11.8335
▁sta	-11.8335
▁taunt	-11.8337
▁bishop	-11.8337
▁nymph	-11.8339
▁tribune	-11.8341
▁merit	-11.8366
▁brothel	-11.8366
over	-11.8366
▁garment	-11.8366
ir	-11.8368
▁troublemaker	-11.8369
smelling	-11.8369
▁bank	-11.8372
▁flash	-11.8372
▁chop	-11.838
▁rod	-11.8394
real	-11.8394
▁nun	-11.8397
▁shakes	-11.8398
use	-11.8418
▁singer	-11.842
▁gap	-11.8422
▁vigor	-11.8429
ipping	-11.8432
▁isis	-11.844
▁fur	-11.8441
▁remark	-11.8444
▁deceiv	-11.845
▁yell	-11.8453
ose	-11.8457
▁string	-11.847
▁spear	-11.8471
▁undertake	-11.8482
▁pronounce	-11.8484
▁resolve	-11.8484
▁daze	-11.8485
▁stumble	-11.8488
tied	-11.849
▁unleash	-11.8496
▁crisscross	-11.8498
▁prosper	-11.8498
aimed	-11.85
▁earls	-11.85
▁necessar	-11.8502
▁vanish	-11.8502
▁reluctant	-11.8505
▁gallant	-11.8505
▁unexpected	-11.8505
grant	-11.8506
ul	-11.8506
▁player	-11.8507
▁switch	-11.8508
▁nut	-11.8509
▁conscious	-11.8511
tting	-11.8511
▁apprentice	-11.8512
▁absurd	-11.8512
▁abundance	-11.8512
▁arrogance	-11.8512
▁barnardo	-11.8512
▁blossom	-11.8512
▁carpenter	-11.8512
▁cetera	-11.8512
▁chameleon	-11.8512
▁charitable	-11.8512
▁custody	-11.8512
▁dogberry	-11.8512
▁eloquence	-11.8512
▁empress	-11.8512
▁energetic	-11.8512
▁epidamnum	-11.8512
▁europa	-11.8512
▁extravagant	-11.8512
▁inscription	-11.8512
▁lodovico	-11.8512
▁magnificen	-11.8512
▁malicious	-11.8512
▁motley	-11.8512
▁norwegian	-11.8512
▁orgasm	-11.8512
▁orphans	-11.8512
▁ostler	-11.8512
▁overjoyed	-11.8512
▁prevail	-11.8512
▁proculeius	-11.8512
▁purchase	-11.8512
▁purgatory	-11.8512
▁refuge	-11.8512
▁relief	-11.8512
▁reprieve	-11.8512
▁rhetoric	-11.8512
▁salerio	-11.8512
▁schedule	-11.8512
▁seleucus	-11.8512
▁sicily	-11.8512
▁simois	-11.8512
▁substance	-11.8512
▁unrequited	-11.8512
▁ventidius	-11.8512
▁volscian	-11.8512
▁volumnia	-11.8512
▁volumnius	-11.8512
▁wiltshire	-11.8512
▁conceited	-11.8512
▁festivities	-11.8512
▁legacy	-11.8512
▁mardian	-11.8512
▁nowadays	-11.8512
▁politician	-11.8512
▁siege	-11.8512
▁swollen	-11.8512
▁dammit	-11.8512
▁glories	-11.8512
▁superficial	-11.8512
▁vulture	-11.8512
▁enchant	-11.8512
▁authorities	-11.8512
▁fantasies	-11.8512
▁glamis	-11.8512
▁minola	-11.8512
▁remote	-11.8512
▁wrath	-11.8512
▁breeze	-11.8512
▁clitus	-11.8512
▁moderation	-11.8512
▁mustardseed	-11.8512
▁nevertheless	-11.8512
▁distant	-11.8512
▁haughty	-11.8512
▁importance	-11.8512
▁sanity	-11.8512
▁snoring	-11.8512
▁antium	-11.8512
▁argumentative	-11.8512
▁disobedient	-11.8512
▁notebook	-11.8512
▁empha	-11.8512
▁stunned	-11.8512
▁imprisonment	-11.8512
▁humiliation	-11.8512
▁grasp	-11.8512
▁obscure	-11.8512
▁venom	-11.8512
▁mixture	-11.8512
▁shrivel	-11.8512
▁wilderness	-11.8512
▁almighty	-11.8512
▁astray	-11.8512
▁lecherous	-11.8512
▁sextus	-11.8513
▁machine	-11.8513
▁draft	-11.8513
▁jolly	-11.8513
▁refresh	-11.8513
▁excited	-11.8513
▁clement	-11.8513
▁signify	-11.8513
▁proposal	-11.8513
▁identity	-11.8513
▁contest	-11.8513
▁nervous	-11.8513
▁sunrise	-11.8513
▁esteem	-11.8513
▁infection	-11.8513
▁lump	-11.8513
▁melody	-11.8513
▁excess	-11.8513
▁moldy	-11.8513
▁amusement	-11.8513
▁detest	-11.8513
▁corinth	-11.8513
▁disdainful	-11.8513
▁announcement	-11.8513
▁firewood	-11.8514
▁smashed	-11.8514
▁accurately	-11.8514
▁incest	-11.8514
▁arrival	-11.8514
▁crutch	-11.8514
▁doubly	-11.8515
▁accidentally	-11.8515
▁convey	-11.8515
▁guardian	-11.8515
▁previously	-11.8515
▁compromised	-11.8515
▁skies	-11.8515
▁groom	-11.8515
▁cargo	-11.8516
▁blanket	-11.8516
▁difficulties	-11.8516
▁moonlight	-11.8516
▁angus	-11.8516
▁unlikely	-11.8516
▁pageant	-11.8517
▁expense	-11.8517
▁stupidity	-11.8517
▁sunken	-11.8517
▁stubbornness	-11.8517
▁barbary	-11.8517
▁pickpocket	-11.8517
▁manhood	-11.8517
▁injuries	-11.8517
▁embroidery	-11.8518
▁sinning	-11.8518
▁adonis	-11.8518
▁prettier	-11.8518
▁embarrassed	-11.8519
▁deposed	-11.8519
▁forgetful	-11.8519
▁pious	-11.8519
▁rudeness	-11.852
▁include	-11.852
▁crippled	-11.852
▁prosperous	-11.8521
▁wailing	-11.8522
▁madmen	-11.8522
▁mildly	-11.8523
▁ovid	-11.8523
▁enterprise	-11.8523
▁tip	-11.8524
▁annoy	-11.8525
▁fearful	-11.8525
▁vanished	-11.8525
▁curly	-11.8526
▁exhausting	-11.8526
▁winner	-11.8526
▁displeased	-11.8526
▁peacetime	-11.8527
▁scattered	-11.8527
▁politics	-11.8528
▁cub	-11.8529
blooded	-11.853
▁trapped	-11.853
▁verges	-11.853
▁ewes	-11.853
▁instructed	-11.8531
▁hideous	-11.8531
▁tunnels	-11.8531
▁misdeeds	-11.8531
▁limp	-11.8532
▁plotted	-11.8532
▁loaded	-11.8532
▁elsewhere	-11.8532
▁limping	-11.8533
▁hopeful	-11.8533
▁haunted	-11.8533
▁solus	-11.8534
▁ravenous	-11.8534
▁devilish	-11.8534
▁similarly	-11.8535
▁restless	-11.8537
▁dug	-11.8538
▁elizabethan	-11.8539
▁weakest	-11.8539
▁yelling	-11.8539
▁raped	-11.854
▁resolved	-11.854
▁saving	-11.8544
▁symbolize	-11.8544
▁sensible	-11.8546
▁prodig	-11.8546
▁lioness	-11.8548
▁pond	-11.8549
▁whale	-11.855
▁avenged	-11.855
▁retreated	-11.8551
▁intimate	-11.8551
▁shouted	-11.8553
hrew	-11.8553
▁rushes	-11.8554
▁approaches	-11.8554
▁complained	-11.8554
▁situations	-11.8555
▁alice	-11.8557
▁depths	-11.8558
▁trample	-11.8559
▁fewer	-11.8559
▁drawer	-11.8559
▁daring	-11.8561
▁respectfully	-11.8562
▁muscles	-11.8563
▁factions	-11.8563
▁bone	-11.8564
▁conspirators	-11.8564
▁involve	-11.8565
▁roared	-11.8567
▁rehearse	-11.857
ainty	-11.8572
▁jo	-11.8572
▁ref	-11.8575
▁statement	-11.858
▁authorize	-11.858
▁repeating	-11.8583
▁counter	-11.8584
▁richer	-11.8584
▁violets	-11.8588
▁surrendered	-11.8588
▁pink	-11.8591
▁severn	-11.8591
▁fists	-11.8591
▁outdo	-11.8592
morr	-11.8592
▁bars	-11.8594
▁indies	-11.8595
▁stupidly	-11.8598
eyed	-11.86
▁supporters	-11.8602
▁forgetting	-11.8603
▁faithfully	-11.8605
▁upright	-11.8607
▁mab	-11.8607
▁delusions	-11.8609
▁bowl	-11.8612
▁hammer	-11.8616
▁poorest	-11.8616
▁cheater	-11.8617
▁belonged	-11.862
▁beheaded	-11.8622
▁appropriately	-11.8623
covered	-11.8623
▁apparent	-11.8628
▁ounce	-11.863
▁heroes	-11.8631
▁bravest	-11.8633
▁disrespectful	-11.8636
▁sung	-11.864
▁failing	-11.8641
▁veil	-11.8645
▁trembled	-11.8658
▁compliments	-11.8661
fuel	-11.8665
▁tire	-11.8675
▁gamble	-11.8684
alus	-11.8689
▁effective	-11.8691
▁continued	-11.8693
▁disappears	-11.8693
▁garments	-11.8694
▁invade	-11.8697
▁abel	-11.8708
▁blo	-11.8708
▁whims	-11.8714
▁rein	-11.8716
▁gentlemanly	-11.8717
▁performing	-11.8724
▁forked	-11.8725
▁accompanie	-11.8725
▁elders	-11.8728
▁les	-11.8729
▁screams	-11.8731
▁omen	-11.8731
▁farthe	-11.8738
▁outrage	-11.8747
▁figs	-11.875
▁mary	-11.8752
▁blades	-11.8756
▁ambassadors	-11.8759
▁civiliz	-11.8761
▁tight	-11.8765
▁ab	-11.8766
▁cows	-11.877
▁caper	-11.877
▁rub	-11.8772
▁qui	-11.8776
▁humbled	-11.8776
tide	-11.8782
▁comparisons	-11.8791
▁alarm	-11.8798
▁objects	-11.8807
▁thistle	-11.8817
▁guessing	-11.8829
ating	-11.8837
▁hound	-11.8838
▁greed	-11.8855
▁rabbits	-11.8856
bred	-11.8859
▁shy	-11.886
▁seiz	-11.8863
▁rivals	-11.8887
▁shirts	-11.8905
▁flags	-11.891
▁ram	-11.8914
▁applie	-11.8917
▁awaken	-11.8921
▁appetites	-11.8922
▁flaw	-11.8932
ntil	-11.8934
ium	-11.8941
▁dukedoms	-11.8954
▁plus	-11.8954
▁mid	-11.8955
▁dukes	-11.8956
▁drunks	-11.8969
where	-11.8974
▁prostitutes	-11.8984
ad	-11.8988
▁chambers	-11.8989
▁tasks	-11.8992
idate	-11.8996
ford	-11.8997
▁lick	-11.9005
▁cling	-11.9008
▁roofs	-11.9009
▁straightforward	-11.9019
▁documents	-11.9019
rapped	-11.9024
ending	-11.9027
▁womanly	-11.9037
chis	-11.9038
▁flows	-11.9044
▁bulls	-11.9061
▁bonds	-11.9063
▁wither	-11.9071
nero	-11.9073
▁po	-11.9077
ized	-11.9093
▁ok	-11.9094
▁major	-11.9116
▁faker	-11.9134
▁gi	-11.9135
▁solve	-11.9158
▁tha	-11.9168
▁opening	-11.9176
▁painte	-11.9176
▁spots	-11.9182
▁cl	-11.9182
▁wasp	-11.919
")	-11.9192
▁cate	-11.9194
▁imper	-11.9195
▁beings	-11.9201
▁dropp	-11.9214
▁mortals	-11.9222
▁comforts	-11.9229
▁leaders	-11.9243
hey	-11.9244
while	-11.9246
▁clu	-11.9246
un	-11.9255
▁survives	-11.9266
▁embraces	-11.9267
speak	-11.9269
▁trimm	-11.927
beats	-11.9274
▁strut	-11.9293
▁beatings	-11.9307
▁flush	-11.9314
ors	-11.9325
ert	-11.9325
▁char	-11.9327
▁benefits	-11.9332
▁montagues	-11.9343
shot	-11.935
ell	-11.9354
▁sw	-11.9376
▁remembering	-11.9403
▁addresse	-11.9404
▁adult	-11.941
▁owns	-11.9411
▁inappropriate	-11.9441
▁tailors	-11.9451
▁rascals	-11.9468
▁purposes	-11.9471
▁interests	-11.949
▁burnt	-11.9502
▁hers	-11.9542
▁genital	-11.9546
luke	-11.9559
▁lancasters	-11.9568
post	-11.9569
▁tortures	-11.9571
▁treasures	-11.9572
lessly	-11.9579
▁impose	-11.9579
hold	-11.9588
hot	-11.9588
▁gu	-11.9618
▁vene	-11.9632
▁drain	-11.9633
▁tri	-11.9635
ged	-11.9641
name	-11.9642
▁cu	-11.9654
since	-11.9705
handed	-11.9707
▁da	-11.9717
life	-11.9722
con	-11.9777
▁musical	-11.9788
death	-11.9798
horned	-11.9824
▁shores	-11.983
▁occur	-11.9849
▁ag	-11.985
▁dap	-11.9857
ssing	-11.9866
▁gr	-11.9884
master	-11.9886
dead	-11.9895
▁wing	-11.9904
friend	-11.9915
▁sha	-11.9917
robe	-11.992
▁scrap	-11.9929
▁goal	-11.9946
een	-11.9953
▁tease	-11.9972
▁col	-11.9974
▁tyrants	-12.0004
tune	-12.0024
bearer	-12.0047
▁par	-12.0054
lips	-12.0055
▁stopp	-12.0062
▁rains	-12.0063
fire	-12.0109
▁fee	-12.0112
ture	-12.0116
▁imp	-12.0116
stage	-12.0119
brutus	-12.0134
▁strain	-12.015
▁giv	-12.0154
ge	-12.0168
water	-12.0169
ashed	-12.0178
▁shar	-12.0183
▁crew	-12.0183
▁unjust	-12.0187
important	-12.0192
behaved	-12.0231
played	-12.0248
working	-12.0251
necessary	-12.0258
▁spark	-12.0262
▁critic	-12.0277
▁ranks	-12.0284
▁german	-12.0286
▁criticism	-12.0302
▁festival	-12.0303
six	-12.0307
▁foundation	-12.0309
▁charg	-12.0314
tended	-12.0318
▁lure	-12.0318
▁conquest	-12.0322
▁pasture	-12.0323
▁pursuit	-12.0325
▁pilgrim	-12.0327
▁thrive	-12.0327
▁pipe	-12.0328
▁ripen	-12.0331
▁eagle	-12.0332
▁region	-12.0332
▁infant	-12.0332
▁compliment	-12.0334
▁pierc	-12.0337
▁generation	-12.0337
▁dislike	-12.0339
▁folk	-12.0351
▁strip	-12.0357
▁hedge	-12.0359
▁bre	-12.0359
ile	-12.0361
▁needle	-12.0366
▁mole	-12.0377
claimed	-12.0377
cast	-12.0382
▁shin	-12.0385
makers	-12.0391
eight	-12.0396
▁fang	-12.0405
▁plate	-12.041
▁stepp	-12.0426
ome	-12.0432
welcome	-12.0438
▁mus	-12.0441
ruly	-12.0445
▁bon	-12.0447
▁assum	-12.0457
▁float	-12.0466
▁neigh	-12.047
▁bibl	-12.0471
▁blab	-12.0471
▁tortur	-12.0474
▁accord	-12.0475
▁miser	-12.0484
▁humiliate	-12.0488
▁calculate	-12.049
▁observe	-12.0494
lled	-12.0498
▁arriv	-12.0498
▁endanger	-12.0499
▁glutton	-12.05
▁sneer	-12.05
▁phar	-12.0502
▁bewitch	-12.0503
▁el	-12.0503
▁injure	-12.0504
▁reckless	-12.0504
▁vague	-12.0505
▁immediate	-12.0507
▁precise	-12.0507
▁prophet	-12.0512
▁counsel	-12.0512
▁sculpt	-12.0512
pillicock	-12.0512
▁abhorson	-12.0512
▁abundant	-12.0512
▁agamemnon	-12.0512
▁alexandria	-12.0512
▁almanac	-12.0512
▁anguish	-12.0512
▁arabia	-12.0512
▁artificial	-12.0512
▁bequeath	-12.0512
▁brittany	-12.0512
▁canidius	-12.0512
▁chimney	-12.0512
▁christopher	-12.0512
▁claribel	-12.0512
▁coincidence	-12.0512
▁colleague	-12.0512
▁convenient	-12.0512
▁dardanius	-12.0512
▁degenerate	-12.0512
▁demeanor	-12.0512
▁develop	-12.0512
▁dolphin	-12.0512
▁egeus	-12.0512
▁elephant	-12.0512
▁equipment	-12.0512
▁eternity	-12.0512
▁expedition	-12.0512
▁extinguish	-12.0512
▁feminine	-12.0512
▁fidelity	-12.0512
▁gunpowder	-12.0512
▁hecuba	-12.0512
▁humphrey	-12.0512
▁infatuated	-12.0512
▁lammas	-12.0512
▁luperc	-12.0512
▁merciless	-12.0512
▁miniature	-12.0512
▁nicholas	-12.0512
▁orpheus	-12.0512
▁pantomime	-12.0512
▁peaseblossom	-12.0512
▁pegasus	-12.0512
▁penalties	-12.0512
▁permanent	-12.0512
▁persuasion	-12.0512
▁phaethon	-12.0512
▁pharmacist	-12.0512
▁remembrance	-12.0512
▁rhodes	-12.0512
▁sicyon	-12.0512
▁southampton	-12.0512
▁supreme	-12.0512
▁thidias	-12.0512
▁turtledove	-12.0512
▁unharmed	-12.0512
▁unreliable	-12.0512
▁westminster	-12.0512
▁atalanta	-12.0512
▁channel	-12.0512
▁explicit	-12.0512
▁genoa	-12.0512
▁montjoy	-12.0512
▁potential	-12.0512
▁remedy	-12.0512
▁sigeia	-12.0512
▁wholeheartedly	-12.0512
▁aediles	-12.0512
▁doigts	-12.0512
▁exquisite	-12.0512
▁football	-12.0512
▁kinsmen	-12.0512
▁purple	-12.0512
▁tudor	-12.0512
▁boundaries	-12.0512
▁executors	-12.0512
▁oyster	-12.0512
▁sponge	-12.0512
▁chamberlain	-12.0512
▁deputies	-12.0512
▁zeus	-12.0512
▁testament	-12.0512
▁depression	-12.0512
▁fraud	-12.0512
▁opposition	-12.0512
▁russia	-12.0512
▁glitter	-12.0512
▁lyric	-12.0512
▁resolution	-12.0512
▁subtly	-12.0512
▁macedon	-12.0512
▁testify	-12.0512
▁canopy	-12.0512
▁curtsy	-12.0512
▁defiance	-12.0512
▁sixpence	-12.0512
▁vengeful	-12.0512
▁nourishment	-12.0512
▁tradesmen	-12.0512
▁victories	-12.0512
▁climate	-12.0512
▁grandchildren	-12.0512
▁unbearable	-12.0512
▁weasel	-12.0512
▁tartar	-12.0512
▁sunshine	-12.0512
▁commotion	-12.0512
▁unprepared	-12.0512
▁yorkshire	-12.0512
▁oppression	-12.0512
▁adulteress	-12.0513
▁gloucestershire	-12.0513
▁pilate	-12.0513
▁greasy	-12.0513
▁confusion	-12.0513
▁refusal	-12.0513
▁misbehavior	-12.0513
▁pension	-12.0513
▁amazement	-12.0513
▁variation	-12.0513
▁greece	-12.0513
▁torchbearer	-12.0513
▁penance	-12.0513
▁prunes	-12.0513
▁crumble	-12.0513
▁unhappiness	-12.0513
▁regiment	-12.0513
▁hymen	-12.0513
▁pantry	-12.0513
▁yokel	-12.0513
▁blister	-12.0513
▁repentance	-12.0513
▁procession	-12.0513
▁invitation	-12.0513
▁infantry	-12.0513
▁curtis	-12.0513
▁shiver	-12.0513
▁heartfelt	-12.0513
▁slick	-12.0513
▁junk	-12.0513
▁valeria	-12.0513
▁connection	-12.0513
▁claws	-12.0513
▁perish	-12.0513
▁temporary	-12.0513
▁pork	-12.0514
▁curious	-12.0514
▁policy	-12.0514
witted	-12.0514
▁declining	-12.0514
▁stafford	-12.0514
▁ptolemy	-12.0514
▁strategy	-12.0514
▁jackass	-12.0514
▁brotherhood	-12.0514
▁gravedigger	-12.0514
bodied	-12.0514
▁forgetfulness	-12.0514
▁blatant	-12.0514
▁police	-12.0514
▁misled	-12.0514
▁persia	-12.0514
▁barbarian	-12.0514
▁relent	-12.0515
▁gnaw	-12.0515
▁beetle	-12.0515
▁orange	-12.0515
▁violin	-12.0515
▁seventy	-12.0515
▁believable	-12.0515
▁drunkenness	-12.0515
▁adjust	-12.0515
▁sauce	-12.0515
▁inevitable	-12.0516
▁accent	-12.0516
▁bloodline	-12.0516
▁hotheaded	-12.0516
▁budge	-12.0516
▁priestess	-12.0516
▁gazing	-12.0516
▁lineage	-12.0516
fashioned	-12.0516
▁idol	-12.0516
▁birthright	-12.0517
▁scroll	-12.0517
▁jewelry	-12.0517
▁alter	-12.0517
▁shepherdess	-12.0517
▁breach	-12.0518
▁discipline	-12.0518
▁sadder	-12.0518
▁erect	-12.0518
▁ceremonies	-12.0519
▁swam	-12.0519
▁instance	-12.0519
▁scarf	-12.052
▁mysterious	-12.052
▁pluto	-12.052
▁shark	-12.052
▁labi	-12.052
▁gasp	-12.0521
▁unsure	-12.0521
▁untrue	-12.0522
▁sparkle	-12.0522
▁convincingly	-12.0523
▁distressed	-12.0523
ke	-12.0523
▁undone	-12.0523
▁truthful	-12.0525
▁prolong	-12.0526
▁portray	-12.0526
▁ripened	-12.0526
▁bent	-12.0527
▁joyfully	-12.0528
▁suggestion	-12.0528
▁betrayal	-12.0528
▁china	-12.0529
▁yelled	-12.0529
▁trent	-12.0529
▁puck	-12.0529
▁solemnly	-12.053
▁bedtime	-12.053
▁welcoming	-12.053
▁hoard	-12.053
▁temperament	-12.053
▁adored	-12.0531
▁symptoms	-12.0531
▁stairs	-12.0531
▁fawning	-12.0532
▁agent	-12.0532
▁awakened	-12.0533
▁tax	-12.0534
▁eternally	-12.0534
▁recovery	-12.0534
▁frenchmen	-12.0536
▁trappings	-12.0536
▁someplace	-12.0536
▁lurk	-12.0536
▁footsteps	-12.0536
ridden	-12.0537
▁damnable	-12.0537
▁masses	-12.0537
▁dung	-12.0537
▁neighing	-12.0538
▁customers	-12.0539
▁butchered	-12.0539
▁grind	-12.0539
▁quip	-12.0539
▁injured	-12.054
▁dim	-12.054
▁proposed	-12.0541
▁wretches	-12.0541
▁unite	-12.0542
▁crust	-12.0543
▁propose	-12.0543
▁calculated	-12.0543
▁bliss	-12.0546
▁quench	-12.0546
▁pronounced	-12.0547
▁dazed	-12.0547
▁closet	-12.0548
▁smoothly	-12.0548
▁likewise	-12.0548
▁stumbled	-12.0548
▁favorably	-12.0548
▁inconsistent	-12.0548
▁existed	-12.0548
▁briefly	-12.0549
▁steer	-12.0549
▁bump	-12.0549
▁visible	-12.055
▁heavier	-12.055
▁ducdame	-12.0551
▁sicinius	-12.0551
▁syllable	-12.0551
▁shock	-12.0551
▁conference	-12.0551
▁benedictus	-12.0551
▁craziness	-12.0551
▁pax	-12.0551
co	-12.0553
▁striking	-12.0553
▁reduced	-12.0554
▁crazed	-12.0555
▁hmmm	-12.0555
▁sights	-12.0555
▁governing	-12.0556
▁stock	-12.0557
▁sexually	-12.0557
▁triumphed	-12.0557
rlin	-12.0558
▁stirring	-12.0559
▁resisted	-12.056
▁ranting	-12.0562
▁bluntly	-12.0563
▁peep	-12.0563
akes	-12.0565
▁brute	-12.0566
▁revolting	-12.0569
▁har	-12.057
▁matches	-12.057
▁syria	-12.0571
▁charmed	-12.0572
▁fawn	-12.0573
▁ribs	-12.0574
▁achievements	-12.0575
▁restrained	-12.0575
▁massive	-12.0578
▁noah	-12.0578
▁goddesses	-12.0578
▁corrupted	-12.0584
▁warned	-12.0586
▁catches	-12.0586
▁furnish	-12.0588
▁bacch	-12.059
▁weaker	-12.0596
▁tamed	-12.0597
▁behold	-12.0598
▁decline	-12.0598
▁crowed	-12.0603
▁encouraged	-12.0604
▁wonderfully	-12.0604
▁courts	-12.0606
▁occupy	-12.0607
rt	-12.0607
▁sack	-12.0607
▁mourned	-12.0608
▁via	-12.0609
▁rituals	-12.0613
▁advisors	-12.0615
▁guesses	-12.0616
▁inclinations	-12.0616
▁clink	-12.0616
▁norther	-12.0617
▁haul	-12.0619
▁mutton	-12.062
▁belongings	-12.062
▁shorter	-12.0624
▁represented	-12.0626
▁overthrown	-12.0631
▁wildly	-12.0632
▁gad	-12.0633
▁aristocrat	-12.0634
▁sco	-12.0635
▁perfumed	-12.0636
▁declared	-12.0636
legged	-12.0637
▁revel	-12.0639
▁inches	-12.0641
▁damaged	-12.0647
v	-12.0651
▁hymns	-12.0655
▁rolls	-12.0655
▁graz	-12.0656
▁predictions	-12.0656
▁fangs	-12.0659
▁eclipses	-12.0659
▁clue	-12.0661
▁tested	-12.0663
found	-12.0665
▁procr	-12.0667
▁prov	-12.0668
▁traits	-12.0671
rove	-12.0672
▁tasted	-12.0676
ans	-12.0691
fty	-12.0694
▁eagles	-12.0696
▁regions	-12.0696
▁sinking	-12.0699
▁brothels	-12.07
▁willful	-12.0702
▁faithless	-12.0702
▁buckle	-12.0716
▁merits	-12.0719
▁dramatic	-12.072
▁postpone	-12.072
morality	-12.0723
▁historical	-12.0725
aching	-12.0725
▁guaranteed	-12.0727
▁hesitate	-12.0729
▁cape	-12.0729
▁ill	-12.0733
▁career	-12.0734
▁cheering	-12.0738
▁visited	-12.0741
▁dressing	-12.0741
▁mistreat	-12.0747
▁harmed	-12.0747
▁twins	-12.0748
▁hinder	-12.0752
▁uncles	-12.0756
▁killer	-12.0759
ug	-12.0761
hne	-12.0762
▁sports	-12.0763
▁lookout	-12.0771
▁guarded	-12.0772
▁era	-12.0775
▁dat	-12.0776
▁garters	-12.0777
▁pirates	-12.0777
thless	-12.0785
▁comforted	-12.0789
▁observ	-12.0795
▁aggravate	-12.0805
▁brid	-12.0809
▁sinners	-12.081
foresee	-12.0818
▁illusions	-12.0819
▁herb	-12.082
misunderstanding	-12.0828
▁clubs	-12.0831
▁errors	-12.0833
bert	-12.0834
arpe	-12.0839
▁hairy	-12.0842
partially	-12.0843
▁bartenders	-12.0858
▁admits	-12.0861
▁tragical	-12.0864
▁damp	-12.0878
▁breathed	-12.0884
▁practic	-12.0886
▁compell	-12.0894
▁farmers	-12.0899
▁oppos	-12.0908
▁sheet	-12.091
▁acre	-12.0911
▁spirited	-12.0914
▁indite	-12.0918
ship	-12.0922
▁liking	-12.0924
▁wheat	-12.0928
▁spiteful	-12.093
▁desired	-12.0934
▁owls	-12.0939
▁teachers	-12.0942
▁shh	-12.0952
▁revis	-12.0952
ates	-12.0953
▁bleeds	-12.0959
▁defenses	-12.0963
mannered	-12.0964
▁seasons	-12.0964
ingly	-12.0967
als	-12.0967
▁camel	-12.0972
have	-12.0973
▁shields	-12.098
▁leeks	-12.098
▁opponents	-12.098
▁await	-12.0998
well	-12.1001
▁alms	-12.1004
▁wiser	-12.1007
heir	-12.1009
ia	-12.1009
grown	-12.1009
▁struggles	-12.1014
▁monsters	-12.1021
▁abuses	-12.1032
▁fa	-12.1033
▁soles	-12.1033
long	-12.104
son	-12.1073
▁icy	-12.109
▁joys	-12.109
▁ely	-12.1093
▁enjoys	-12.1099
▁mournful	-12.11
▁archer	-12.1106
bbing	-12.1112
▁ambush	-12.1116
ky	-12.1128
sick	-12.1128
▁sacrifices	-12.113
▁conclusions	-12.1142
▁core	-12.1144
▁creat	-12.1146
gging	-12.115
▁kicks	-12.1167
erous	-12.117
▁bodi	-12.1172
ag	-12.1173
rate	-12.1174
▁gro	-12.1179
▁nests	-12.1185
▁profits	-12.1187
▁clergy	-12.1191
▁nurture	-12.1198
▁customs	-12.1206
▁generals	-12.1215
ur	-12.1232
▁paths	-12.1235
▁overtake	-12.1246
▁meals	-12.1248
▁skulls	-12.1261
▁disappoint	-12.1265
▁torments	-12.1275
▁ga	-12.128
les	-12.1284
▁graced	-12.1287
thirsty	-12.129
▁recall	-12.1291
did	-12.1293
▁bu	-12.1304
▁barn	-12.1308
▁badge	-12.1309
▁swing	-12.1318
▁impos	-12.1323
▁floods	-12.1332
series	-12.1342
▁hunts	-12.1373
▁dar	-12.1386
ically	-12.1387
right	-12.1393
▁worker	-12.1396
▁univers	-12.1402
▁personalit	-12.1415
officially	-12.1417
▁lowlifes	-12.1422
ieur	-12.1422
▁savages	-12.1423
upon	-12.1426
tic	-12.1436
reaches	-12.1443
▁tool	-12.1445
▁fro	-12.1453
▁shapes	-12.1454
▁tooth	-12.1459
▁whine	-12.1474
▁smalle	-12.1484
▁doublet	-12.1494
▁differences	-12.1501
▁hy	-12.151
ade	-12.1521
sion	-12.1524
▁vener	-12.1531
▁ensur	-12.1536
▁expressions	-12.1545
▁hostil	-12.1547
making	-12.1575
▁comrades	-12.1593
▁asses	-12.1596
inted	-12.1633
▁dr	-12.1636
▁invoke	-12.1653
angled	-12.1665
dy	-12.1666
▁realm	-12.1669
▁grounds	-12.167
▁undress	-12.169
▁enters	-12.1702
nded	-12.1704
▁harass	-12.1706
▁ward	-12.1721
▁trot	-12.1724
x	-12.1733
▁fins	-12.1748
▁stages	-12.1774
pawn	-12.1776
▁contracts	-12.1821
▁per	-12.1823
ively	-12.1825
▁lace	-12.1835
▁forgiving	-12.1848
▁mu	-12.1868
back	-12.1872
▁devi	-12.1875
▁vest	-12.1881
away	-12.1881
▁continues	-12.1885
▁scoundrels	-12.1902
tripped	-12.1923
▁bench	-12.1933
▁cy	-12.1938
▁gla	-12.1966
▁receives	-12.1974
▁scenes	-12.1974
▁reasoning	-12.1981
▁lull	-12.1984
biting	-12.1987
▁glow	-12.2
▁affections	-12.2005
▁bits	-12.2022
rue	-12.2031
▁brand	-12.2037
ey	-12.2042
▁strangle	-12.2063
▁pee	-12.2069
was	-12.2074
▁steals	-12.2101
prudent	-12.2116
▁sayings	-12.2125
ragged	-12.2134
ran	-12.2148
▁bl	-12.2149
▁equals	-12.2151
fool	-12.2154
▁pace	-12.2157
better	-12.2162
▁consume	-12.2168
▁cheers	-12.2172
ay	-12.2174
seed	-12.2176
▁assign	-12.2182
▁sala	-12.2184
ley	-12.2186
▁meanings	-12.2195
enough	-12.2195
▁tarnish	-12.2199
▁sentences	-12.2208
tion	-12.2214
little	-12.2221
▁hu	-12.2223
▁counts	-12.2226
brother	-12.2236
hen	-12.2242
▁thirst	-12.2249
▁freedoms	-12.2255
▁sli	-12.2257
▁judgments	-12.2258
▁descende	-12.2269
stand	-12.2271
▁area	-12.2273
▁towers	-12.2274
dder	-12.2275
ache	-12.2276
ide	-12.2277
▁event	-12.2294
ze	-12.2294
stal	-12.23
such	-12.2311
▁arouse	-12.2322
departing	-12.2387
▁tap	-12.2395
trick	-12.2403
put	-12.2411
style	-12.242
turns	-12.2434
▁moth	-12.2438
▁fin	-12.2455
special	-12.2459
thrown	-12.2462
▁wow	-12.2465
lowlife	-12.2487
tish	-12.2492
▁advantages	-12.2502
▁classic	-12.2504
▁tam	-12.2507
▁buck	-12.251
ore	-12.2516
▁rag	-12.2523
worn	-12.2539
stop	-12.254
cold	-12.2556
worth	-12.2587
▁den	-12.2588
ground	-12.2589
dear	-12.26
comical	-12.2607
▁commits	-12.2611
music	-12.2614
eaten	-12.2618
▁aged	-12.262
▁impress	-12.2626
▁pea	-12.2634
▁allud	-12.2639
▁trim	-12.2657
cus	-12.2671
apple	-12.2672
blind	-12.2678
present	-12.2678
▁lea	-12.2679
▁prettie	-12.2682
rosalind	-12.2685
▁pi	-12.2701
flowers	-12.2708
famous	-12.2708
▁ch	-12.2708
coriolanus	-12.2723
proof	-12.2729
▁brush	-12.2732
▁chi	-12.2739
▁brut	-12.2739
kisses	-12.2746
historical	-12.2746
grandfather	-12.2751
nonny	-12.2755
deserved	-12.2755
vulnerable	-12.2757
spread	-12.2757
picking	-12.2762
wood	-12.2764
cloth	-12.2765
elbow	-12.2768
▁dam	-12.2769
offering	-12.277
▁rights	-12.277
knocking	-12.277
ence	-12.2771
▁deceit	-12.2777
bearing	-12.2788
▁gri	-12.2789
▁welcomes	-12.2791
aware	-12.2793
▁overdo	-12.2797
▁mermaid	-12.2801
▁earthquake	-12.2801
▁spectacle	-12.2801
▁operation	-12.2801
▁proportion	-12.2801
▁zero	-12.2802
▁lawsuit	-12.2802
▁eclipse	-12.2804
▁gravestone	-12.2804
▁anchor	-12.2806
strong	-12.2815
▁uprising	-12.2816
▁privilege	-12.2818
▁greyhound	-12.2818
▁attribute	-12.282
laying	-12.2821
hill	-12.2822
▁device	-12.2825
▁obligation	-12.2827
▁ribbon	-12.2827
▁leftover	-12.2828
▁skirt	-12.2831
▁hymn	-12.2832
▁laborer	-12.2834
▁prediction	-12.2835
▁trunk	-12.2835
▁exit	-12.2839
▁senator	-12.284
▁bullet	-12.2841
▁choices	-12.2843
▁drug	-12.2844
▁feature	-12.2853
▁oblig	-12.2861
▁grudge	-12.2865
ripe	-12.2871
▁commend	-12.2873
decent	-12.2884
▁ros	-12.2885
itting	-12.2885
▁flatterer	-12.2897
▁hop	-12.2897
▁hunter	-12.2898
▁parent	-12.2906
amon	-12.2912
▁sometime	-12.2924
une	-12.2933
▁shepherds	-12.2937
known	-12.2939
▁tramp	-12.294
▁determin	-12.294
▁troubl	-12.2948
▁medicin	-12.2949
cked	-12.2959
▁surviv	-12.2964
▁shriek	-12.2969
▁fence	-12.2972
▁receiv	-12.2976
▁choos	-12.2977
▁terrify	-12.2978
▁divorce	-12.2979
▁disperse	-12.2982
▁mag	-12.2982
▁incite	-12.2983
▁assemble	-12.2986
▁brawl	-12.2986
▁translate	-12.299
▁fist	-12.2991
sitting	-12.2992
▁organize	-12.2993
▁combine	-12.2997
▁distinguish	-12.2999
▁wreck	-12.2999
▁distress	-12.3
▁filth	-12.3003
west	-12.3004
▁disown	-12.3004
▁rhy	-12.3004
▁mutual	-12.3005
▁aggressive	-12.3005
▁excessive	-12.3005
▁improper	-12.3006
▁eloquent	-12.3006
▁unwilling	-12.3008
▁driv	-12.3008
▁roam	-12.3008
▁scornful	-12.3008
▁numb	-12.3009
▁mischie	-12.3011
▁material	-12.3012
▁casual	-12.3012
▁hysterical	-12.3012
apprehend	-12.3012
▁abrupt	-12.3012
▁acquainted	-12.3012
▁agincourt	-12.3012
▁alcohol	-12.3012
▁anthony	-12.3012
▁applaud	-12.3012
▁ariadne	-12.3012
▁awkward	-12.3012
▁baboon	-12.3012
▁blindfold	-12.3012
▁blustery	-12.3012
▁brakenbury	-12.3012
▁brazen	-12.3012
▁bristol	-12.3012
▁calendar	-12.3012
▁carcass	-12.3012
▁cavalry	-12.3012
▁cleomenes	-12.3012
▁conclude	-12.3012
▁contaminated	-12.3012
▁counterfeit	-12.3012
▁coxcomb	-12.3012
▁crispian	-12.3012
▁december	-12.3012
▁delirious	-12.3012
▁desperation	-12.3012
▁diplomat	-12.3012
▁downstairs	-12.3012
▁election	-12.3012
▁elsinore	-12.3012
▁formidable	-12.3012
▁gargantua	-12.3012
▁hawthorn	-12.3012
▁hazelnut	-12.3012
▁hypocrite	-12.3012
▁incomparable	-12.3012
▁incorrectly	-12.3012
▁jerusalem	-12.3012
▁justification	-12.3012
▁lazarus	-12.3012
▁lifeboat	-12.3012
▁lizard	-12.3012
▁lodowick	-12.3012
▁macdonwald	-12.3012
▁maecenas	-12.3012
▁masham	-12.3012
▁neutral	-12.3012
▁obnoxious	-12.3012
▁occupation	-12.3012
▁overcooked	-12.3012
▁parasite	-12.3012
▁parliament	-12.3012
▁patricians	-12.3012
▁pheasant	-12.3012
▁phoebus	-12.3012
▁possibility	-12.3012
▁prematurely	-12.3012
▁pretentious	-12.3012
▁promiscuity	-12.3012
▁pustule	-12.3012
▁scabbard	-12.3012
▁scheming	-12.3012
▁spaniel	-12.3012
▁spectators	-12.3012
▁spendthrift	-12.3012
▁suburbs	-12.3012
▁suffolk	-12.3012
▁surgery	-12.3012
▁surprising	-12.3012
▁syracusian	-12.3012
▁tactics	-12.3012
▁tapestries	-12.3012
▁tewksbury	-12.3012
▁tyrannical	-12.3012
▁unavoidable	-12.3012
▁uncomfortable	-12.3012
▁untrustworthy	-12.3012
▁voyage	-12.3012
▁wittenberg	-12.3012
▁wizard	-12.3012
▁abraham	-12.3012
▁aristotle	-12.3012
▁clients	-12.3012
▁cowslip	-12.3012
▁egeon	-12.3012
▁entendre	-12.3012
▁garlic	-12.3012
▁gonzago	-12.3012
▁helios	-12.3012
▁kidnapped	-12.3012
▁landowner	-12.3012
▁lucifer	-12.3012
▁sundial	-12.3012
paramour	-12.3012
▁dungeon	-12.3012
▁futile	-12.3012
▁luggage	-12.3012
▁philemon	-12.3012
▁pompeius	-12.3012
▁prosecut	-12.3012
▁ruffian	-12.3012
▁submission	-12.3012
▁subtle	-12.3012
▁toothpick	-12.3012
▁gradually	-12.3012
▁taurus	-12.3012
▁pagan	-12.3012
▁peacock	-12.3012
▁vacation	-12.3012
▁vault	-12.3012
▁dispute	-12.3012
▁trousers	-12.3012
montanto	-12.3012
▁fingernails	-12.3012
▁security	-12.3012
▁snuff	-12.3012
▁arbor	-12.3012
▁scarecrow	-12.3012
▁swaggering	-12.3012
▁combination	-12.3012
▁copper	-12.3012
▁ninny	-12.3012
▁normandy	-12.3012
▁summary	-12.3012
▁loathsome	-12.3012
▁pomp	-12.3012
▁rainbow	-12.3012
▁cherry	-12.3012
▁impulsive	-12.3012
▁reproduce	-12.3012
▁retort	-12.3012
▁rowdy	-12.3012
▁earldom	-12.3012
▁phaet	-12.3012
▁assistance	-12.3012
▁rabble	-12.3012
▁random	-12.3012
▁basically	-12.3012
▁cautious	-12.3012
▁population	-12.3012
▁james	-12.3012
▁perverse	-12.3012
▁chunk	-12.3012
▁decade	-12.3012
▁specifically	-12.3012
▁travers	-12.3012
▁accessories	-12.3013
▁distrust	-12.3013
▁merrily	-12.3013
▁reverence	-12.3013
▁presum	-12.3013
▁cheese	-12.3013
▁coarse	-12.3013
▁foggy	-12.3013
▁globe	-12.3013
▁piety	-12.3013
▁separation	-12.3013
▁stiff	-12.3013
▁stench	-12.3013
▁bowels	-12.3013
▁prosperity	-12.3013
▁scotsmen	-12.3013
▁average	-12.3013
▁phase	-12.3013
▁fathom	-12.3013
▁garble	-12.3013
▁snug	-12.3013
▁humid	-12.3013
▁uncertainty	-12.3013
▁majestically	-12.3013
▁trenches	-12.3013
▁childbirth	-12.3013
▁droop	-12.3013
▁holiness	-12.3013
▁trifles	-12.3013
▁melodious	-12.3013
▁affirm	-12.3013
▁holmedon	-12.3013
▁shaggy	-12.3013
▁brooch	-12.3013
▁unfeeling	-12.3013
▁embarrassment	-12.3013
▁width	-12.3013
▁freak	-12.3013
▁antonius	-12.3013
▁racket	-12.3013
▁oldcastle	-12.3013
▁decoration	-12.3013
▁leadership	-12.3013
▁shhh	-12.3013
▁fairyland	-12.3013
▁sultan	-12.3014
▁university	-12.3014
▁imaginative	-12.3014
▁undeserving	-12.3014
▁puppy	-12.3014
▁coffers	-12.3014
▁pump	-12.3014
▁furies	-12.3014
▁consulship	-12.3014
▁ferry	-12.3014
▁employer	-12.3014
▁knave	-12.3014
▁ceres	-12.3014
▁crassus	-12.3014
▁bidding	-12.3014
pourquoi	-12.3014
▁desolate	-12.3014
▁intently	-12.3014
▁perjury	-12.3014
productive	-12.3014
▁massacre	-12.3014
▁fortuna	-12.3014
▁exaggeration	-12.3014
▁bewildered	-12.3014
▁morocco	-12.3015
▁rivalry	-12.3015
▁sustained	-12.3015
▁permitted	-12.3015
▁squander	-12.3015
▁replacement	-12.3015
▁righteousness	-12.3015
▁snout	-12.3015
▁susan	-12.3015
▁contact	-12.3015
▁hardworking	-12.3015
▁saddest	-12.3015
▁meteor	-12.3015
▁sincerity	-12.3015
▁scarlet	-12.3015
▁intact	-12.3016
▁reaction	-12.3016
▁gambling	-12.3016
▁attentive	-12.3016
▁memento	-12.3016
▁tendenc	-12.3016
▁timidly	-12.3016
▁respectful	-12.3017
▁acceptance	-12.3017
▁fantastic	-12.3017
▁unmarried	-12.3017
▁hastily	-12.3017
▁uproot	-12.3017
▁insistent	-12.3017
▁confiscated	-12.3017
▁paralyzed	-12.3017
▁dethroned	-12.3017
▁scone	-12.3017
▁butterfly	-12.3017
▁fireplace	-12.3017
▁prideful	-12.3017
▁accountable	-12.3017
▁lechery	-12.3018
▁birthday	-12.3018
▁prance	-12.3018
▁meager	-12.3018
▁courtship	-12.3018
▁slightly	-12.3018
▁unwillingly	-12.3019
▁servingman	-12.3019
▁corin	-12.3019
▁shamelessly	-12.3019
▁grandson	-12.3019
▁selfish	-12.3019
▁humanity	-12.3019
▁certainty	-12.3019
vous	-12.302
▁orodes	-12.302
▁sunlight	-12.302
▁tiring	-12.302
▁immatur	-12.302
▁superstition	-12.3021
▁flour	-12.3022
▁butler	-12.3022
▁brewing	-12.3022
▁lucy	-12.3022
▁scowl	-12.3023
▁plunge	-12.3023
▁unknown	-12.3023
▁pester	-12.3023
▁frankly	-12.3024
▁mistreated	-12.3024
▁dinnertime	-12.3025
▁bitterness	-12.3025
▁overlooked	-12.3025
▁nep	-12.3025
▁standard	-12.3025
▁treasonous	-12.3025
▁promoted	-12.3026
▁negotiation	-12.3026
▁fisherm	-12.3027
▁dub	-12.3027
▁saturn	-12.3027
▁whistle	-12.3028
▁tench	-12.3028
▁germany	-12.3028
▁enrich	-12.3028
na	-12.3028
▁urging	-12.3029
▁prompt	-12.3029
▁hangmen	-12.3029
▁pulse	-12.3029
▁somber	-12.303
▁motive	-12.303
▁rashly	-12.303
▁possesses	-12.303
▁castrate	-12.3031
▁review	-12.3031
oah	-12.3031
▁flashy	-12.3031
▁swiftly	-12.3031
▁blink	-12.3031
▁instantly	-12.3032
▁slippers	-12.3032
▁courteously	-12.3032
▁overdone	-12.3032
▁ergo	-12.3033
▁leaf	-12.3033
▁ble	-12.3033
▁bloodshed	-12.3033
▁seller	-12.3034
ranged	-12.3035
▁crisscrossed	-12.3035
▁afterlife	-12.3035
▁wenches	-12.3035
▁implore	-12.3035
▁squeeze	-12.3036
▁cough	-12.3036
▁restful	-12.3036
▁pole	-12.3037
▁cents	-12.3037
▁frantic	-12.3037
▁axe	-12.3037
▁favorable	-12.3038
▁gaping	-12.3038
natured	-12.3038
▁enjoyable	-12.3038
▁warmth	-12.3038
▁shrieking	-12.3039
▁shocking	-12.3039
▁altered	-12.3039
▁wartime	-12.3039
▁screamed	-12.3039
▁brawling	-12.304
▁successfully	-12.3041
▁pop	-12.3041
▁incited	-12.3041
▁cement	-12.3041
▁nettles	-12.3041
▁gracefully	-12.3042
▁fencer	-12.3042
▁fridays	-12.3043
▁contradicted	-12.3043
▁reprimanded	-12.3043
▁ingredients	-12.3043
▁angelic	-12.3043
▁beastly	-12.3044
▁eclipsed	-12.3045
▁parthians	-12.3045
▁morally	-12.3045
▁bewitched	-12.3046
▁acorn	-12.3046
▁erase	-12.3046
▁yew	-12.3047
▁startled	-12.3047
▁largest	-12.3047
▁jokingly	-12.3049
▁plaything	-12.3049
▁falter	-12.305
▁robbers	-12.305
▁hellish	-12.305
▁route	-12.3051
▁fulfilled	-12.3051
▁flatten	-12.3051
▁union	-12.3051
▁stinger	-12.3052
▁enlist	-12.3052
▁precedent	-12.3053
▁moderate	-12.3054
▁childless	-12.3055
▁park	-12.3055
▁cloudy	-12.3055
▁valid	-12.3056
▁reverse	-12.3056
▁delphos	-12.3057
▁bruises	-12.3057
▁valiantly	-12.3057
▁sconce	-12.3057
▁thankfully	-12.3058
▁punches	-12.3059
▁succeeded	-12.306
▁puffing	-12.306
▁independent	-12.306
▁fiercely	-12.3061
ven	-12.3061
▁invaded	-12.3061
▁virgilia	-12.3062
▁disturbing	-12.3062
▁parish	-12.3062
▁screaming	-12.3062
▁congratulations	-12.3062
▁exclaimed	-12.3063
▁noticing	-12.3064
▁fleece	-12.3064
▁tangled	-12.3064
▁slight	-12.3065
▁qual	-12.3065
thou	-12.3066
▁eagerly	-12.3066
▁uttered	-12.3066
▁oily	-12.3067
▁homeless	-12.3067
▁generously	-12.3068
▁faded	-12.3068
▁flight	-12.3069
ap	-12.3069
▁gems	-12.307
▁reformed	-12.3071
▁confessor	-12.3073
▁hardest	-12.3073
▁crest	-12.3074
▁consented	-12.3075
▁sca	-12.3075
▁brighter	-12.3075
▁ibat	-12.3075
▁puny	-12.3076
▁caesarion	-12.3077
▁unlike	-12.3079
▁porter	-12.308
▁cooled	-12.308
▁arden	-12.308
▁villager	-12.3081
▁passionately	-12.3081
▁shreds	-12.3084
▁deploy	-12.3084
▁demanded	-12.3084
▁included	-12.3085
▁ingen	-12.3085
▁twigs	-12.3089
▁hunted	-12.309
▁spices	-12.309
ps	-12.309
▁strokes	-12.3091
▁justified	-12.3091
▁media	-12.3091
▁silently	-12.3093
▁balm	-12.3093
▁seventh	-12.3094
▁meadows	-12.3094
▁prospects	-12.3094
▁trinkets	-12.3095
▁taunting	-12.3095
▁basilisks	-12.3095
▁accomplishments	-12.3095
▁expectations	-12.3096
▁creditors	-12.3096
graved	-12.3099
idge	-12.3101
▁tormented	-12.3101
▁hatched	-12.3101
▁fortress	-12.3102
▁warhorse	-12.3105
▁directed	-12.3105
▁stem	-12.3106
▁lane	-12.3106
deflowered	-12.3107
▁delayed	-12.3112
▁sadden	-12.3113
▁denounce	-12.3114
▁difficulty	-12.3116
ttish	-12.3117
▁sufficient	-12.3121
▁pitcher	-12.3126
mandrake	-12.3129
▁lifeless	-12.313
▁oats	-12.313
▁adventures	-12.313
▁mice	-12.3132
▁anytime	-12.3132
▁entrust	-12.3133
▁differently	-12.3133
▁examination	-12.3136
▁graciously	-12.3136
▁pastoral	-12.3137
▁suggested	-12.3138
▁occupied	-12.314
▁defendant	-12.3141
▁refrain	-12.3142
▁teasing	-12.3142
▁punishes	-12.3143
▁packing	-12.3146
▁drivers	-12.3147
▁candy	-12.3148
▁vineyards	-12.3148
▁movements	-12.3149
▁vowed	-12.3151
▁discussed	-12.3152
hing	-12.3152
▁intim	-12.3158
▁excellently	-12.3158
▁facing	-12.316
▁surrounding	-12.3162
ims	-12.3162
▁shrub	-12.3162
▁supposedly	-12.3166
▁purer	-12.3166
▁spar	-12.3167
▁visitor	-12.3169
▁upside	-12.3171
▁tenor	-12.3174
▁smelly	-12.318
▁partners	-12.3181
▁swan	-12.3185
▁withstand	-12.3185
▁prized	-12.3185
unlock	-12.3187
▁active	-12.3194
▁calmly	-12.3195
▁insisting	-12.3197
▁hunters	-12.3198
▁ribbons	-12.3201
▁obligations	-12.3202
▁wren	-12.3202
wherefore	-12.3202
▁astrolog	-12.3203
▁dealings	-12.3208
▁quote	-12.321
▁agents	-12.3211
then	-12.3213
▁spears	-12.3214
▁reminder	-12.3215
▁plates	-12.3216
▁invest	-12.3222
night	-12.3222
▁embo	-12.3228
▁odors	-12.3229
▁challenger	-12.323
ake	-12.323
▁nuns	-12.3232
▁bug	-12.3234
▁nois	-12.3237
▁cramm	-12.3238
tree	-12.3247
▁diet	-12.3248
▁baron	-12.3249
▁flowery	-12.325
▁pilgrims	-12.3255
nard	-12.3257
caution	-12.3261
▁hedges	-12.3265
would	-12.327
▁slash	-12.3273
▁associat	-12.3279
▁upward	-12.328
▁raw	-12.3281
▁unbelievabl	-12.3283
▁shaf	-12.3288
▁requested	-12.3292
▁bishops	-12.3292
▁scraps	-12.3292
▁sale	-12.3299
rmaceti	-12.3299
rous	-12.3301
▁onward	-12.3306
▁swamps	-12.3306
▁cream	-12.3306
▁hags	-12.3307
▁hatch	-12.3309
▁circumstan	-12.3317
enus	-12.332
▁chime	-12.332
▁select	-12.3321
▁sickly	-12.3325
▁tickle	-12.3326
tes	-12.3329
▁brutal	-12.3334
▁elves	-12.3337
▁investigate	-12.3352
▁solitary	-12.3355
▁tut	-12.3355
▁plantagenets	-12.3362
▁spiders	-12.3363
▁tribute	-12.3366
firk	-12.337
▁attempts	-12.337
▁crooks	-12.337
manship	-12.3374
muffl	-12.3376
handle	-12.3379
▁doubled	-12.338
▁scratche	-12.3381
▁rear	-12.3381
▁gloom	-12.3381
▁regal	-12.3383
▁haste	-12.3386
▁keen	-12.3387
▁skirts	-12.3389
▁decrees	-12.3397
nted	-12.3406
▁illeg	-12.3407
▁cushions	-12.3415
▁braver	-12.3423
▁county	-12.3429
▁listed	-12.343
▁memori	-12.3442
▁contemplate	-12.3445
▁watery	-12.3446
▁dealing	-12.3456
▁questioning	-12.3456
icles	-12.3458
▁rent	-12.3463
▁kids	-12.3465
▁neglectful	-12.3467
▁lawyers	-12.3469
▁accuser	-12.3469
▁blooms	-12.3476
▁assist	-12.3481
▁butchers	-12.3482
▁valued	-12.3489
▁poorer	-12.3493
▁increases	-12.3493
▁mum	-12.3497
▁lout	-12.3502
takes	-12.3507
▁bats	-12.3515
▁indulg	-12.3521
▁demons	-12.3525
▁commanders	-12.353
▁knit	-12.3533
teful	-12.3535
▁withhold	-12.3536
ism	-12.3541
▁inspires	-12.3545
▁polish	-12.3555
inous	-12.3558
place	-12.3558
▁misbehave	-12.356
▁quarters	-12.3562
booty	-12.3565
▁gust	-12.3569
▁cooks	-12.3569
▁nursed	-12.3571
▁straighten	-12.3574
▁vers	-12.3574
▁riots	-12.3575
▁fer	-12.3579
ques	-12.3579
ax	-12.3582
▁protecting	-12.3587
ils	-12.3608
▁commanding	-12.362
im	-12.3621
about	-12.3622
▁uniforms	-12.3626
▁yearn	-12.3627
ardy	-12.3646
▁deserts	-12.3651
▁dragg	-12.3665
▁warnings	-12.3673
▁reveren	-12.3674
▁barks	-12.3675
▁aid	-12.3686
nual	-12.3697
▁darken	-12.3716
▁revive	-12.3717
▁orl	-12.372
▁brighten	-12.3721
iled	-12.3722
▁jesters	-12.3731
▁envi	-12.3736
▁stalk	-12.3738
▁buildings	-12.3739
▁stables	-12.3746
▁advis	-12.3752
▁rust	-12.3761
▁poisons	-12.3768
▁temples	-12.3782
▁likeness	-12.3794
▁bog	-12.3799
atic	-12.38
ferret	-12.3803
▁dangl	-12.3807
▁com	-12.3809
▁hog	-12.3811
dee	-12.3835
town	-12.3838
▁fasting	-12.3857
▁k	-12.3875
▁blocks	-12.3894
▁instincts	-12.3894
▁abbe	-12.3916
▁obsess	-12.3918
▁degrade	-12.3929
▁mil	-12.393
bed	-12.3935
▁cur	-12.394
ilius	-12.3951
ied	-12.3954
▁records	-12.3984
iment	-12.3984
cester	-12.3991
seem	-12.3994
▁formed	-12.3995
▁winding	-12.4003
▁revenged	-12.4011
arely	-12.402
▁measures	-12.402
ging	-12.4021
rary	-12.4052
▁hoot	-12.4055
fearing	-12.4076
wed	-12.4113
hang	-12.4128
▁lawless	-12.4139
roused	-12.4147
dressed	-12.4152
▁capulets	-12.4158
▁prow	-12.4164
▁customar	-12.4176
hat	-12.4179
▁curl	-12.4184
▁trials	-12.4192
any	-12.4195
▁goat	-12.42
▁adulter	-12.4207
▁responds	-12.4211
▁memoriz	-12.4225
▁ac	-12.4227
▁cage	-12.426
▁costs	-12.4271
▁bore	-12.4282
▁sho	-12.4283
▁exhaust	-12.429
▁breasts	-12.4291
only	-12.4297
▁slo	-12.4301
▁spe	-12.4303
gent	-12.4309
▁chests	-12.4316
▁pra	-12.4329
▁tides	-12.434
vious	-12.4359
▁tellus	-12.4389
▁wary	-12.4396
devoured	-12.4415
rest	-12.4425
▁mill	-12.4452
may	-12.4458
▁min	-12.4464
▁pla	-12.4472
▁herds	-12.4474
ugged	-12.4478
ew	-12.4479
▁practices	-12.4482
scept	-12.449
lies	-12.4493
▁interfere	-12.4495
▁gent	-12.4499
▁tape	-12.4499
▁behaves	-12.4527
(	-12.4527
▁skins	-12.4529
▁ver	-12.4547
▁toil	-12.4568
▁prays	-12.4592
▁tack	-12.4627
ub	-12.463
▁nowhere	-12.463
run	-12.465
▁playful	-12.4658
▁lighten	-12.4671
lly	-12.468
wing	-12.4684
▁loath	-12.4694
umbling	-12.4698
▁chide	-12.4701
ngers	-12.4711
▁bash	-12.472
▁cle	-12.4736
▁pickle	-12.4754
moving	-12.4763
whore	-12.4764
▁comp	-12.4783
▁inter	-12.4789
▁hart	-12.4791
pressed	-12.4805
▁hoist	-12.4827
▁gout	-12.4832
eal	-12.4845
berries	-12.4845
▁pimps	-12.4865
▁qu	-12.4866
damn	-12.4874
▁consuls	-12.488
rothe	-12.4889
▁uglie	-12.4889
fight	-12.4906
nes	-12.4907
▁definiti	-12.4922
ched	-12.4934
ning	-12.4947
▁prim	-12.503
tolerable	-12.5036
▁mor	-12.5038
▁ni	-12.5039
▁nephews	-12.5045
▁barbar	-12.5052
▁unde	-12.5063
ue	-12.5074
brain	-12.5078
▁juni	-12.5082
ripped	-12.5099
▁cons	-12.51
▁erupt	-12.5105
▁dye	-12.5108
does	-12.5119
icated	-12.5126
racks	-12.5144
▁lit	-12.5146
▁realiz	-12.5158
heard	-12.516
▁vital	-12.5166
ds	-12.5182
▁dre	-12.5186
made	-12.5192
▁castles	-12.5202
▁slanders	-12.5203
msy	-12.5211
though	-12.522
▁fl	-12.525
true	-12.5258
▁v	-12.5259
▁fund	-12.5273
lib	-12.5284
med	-12.5284
▁sub	-12.5284
ec	-12.5299
▁ap	-12.531
ggle	-12.5315
too	-12.5315
call	-12.5318
agging	-12.5327
tract	-12.5339
line	-12.5348
oped	-12.5349
▁bat	-12.5355
eat	-12.5356
▁settl	-12.5361
cent	-12.5388
▁justly	-12.5392
wife	-12.5392
▁pod	-12.5398
▁penn	-12.5399
odes	-12.5402
shed	-12.5408
▁reform	-12.5409
something	-12.541
▁handkerchiefs	-12.5417
mmed	-12.5417
bility	-12.543
ological	-12.5437
fine	-12.5437
▁notion	-12.5455
▁consciences	-12.5466
lady	-12.5467
young	-12.547
poor	-12.5492
▁pl	-12.5494
▁statesm	-12.5498
daughter	-12.5503
▁slic	-12.5517
pace	-12.5531
▁strangl	-12.5549
kind	-12.5554
▁greeks	-12.5564
ra	-12.5565
cut	-12.5568
ook	-12.5577
test	-12.5589
aggy	-12.5598
stay	-12.5628
▁sol	-12.5628
ph	-12.5631
▁tombs	-12.565
▁prud	-12.5655
sed	-12.5656
▁ending	-12.5658
antony	-12.5659
ously	-12.5668
▁islands	-12.5674
goodbye	-12.568
▁mimic	-12.5688
getting	-12.5706
indicat	-12.5712
remember	-12.574
▁seduc	-12.5742
bla	-12.5777
unny	-12.5777
▁elde	-12.5785
ick	-12.5785
thousand	-12.5789
last	-12.5792
devil	-12.5792
▁bri	-12.5799
▁uni	-12.58
believe	-12.5806
ame	-12.5814
ban	-12.5818
▁guid	-12.5826
ca	-12.5834
▁grip	-12.5843
▁fig	-12.5845
trap	-12.585
tine	-12.5854
claudio	-12.5862
villain	-12.5866
▁deliberat	-12.5885
lling	-12.5887
case	-12.5898
bar	-12.5906
loved	-12.5907
▁sti	-12.5908
▁tru	-12.5909
cover	-12.592
common	-12.5921
▁summers	-12.5927
▁sk	-12.5928
gy	-12.5931
claim	-12.5934
▁plac	-12.5934
murder	-12.5937
white	-12.5939
▁comprehend	-12.5945
doing	-12.597
figure	-12.5971
▁clo	-12.5973
waiting	-12.5975
oc	-12.5977
gave	-12.5983
juliet	-12.5984
playing	-12.5986
tybalt	-12.5986
▁pub	-12.6004
bottom	-12.6018
jack	-12.6044
widow	-12.605
bridge	-12.6067
pr	-12.6068
quality	-12.6069
pull	-12.6069
approaching	-12.6074
bitch	-12.6079
quarters	-12.608
sanctuary	-12.608
yard	-12.6083
burn	-12.6084
righteous	-12.6084
vagina	-12.6085
friendly	-12.6085
stick	-12.6085
apparent	-12.6086
▁non	-12.6086
naughty	-12.6087
skirts	-12.6089
restraint	-12.6092
odors	-12.6095
pop	-12.6095
icul	-12.6097
▁trait	-12.6097
satisfaction	-12.6107
ringing	-12.611
kissing	-12.6113
civiliz	-12.6123
prove	-12.6124
weight	-12.6127
closed	-12.6133
▁cannibal	-12.6133
▁mongrel	-12.6134
▁organ	-12.6134
stained	-12.6135
▁method	-12.6135
▁province	-12.6136
rising	-12.6136
dealing	-12.6139
yellow	-12.6142
strikes	-12.6142
alms	-12.6143
ton	-12.6146
▁wrongdoing	-12.6146
▁caterpillar	-12.6151
▁outburst	-12.6151
▁hallucination	-12.6152
▁impulse	-12.6154
fitting	-12.6156
▁vineyard	-12.6159
telling	-12.6161
▁inclination	-12.6164
▁troop	-12.6167
▁ornament	-12.6167
shoes	-12.6168
▁ritual	-12.6169
▁circumstance	-12.6172
▁element	-12.6173
▁advisor	-12.6173
▁movement	-12.6175
▁adore	-12.6179
lush	-12.6179
hoo	-12.6182
worker	-12.6183
▁violet	-12.6183
cost	-12.6186
▁weaken	-12.6188
repair	-12.6191
▁invit	-12.6192
souls	-12.6195
▁gardener	-12.6197
▁intens	-12.6198
paid	-12.6198
pple	-12.6201
▁pac	-12.6217
bon	-12.6222
▁goblin	-12.6223
shirt	-12.6224
▁dump	-12.623
rish	-12.6232
▁carriage	-12.6235
▁exaggerate	-12.6239
▁typ	-12.624
▁cram	-12.6245
▁bolt	-12.6246
▁sc	-12.6249
cat	-12.625
▁shrug	-12.6252
rais	-12.6253
ravel	-12.626
▁separat	-12.6264
▁supporter	-12.6264
▁unreal	-12.6268
confus	-12.6269
▁stud	-12.627
▁plug	-12.6276
▁achiev	-12.6278
▁metaphor	-12.6282
▁dane	-12.6287
▁expos	-12.6287
▁nurs	-12.6288
dra	-12.6289
atrice	-12.629
▁punishments	-12.629
▁bough	-12.6293
induc	-12.6299
▁embarrass	-12.6302
▁vot	-12.6303
▁declar	-12.6304
wives	-12.6312
▁ev	-12.6315
▁discharge	-12.6315
▁squabbl	-12.6316
▁meddle	-12.6316
▁commoner	-12.632
▁chastise	-12.6321
tag	-12.6323
zed	-12.6324
▁driver	-12.6326
aged	-12.6326
▁thug	-12.6327
▁displease	-12.6329
▁frustrate	-12.6329
▁design	-12.6333
▁embroider	-12.6334
▁sympath	-12.6334
▁fiddle	-12.6334
▁dip	-12.6335
▁log	-12.6335
▁perpetual	-12.6338
wer	-12.6338
▁rebe	-12.6339
▁astonish	-12.6339
▁litera	-12.6339
▁marvelous	-12.6339
▁previous	-12.634
ciated	-12.6344
▁skillful	-12.6345
▁negligen	-12.6345
▁territor	-12.6345
▁author	-12.6345
▁specific	-12.6345
▁multipl	-12.6345
▁brabant	-12.6345
▁philip	-12.6346
▁humpback	-12.6346
▁inadequac	-12.6346
▁screech	-12.6346
corroborate	-12.6346
discretion	-12.6346
dissembly	-12.6346
ethiopian	-12.6346
prohibiting	-12.6346
rougemont	-12.6346
salvation	-12.6346
suffigance	-12.6346
vigitant	-12.6346
▁abominable	-12.6346
▁accomplices	-12.6346
▁activities	-12.6346
▁adversity	-12.6346
▁apology	-12.6346
▁artemidorus	-12.6346
▁balthazar	-12.6346
▁barabbas	-12.6346
▁bentivoli	-12.6346
▁bizarre	-12.6346
▁canterbury	-12.6346
▁carlisle	-12.6346
▁catholic	-12.6346
▁centuries	-12.6346
▁chertsey	-12.6346
▁chronicle	-12.6346
▁clifton	-12.6346
▁college	-12.6346
▁constancy	-12.6346
▁contemptuous	-12.6346
▁contribut	-12.6346
▁coroner	-12.6346
▁cosmetics	-12.6346
▁crocodile	-12.6346
▁cytherea	-12.6346
▁deluded	-12.6346
▁depraved	-12.6346
▁destination	-12.6346
▁devonshire	-12.6346
▁dictionary	-12.6346
▁diomedes	-12.6346
▁discreet	-12.6346
▁disobedience	-12.6346
▁divulge	-12.6346
▁doctrine	-12.6346
▁ebbs	-12.6346
▁eliminate	-12.6346
▁embowelled	-12.6346
▁equivalent	-12.6346
▁erpingham	-12.6346
▁fitzwater	-12.6346
▁flotentius	-12.6346
▁fortification	-12.6346
▁genuine	-12.6346
▁goddammit	-12.6346
▁hallowmas	-12.6346
▁idolatry	-12.6346
▁immodest	-12.6346
▁impudent	-12.6346
▁inadequate	-12.6346
▁indescribable	-12.6346
▁indictment	-12.6346
▁inseparable	-12.6346
▁intrigue	-12.6346
▁intuition	-12.6346
▁invincible	-12.6346
▁leopard	-12.6346
▁lucretia	-12.6346
▁mamillius	-12.6346
▁margery	-12.6346
▁marjoram	-12.6346
▁maturity	-12.6346
▁minerva	-12.6346
▁miraculous	-12.6346
▁moorditch	-12.6346
▁nathaniel	-12.6346
▁nutmeg	-12.6346
▁patrol	-12.6346
▁pembroke	-12.6346
▁persecute	-12.6346
▁persistent	-12.6346
▁perspective	-12.6346
▁petrarch	-12.6346
▁pharamond	-12.6346
▁physician	-12.6346
▁pigeons	-12.6346
▁popillius	-12.6346
▁predecessors	-12.6346
▁prejudice	-12.6346
▁privacy	-12.6346
▁proserpina	-12.6346
▁proxy	-12.6346
▁pythagoras	-12.6346
▁ragozine	-12.6346
▁reproach	-12.6346
▁reynaldo	-12.6346
▁rowboat	-12.6346
▁seacole	-12.6346
▁seldom	-12.6346
▁shipbuilder	-12.6346
▁skeleton	-12.6346
▁smithfield	-12.6346
▁solanio	-12.6346
▁splendor	-12.6346
▁steterat	-12.6346
▁sturdy	-12.6346
▁substitute	-12.6346
▁suffocat	-12.6346
▁technique	-12.6346
▁thirteen	-12.6346
▁thornbush	-12.6346
▁ulcers	-12.6346
▁unparalleled	-12.6346
▁varrius	-12.6346
▁varrus	-12.6346
▁vinegar	-12.6346
▁weathervane	-12.6346
▁whirlpool	-12.6346
▁whisker	-12.6346
▁eavesdrop	-12.6346
▁emerge	-12.6346
▁handiwork	-12.6346
▁whirlwind	-12.6346
▁angrier	-12.6346
▁august	-12.6346
▁discord	-12.6346
▁lavish	-12.6346
▁moonbeams	-12.6346
▁mopsa	-12.6346
▁mordake	-12.6346
▁mumbo	-12.6346
▁stimulate	-12.6346
▁angrily	-12.6346
▁caretaker	-12.6346
▁hoarse	-12.6346
▁misconstrue	-12.6346
▁rebellious	-12.6346
▁unrestrained	-12.6346
▁willoughby	-12.6346
jumbo	-12.6346
▁barrier	-12.6346
▁braggart	-12.6346
▁congeal	-12.6346
▁conventional	-12.6346
▁dighton	-12.6346
▁libya	-12.6346
▁variety	-12.6346
▁yardstick	-12.6346
▁basket	-12.6346
▁curfew	-12.6346
▁deceased	-12.6346
▁plashy	-12.6346
▁presumptuous	-12.6346
▁sniff	-12.6346
▁antiates	-12.6346
▁dipper	-12.6346
▁epilepsy	-12.6346
▁mattress	-12.6346
▁nipple	-12.6346
▁puddle	-12.6346
▁sardis	-12.6346
exhibitioned	-12.6346
▁exult	-12.6346
▁pollute	-12.6346
▁evildoer	-12.6346
▁twilight	-12.6346
▁adoration	-12.6346
▁bathroom	-12.6346
▁pelican	-12.6346
▁vernon	-12.6346
comonty	-12.6346
decerns	-12.6346
▁bracelet	-12.6346
▁cherries	-12.6346
▁seventeen	-12.6346
▁triumvirate	-12.6346
tua	-12.6346
▁abusive	-12.6346
▁casualties	-12.6346
▁fornication	-12.6346
▁heaviest	-12.6346
▁prostitution	-12.6346
▁melodies	-12.6346
▁displeasure	-12.6346
▁estimate	-12.6346
▁murmur	-12.6346
▁martyr	-12.6346
▁misguided	-12.6346
▁motivation	-12.6346
▁bonfire	-12.6346
▁distinctive	-12.6346
▁prominen	-12.6346
▁gravity	-12.6346
▁chestnut	-12.6346
▁multiplied	-12.6346
▁pitiless	-12.6346
▁guidance	-12.6346
▁bumpkin	-12.6346
▁malefactor	-12.6346
▁strawberries	-12.6346
▁gleam	-12.6346
▁excitement	-12.6346
▁cradle	-12.6346
▁discomfort	-12.6346
▁existence	-12.6346
▁distinction	-12.6346
▁operate	-12.6346
▁unmanly	-12.6346
▁flavius	-12.6346
▁unload	-12.6346
▁unemployed	-12.6346
▁thrilled	-12.6346
eftest	-12.6346
▁cornfield	-12.6346
▁immaturity	-12.6346
▁fortify	-12.6346
choler	-12.6346
▁lewis	-12.6346
▁steward	-12.6346
▁domesticated	-12.6346
▁unstable	-12.6346
▁blacksmith	-12.6346
▁handicap	-12.6346
▁flex	-12.6346
▁bulk	-12.6346
▁mingling	-12.6346
▁stunts	-12.6346
▁narcissus	-12.6346
▁petals	-12.6346
▁downpour	-12.6346
▁furlong	-12.6346
▁inhabit	-12.6346
▁falsehood	-12.6346
▁offspring	-12.6346
▁cupbearer	-12.6346
▁purity	-12.6346
▁unpunished	-12.6346
▁stammer	-12.6346
▁hostility	-12.6346
▁dutch	-12.6346
▁graft	-12.6346
▁conniv	-12.6346
▁regia	-12.6346
▁jason	-12.6346
▁shush	-12.6346
▁epic	-12.6346
▁muddy	-12.6346
▁pilot	-12.6346
▁unchaste	-12.6346
▁agitated	-12.6347
▁unbuckle	-12.6347
▁flourish	-12.6347
▁hooves	-12.6347
▁malice	-12.6347
▁freckle	-12.6347
▁frivolity	-12.6347
▁valor	-12.6347
▁yarn	-12.6347
▁maidenheads	-12.6347
▁resistance	-12.6347
▁kites	-12.6347
▁blackberries	-12.6347
▁revelation	-12.6347
▁scab	-12.6347
▁rubies	-12.6347
▁disposal	-12.6347
▁disagreement	-12.6347
▁rift	-12.6347
▁contemplation	-12.6347
▁immortality	-12.6347
▁temperance	-12.6347
▁policemen	-12.6347
▁pennies	-12.6347
▁bloodsuck	-12.6347
▁slug	-12.6347
▁sentiment	-12.6347
▁storehouse	-12.6347
▁slugg	-12.6347
▁thriving	-12.6347
▁spokesman	-12.6347
▁mulberr	-12.6347
▁arbit	-12.6347
▁pretense	-12.6347
▁miseries	-12.6347
catcher	-12.6347
▁nessus	-12.6347
▁luciana	-12.6347
▁morton	-12.6347
▁gorgon	-12.6347
▁simpleminded	-12.6348
▁policeman	-12.6348
▁looting	-12.6348
▁giddy	-12.6348
▁undiscovered	-12.6348
▁crete	-12.6348
▁frustration	-12.6348
▁interpretation	-12.6348
▁lodging	-12.6348
▁pouch	-12.6348
▁doorkeeper	-12.6348
▁starveling	-12.6348
▁confirmation	-12.6348
▁geezer	-12.6348
▁embracing	-12.6348
▁provocation	-12.6348
▁delightful	-12.6348
▁clergyman	-12.6348
▁trophy	-12.6348
▁grunt	-12.6348
▁scandalous	-12.6348
▁busybody	-12.6348
▁raving	-12.6348
ulsion	-12.6348
▁gypsy	-12.6348
▁emergency	-12.6348
▁encouragement	-12.6348
▁weaver	-12.6348
savory	-12.6348
▁earshot	-12.6348
▁distort	-12.6349
▁courtroom	-12.6349
▁thrice	-12.6349
▁exert	-12.6349
▁redder	-12.6349
▁disemboweled	-12.6349
▁unbuttoned	-12.6349
▁failure	-12.6349
▁detected	-12.6349
▁observation	-12.6349
▁muzzle	-12.6349
▁suppertime	-12.6349
▁gashes	-12.6349
▁hobby	-12.6349
▁bedford	-12.6349
▁overfed	-12.635
▁bedfellow	-12.635
▁frail	-12.635
▁jamy	-12.635
▁bloodthirsty	-12.635
▁underhanded	-12.635
▁brandon	-12.635
▁coral	-12.635
▁replica	-12.635
▁rulebook	-12.635
▁creative	-12.635
▁dollars	-12.635
▁unsheathed	-12.635
▁overblown	-12.635
▁scarce	-12.635
▁churning	-12.6351
▁lowborn	-12.6351
▁funnier	-12.6351
▁steady	-12.6351
▁counterbalanc	-12.6351
▁moneylender	-12.6351
▁wildcat	-12.6351
▁idiotic	-12.6351
▁gravy	-12.6351
▁scoured	-12.6352
▁startle	-12.6352
▁nauseating	-12.6352
▁blubbering	-12.6352
▁desk	-12.6352
▁servingmen	-12.6352
▁marvelously	-12.6352
▁urinate	-12.6352
odorous	-12.6352
▁motivate	-12.6353
▁bapti	-12.6353
▁rebelling	-12.6353
▁christianity	-12.6353
▁muttering	-12.6353
wearisome	-12.6353
▁comb	-12.6354
▁indifference	-12.6354
▁rattle	-12.6354
▁crouch	-12.6354
▁descent	-12.6354
plated	-12.6355
▁discredited	-12.6355
▁transformation	-12.6355
▁eloquently	-12.6355
▁tenderness	-12.6355
▁sufficiently	-12.6355
▁warden	-12.6355
▁altar	-12.6355
▁flank	-12.6355
▁disarmed	-12.6355
▁knowledgeable	-12.6355
▁measly	-12.6356
▁moys	-12.6356
▁infidelity	-12.6356
▁identify	-12.6356
▁unused	-12.6357
▁motto	-12.6357
▁jousting	-12.6357
▁fading	-12.6357
▁rhyming	-12.6357
▁renew	-12.6358
▁recklessly	-12.6358
▁undermine	-12.6358
▁jury	-12.6358
▁scornfully	-12.6358
▁amusing	-12.6358
▁square	-12.6358
▁dorsetshir	-12.6358
mpered	-12.6358
▁dissolve	-12.6358
▁heartache	-12.6359
▁mistrust	-12.6359
▁slowness	-12.6359
▁sandy	-12.636
▁doorstep	-12.636
▁solider	-12.636
▁astrology	-12.636
▁lovesickness	-12.636
▁hecate	-12.6361
▁swerve	-12.6361
▁bluntness	-12.6361
▁hotter	-12.6361
chas	-12.6361
▁enjoyment	-12.6361
▁reborn	-12.6362
▁disorderly	-12.6362
▁beau	-12.6362
▁overpower	-12.6363
▁harpies	-12.6363
▁bacon	-12.6363
▁reconciled	-12.6364
▁bitten	-12.6364
▁misused	-12.6364
▁advantageous	-12.6365
▁lethal	-12.6365
▁nightwork	-12.6365
▁rationally	-12.6365
▁assassinated	-12.6366
▁usurp	-12.6366
▁stretcher	-12.6366
▁defie	-12.6366
▁european	-12.6366
▁severely	-12.6366
▁spain	-12.6367
▁mentally	-12.6367
▁grievous	-12.6368
▁extensi	-12.6368
▁tightly	-12.6368
▁gluttony	-12.6368
▁monk	-12.6369
▁bums	-12.6369
▁revered	-12.6369
▁stroll	-12.6369
▁significant	-12.637
▁allowance	-12.637
footed	-12.6373
▁glim	-12.6373
▁rib	-12.6373
▁henri	-12.6374
▁stature	-12.6374
▁embarrassing	-12.6374
▁radiant	-12.6374
▁burrow	-12.6374
▁bona	-12.6374
▁olive	-12.6375
▁timid	-12.6375
▁usurper	-12.6375
▁motivated	-12.6376
▁joyous	-12.6376
▁discouraged	-12.6376
▁liqu	-12.6376
▁carelessly	-12.6376
timate	-12.6376
▁sewed	-12.6377
denial	-12.6377
▁admiring	-12.6377
▁dissolved	-12.6378
▁blindness	-12.6378
▁filed	-12.6378
▁chastised	-12.6378
▁steeple	-12.6378
▁welts	-12.6378
▁disappeared	-12.6379
▁adulterer	-12.6379
▁shameless	-12.6379
▁shabb	-12.6379
▁disrupt	-12.6379
▁retain	-12.6379
▁ranger	-12.638
▁weakling	-12.638
▁uneven	-12.638
▁confus	-12.638
▁flout	-12.6381
▁explode	-12.6381
▁mayhem	-12.6381
▁roaming	-12.6381
▁overstepp	-12.6381
▁paddle	-12.6382
▁launch	-12.6382
▁frustrated	-12.6382
▁digest	-12.6382
▁sneering	-12.6382
▁cros	-12.6383
▁yep	-12.6383
▁otter	-12.6384
▁unfairly	-12.6384
▁aligned	-12.6384
▁drunkenly	-12.6384
▁seducer	-12.6384
▁jumble	-12.6386
▁shelf	-12.6387
▁celebrating	-12.6387
▁sherry	-12.6387
tellers	-12.6388
▁aprons	-12.6388
▁dispersed	-12.6388
▁trend	-12.6389
sure	-12.639
▁pyramids	-12.639
▁jule	-12.639
▁benefactors	-12.639
▁predators	-12.639
▁functions	-12.6391
▁worshippers	-12.6391
▁crass	-12.6391
▁dishonesty	-12.6391
▁pike	-12.6391
▁mugs	-12.6392
▁warships	-12.6393
▁sweeten	-12.6393
▁crosses	-12.6393
inque	-12.6394
▁eden	-12.6394
▁purge	-12.6394
▁senis	-12.6395
▁oars	-12.6396
▁groaned	-12.6397
▁losers	-12.6397
▁crumbs	-12.6397
▁diminished	-12.6397
knack	-12.6397
▁bowling	-12.6397
▁fatso	-12.6398
▁dismount	-12.6398
▁straying	-12.6399
▁obtain	-12.6399
▁recommended	-12.6399
▁shrink	-12.64
▁sank	-12.64
▁steadily	-12.64
▁swelling	-12.6401
▁livia	-12.6402
▁yorks	-12.6402
▁assaulted	-12.6402
▁maintained	-12.6402
▁recovered	-12.6402
▁nodded	-12.6402
▁scraping	-12.6403
▁nourishes	-12.6403
▁revoke	-12.6404
▁hopefully	-12.6404
▁bearer	-12.6404
▁uphold	-12.6406
▁costly	-12.6406
▁overlook	-12.6407
▁undergo	-12.6407
▁windsor	-12.6408
▁talented	-12.6408
▁beads	-12.6409
▁forests	-12.6409
▁overhead	-12.641
▁grudgingly	-12.6411
▁positive	-12.6411
▁norman	-12.6413
▁mansion	-12.6413
▁faking	-12.6413
▁discourage	-12.6413
▁disguises	-12.6414
▁fastest	-12.6414
▁gobbo	-12.6415
▁understandable	-12.6415
▁genesis	-12.6415
▁redemption	-12.6415
▁necessities	-12.6415
▁maneuver	-12.6416
▁appointment	-12.6416
▁babes	-12.6416
▁workmen	-12.6417
▁disloyalty	-12.6417
▁uncontrollabl	-12.6418
▁carrier	-12.6418
▁epit	-12.6419
▁devised	-12.6421
▁scarred	-12.6421
▁watchman	-12.6421
▁reven	-12.6421
▁astound	-12.6425
▁jousts	-12.6427
▁priami	-12.6428
▁carous	-12.6429
▁groat	-12.6429
▁helpful	-12.643
▁brick	-12.643
▁mules	-12.6431
▁designed	-12.6432
▁echoed	-12.6432
▁puls	-12.6433
▁piteous	-12.6434
▁willpower	-12.6436
▁undertaken	-12.644
▁team	-12.6442
▁speci	-12.6445
▁discharged	-12.6447
▁wail	-12.6447
▁studies	-12.6447
▁blocked	-12.6448
▁scratchy	-12.6448
rough	-12.6449
▁derives	-12.6451
▁stance	-12.6451
▁growth	-12.6451
▁exor	-12.6453
▁squeak	-12.6454
▁seriousness	-12.6456
▁wye	-12.6456
▁acceptable	-12.6457
▁steril	-12.6458
▁drift	-12.6459
▁buttons	-12.6461
▁yup	-12.6461
▁clearer	-12.6461
desertless	-12.6461
▁principles	-12.6463
▁relations	-12.6463
▁tutors	-12.6464
▁cramps	-12.6464
▁tolerated	-12.6465
▁speculations	-12.6466
▁onstage	-12.6466
▁nightmares	-12.6466
▁thunderbolts	-12.6466
▁declarations	-12.6466
▁blockheads	-12.6466
▁subordinates	-12.6466
▁contented	-12.6466
ight	-12.6467
▁steam	-12.6467
▁vines	-12.6467
▁commandments	-12.6468
▁compl	-12.6469
▁feverish	-12.6469
▁womanish	-12.6471
copulate	-12.6472
▁trumpeters	-12.6472
▁socks	-12.6473
▁seated	-12.6473
▁tsk	-12.6474
▁improved	-12.6474
▁restored	-12.6475
▁marries	-12.648
throw	-12.6482
▁thigh	-12.6485
▁notary	-12.6488
rors	-12.649
▁cracking	-12.6491
▁tab	-12.6492
▁dwell	-12.6492
▁recount	-12.6492
▁torturer	-12.6492
▁entertaining	-12.6494
▁option	-12.6497
▁marches	-12.6497
ments	-12.65
▁blabb	-12.6501
▁cel	-12.6501
sing	-12.6502
▁erupts	-12.6505
▁dealer	-12.6508
▁digestion	-12.651
▁loyally	-12.651
▁bolts	-12.6511
▁scholars	-12.6513
ends	-12.6514
▁capet	-12.6515
▁heaps	-12.6515
▁ransomed	-12.6515
guise	-12.6517
noncome	-12.6518
▁satin	-12.6519
▁foreigner	-12.6519
▁healed	-12.6521
▁retreating	-12.6521
▁lovingly	-12.6521
▁enforced	-12.6522
▁expend	-12.6523
▁quarreling	-12.6524
trimme	-12.6524
▁dick	-12.6527
▁badness	-12.6529
▁vigorous	-12.6529
▁training	-12.6533
▁plugg	-12.6535
▁squeal	-12.6538
▁thrusting	-12.6538
weeping	-12.6539
▁goblins	-12.6539
▁kneeled	-12.654
▁impulses	-12.654
▁lon	-12.6541
▁curr	-12.6543
▁ornaments	-12.6543
▁hallucinations	-12.6543
▁outbursts	-12.6543
▁caterpillars	-12.6544
▁luce	-12.6545
▁oneself	-12.6546
▁organs	-12.6548
▁iii	-12.6551
▁gardeners	-12.6551
▁marian	-12.6552
▁interpreter	-12.6553
expectfully	-12.6554
▁imply	-12.6556
▁ladylike	-12.6559
▁june	-12.656
▁product	-12.656
▁merops	-12.6562
▁timing	-12.6563
▁lighter	-12.6566
▁criticized	-12.6567
▁poles	-12.6567
lion	-12.6573
▁stuffing	-12.6573
ded	-12.6576
▁measured	-12.6576
▁obligat	-12.658
▁showers	-12.658
ecrate	-12.6582
▁border	-12.6582
▁retire	-12.6584
▁longing	-12.6585
▁capon	-12.6588
▁belonging	-12.6596
▁trunks	-12.6599
▁madly	-12.6602
▁piss	-12.6603
▁carriages	-12.6603
▁pounding	-12.6609
taste	-12.661
▁heretic	-12.6611
▁hemp	-12.6612
▁devices	-12.6615
atics	-12.6616
▁revers	-12.6617
▁delaying	-12.6617
▁grudges	-12.6618
▁attributes	-12.6621
▁greyhounds	-12.6622
▁privileges	-12.6622
▁affectionate	-12.6622
▁laborers	-12.6625
othing	-12.6625
▁coldly	-12.6625
▁oppress	-12.6625
▁siren	-12.6626
▁completed	-12.6631
▁proceeding	-12.6635
▁bang	-12.6635
▁reap	-12.6637
▁spout	-12.6645
▁fe	-12.6648
▁babble	-12.6649
▁lodge	-12.666
▁gall	-12.6661
▁swarm	-12.6661
▁moles	-12.6662
▁reassur	-12.6664
▁sunburn	-12.6667
▁nags	-12.6668
▁tops	-12.6671
▁vii	-12.6672
▁taunts	-12.6672
▁interesting	-12.6677
▁gape	-12.668
ooted	-12.6684
▁pipes	-12.6685
▁dislikes	-12.6689
▁translati	-12.6693
▁pursuits	-12.6693
▁conquests	-12.6696
▁pastures	-12.6699
▁tripped	-12.6706
▁bi	-12.6708
▁muses	-12.671
▁joker	-12.6711
▁bees	-12.6713
its	-12.6715
lo	-12.6717
▁drow	-12.6717
▁partying	-12.6718
▁expe	-12.6719
vigilant	-12.672
▁yoke	-12.672
fish	-12.6725
▁kno	-12.6725
▁tempest	-12.6727
▁clash	-12.6732
▁rates	-12.6732
▁paler	-12.6737
dependent	-12.6755
▁ridicule	-12.6758
early	-12.6763
▁repair	-12.6765
▁peek	-12.6766
▁sands	-12.6766
attering	-12.6767
elf	-12.6772
▁woe	-12.6773
▁exploits	-12.6775
▁chickens	-12.6776
▁monuments	-12.6777
▁johns	-12.6781
▁mutin	-12.6782
▁compet	-12.6786
▁derive	-12.6792
▁singers	-12.6798
▁unmatch	-12.6805
wept	-12.6807
▁rice	-12.6811
va	-12.6813
▁blur	-12.6827
▁dupe	-12.6827
show	-12.6827
▁straws	-12.6837
ides	-12.6846
comprehended	-12.6846
claiming	-12.6847
▁sap	-12.6849
▁pillows	-12.685
▁tolera	-12.6856
▁num	-12.6864
▁pots	-12.6865
▁lice	-12.687
▁whew	-12.6879
▁rave	-12.6881
▁infidelit	-12.6883
praise	-12.6884
ition	-12.6887
▁villages	-12.6893
▁gum	-12.6907
▁compensate	-12.691
arm	-12.6919
▁peer	-12.6924
▁natives	-12.6929
▁favorites	-12.693
▁hoo	-12.6932
▁valleys	-12.6933
▁alliances	-12.6933
▁rams	-12.6934
▁mur	-12.694
▁clos	-12.6956
▁feasting	-12.6956
▁grains	-12.6962
▁moans	-12.6965
▁fanci	-12.6966
▁scots	-12.6969
▁devours	-12.6978
udes	-12.6982
▁caring	-12.6985
▁spins	-12.6992
▁subdue	-12.6995
▁heathen	-12.7
▁cabins	-12.7005
▁garlands	-12.7009
▁hunch	-12.701
▁lunatics	-12.7011
▁morons	-12.7016
mas	-12.7022
▁unlucki	-12.7033
exton	-12.7034
▁unwi	-12.7035
▁spr	-12.7041
located	-12.7045
ks	-12.7046
▁plaintiff	-12.7051
▁watered	-12.7056
▁identi	-12.7056
petition	-12.7064
▁pear	-12.7068
▁pant	-12.7068
▁precede	-12.7086
▁ants	-12.7087
▁gem	-12.7089
▁stu	-12.7093
▁martin	-12.7107
▁slit	-12.7107
▁improves	-12.7108
▁petitions	-12.7114
tinies	-12.712
▁demonstrat	-12.7127
▁qua	-12.7134
itus	-12.7138
▁stack	-12.7142
▁pint	-12.7144
▁chatt	-12.7146
▁molt	-12.715
▁conflicts	-12.7166
▁cove	-12.7166
per	-12.7167
▁unfi	-12.7174
chy	-12.7175
▁pardoned	-12.7175
▁clowns	-12.7176
▁stag	-12.7185
▁hundreds	-12.7186
uses	-12.7186
erate	-12.7206
passionate	-12.7212
▁meek	-12.7216
▁anti	-12.7226
▁sluts	-12.7232
▁personifie	-12.7233
▁mere	-12.7247
▁succeeds	-12.7259
▁accidents	-12.7263
▁adventure	-12.7288
▁pretti	-12.729
▁aches	-12.7291
▁camb	-12.7293
him	-12.7298
▁unmov	-12.73
▁nasti	-12.7311
▁poetical	-12.7336
therland	-12.7346
▁delights	-12.7351
ided	-12.7354
▁circles	-12.7357
▁delivery	-12.7365
know	-12.7368
ou	-12.7375
▁christen	-12.7382
▁signals	-12.7392
▁rebuil	-12.7392
east	-12.7398
poster	-12.7428
▁wring	-12.7432
sk	-12.7461
▁ports	-12.7461
▁ballads	-12.7472
▁slipp	-12.7476
ema	-12.7479
ten	-12.749
▁din	-12.7493
aggle	-12.7494
apped	-12.7497
▁indicati	-12.7507
▁triumphs	-12.751
▁namely	-12.7521
▁ge	-12.7526
▁gna	-12.7531
▁recorde	-12.7532
bbed	-12.7541
▁thre	-12.7541
▁purses	-12.7546
▁wheels	-12.7548
liness	-12.7548
▁dra	-12.7549
▁palaces	-12.7552
▁dion	-12.7553
▁stomachs	-12.7553
▁foes	-12.7559
istic	-12.7565
chatting	-12.7565
▁fle	-12.7579
▁flin	-12.7589
▁dazzle	-12.7591
berated	-12.7599
▁studie	-12.7601
▁speeds	-12.7606
▁accounts	-12.7607
▁herring	-12.7608
erial	-12.7616
sati	-12.762
▁marsh	-12.7621
▁hover	-12.7626
▁proverbs	-12.7629
charged	-12.763
▁apples	-12.7633
▁rebuk	-12.7633
ns	-12.7634
▁gau	-12.7635
piles	-12.7635
▁bellow	-12.7645
▁morals	-12.7656
▁limits	-12.7679
▁unw	-12.7681
▁habits	-12.7696
▁tr	-12.7697
▁carv	-12.7698
read	-12.7704
▁sty	-12.771
▁scolds	-12.7712
▁payments	-12.7712
▁moi	-12.7713
▁lasted	-12.7721
▁cools	-12.7723
lius	-12.7724
▁eel	-12.7726
▁dash	-12.7736
hell	-12.7757
▁row	-12.7757
▁rack	-12.7771
▁egyptians	-12.7785
▁shatter	-12.7797
lic	-12.7802
▁robs	-12.7813
▁consum	-12.7822
lor	-12.7826
alen	-12.7854
grabb	-12.7868
ac	-12.7869
▁shell	-12.7881
tal	-12.7935
▁mornings	-12.7938
unning	-12.7956
mely	-12.7959
▁roads	-12.796
tami	-12.7962
eased	-12.7972
▁reek	-12.7991
▁stretche	-12.7992
tain	-12.8
▁comical	-12.8009
gles	-12.8023
▁shower	-12.8027
elling	-12.8028
▁ax	-12.8034
▁edges	-12.8037
just	-12.8068
there	-12.8068
▁executions	-12.8074
illed	-12.8082
end	-12.8084
▁advises	-12.8085
▁celebrations	-12.8097
aving	-12.81
▁et	-12.8107
self	-12.8109
▁pages	-12.8114
▁overindulge	-12.8132
▁thanes	-12.8134
ained	-12.8152
rhymed	-12.8156
▁funerals	-12.8164
▁dictate	-12.8179
ff	-12.8181
▁perjure	-12.819
▁plod	-12.819
make	-12.8196
rang	-12.8204
▁cit	-12.8206
sel	-12.8209
▁joint	-12.821
try	-12.8215
ented	-12.823
▁harmoni	-12.8247
ently	-12.8249
▁continu	-12.8265
drop	-12.8283
▁gar	-12.8294
them	-12.8301
cking	-12.8315
▁empti	-12.8316
uch	-12.8324
lived	-12.8349
▁doves	-12.836
rates	-12.8394
aded	-12.8405
because	-12.8415
pping	-12.8449
▁slippe	-12.8451
▁shack	-12.8452
crackers	-12.8456
round	-12.8475
hips	-12.8475
got	-12.8483
▁imaginations	-12.8484
ress	-12.849
▁est	-12.8493
sy	-12.8494
▁extremes	-12.8495
ny	-12.8498
▁plots	-12.8506
ave	-12.8518
▁suspects	-12.8521
▁fil	-12.8523
ink	-12.854
need	-12.8555
▁resent	-12.8581
▁span	-12.8583
▁plagues	-12.8626
▁fright	-12.8632
▁gowns	-12.8636
ssy	-12.8658
lums	-12.8663
▁ob	-12.8672
darn	-12.8687
▁panic	-12.8691
▁fashions	-12.8697
eius	-12.8701
▁humm	-12.8716
▁hel	-12.8723
lease	-12.8726
action	-12.8729
▁underestimat	-12.8732
▁paw	-12.8733
▁fore	-12.874
▁conce	-12.875
ured	-12.8751
▁rhe	-12.8768
▁perpetrat	-12.8775
woken	-12.8784
▁quo	-12.8808
should	-12.8819
▁manag	-12.8833
▁mang	-12.884
▁performe	-12.8851
ations	-12.8894
inus	-12.8904
ustling	-12.8919
fe	-12.8926
▁resting	-12.8929
▁sacrific	-12.8945
imming	-12.8973
▁irre	-12.8976
ard	-12.8985
▁unp	-12.8985
wash	-12.899
▁unsee	-12.9013
lap	-12.9015
els	-12.9027
▁jerks	-12.9064
ba	-12.9065
▁bedrooms	-12.9083
liest	-12.9093
never	-12.9112
▁?	-12.9116
▁tables	-12.9136
▁dri	-12.9152
br	-12.9176
▁pri	-12.9191
▁bla	-12.9204
ars	-12.9212
▁drinker	-12.9216
ckle	-12.9218
▁mirrors	-12.9231
▁res	-12.9236
▁fare	-12.9237
▁persuad	-12.9239
▁dem	-12.924
sleep	-12.9242
▁disguis	-12.9251
wait	-12.9259
ena	-12.9262
▁lasting	-12.9264
▁whack	-12.9274
recovering	-12.93
▁ninet	-12.9303
▁griefs	-12.9306
▁hum	-12.931
nding	-12.9312
unk	-12.9371
▁goodbyes	-12.9409
pente	-12.941
▁notices	-12.9411
mmel	-12.9418
mira	-12.9423
▁ding	-12.9432
formed	-12.9438
fer	-12.9453
husband	-12.9458
hip	-12.9489
▁stra	-12.9508
▁sati	-12.9512
bate	-12.9534
ounge	-12.9559
ester	-12.9572
ssa	-12.9572
vy	-12.9584
ear	-12.9587
▁tunes	-12.9593
▁characters	-12.9617
editors	-12.9633
▁chok	-12.9644
still	-12.9655
▁wag	-12.966
ang	-12.9665
▁tests	-12.9678
apt	-12.9684
▁dazzl	-12.9703
horn	-12.9717
▁produc	-12.9734
▁bows	-12.9735
▁natures	-12.9735
ctors	-12.9738
▁adventur	-12.9742
▁moss	-12.9745
▁spl	-12.9754
▁populate	-12.9761
▁seeks	-12.978
▁friendships	-12.9787
▁decre	-12.9793
ership	-12.985
▁rul	-12.9852
▁bras	-12.9859
ern	-12.9871
ungover	-12.9874
attle	-12.9888
▁dedicat	-12.9898
mason	-12.9901
▁spokes	-12.9917
▁und	-12.9924
▁indicat	-12.9943
help	-12.9945
fulness	-12.9948
▁financi	-12.9952
ense	-12.9959
kill	-12.9972
▁escapes	-12.999
▁performs	-12.9996
▁conc	-13.0007
▁conspir	-13.001
ack	-13.001
utus	-13.0046
ren	-13.0049
▁spher	-13.0055
tempting	-13.0061
▁deepe	-13.007
wiped	-13.0076
▁employ	-13.0079
under	-13.0082
▁hallo	-13.0084
▁drip	-13.0093
▁lov	-13.0098
rious	-13.0103
▁cite	-13.0106
▁hip	-13.0115
▁prima	-13.012
hole	-13.0129
gue	-13.0146
after	-13.0152
aming	-13.0155
work	-13.0156
▁parad	-13.0157
▁introduc	-13.0161
ister	-13.0162
hope	-13.0173
llowing	-13.0186
▁shun	-13.0199
rance	-13.02
vented	-13.0202
▁slay	-13.0203
▁unwelcom	-13.021
ustic	-13.0217
honor	-13.0241
recognized	-13.0266
onia	-13.0285
os	-13.03
drew	-13.031
▁celebrat	-13.0314
sister	-13.0315
▁greedi	-13.0319
foot	-13.0337
▁gui	-13.0339
ances	-13.0345
sp	-13.0367
rugged	-13.0393
eating	-13.0393
▁exp	-13.0394
etched	-13.0395
ving	-13.0396
▁whit	-13.0403
many	-13.0413
▁risks	-13.0418
asting	-13.0419
pa	-13.0434
plaintiffs	-13.0445
lay	-13.0468
▁ski	-13.0478
▁misbehav	-13.048
whatever	-13.0484
scribe	-13.0497
len	-13.0502
▁chap	-13.0505
▁fu	-13.0516
married	-13.0529
between	-13.0535
▁luckie	-13.0537
▁improv	-13.055
ncentra	-13.0554
la	-13.057
▁muster	-13.0573
hil	-13.0579
beat	-13.0581
▁withdraw	-13.0581
peace	-13.0587
wit	-13.059
▁mug	-13.059
hin	-13.0592
▁impedi	-13.0597
▁pill	-13.0604
break	-13.0604
change	-13.0605
▁invad	-13.0618
forcing	-13.0621
high	-13.0623
▁noises	-13.0624
hem	-13.0627
▁values	-13.0645
alone	-13.0645
▁compel	-13.0654
fellow	-13.0667
crazy	-13.067
pers	-13.068
ip	-13.068
▁accompani	-13.068
grace	-13.0682
mine	-13.0682
kiss	-13.0685
uncle	-13.0692
▁arche	-13.0698
other	-13.0703
quest	-13.0706
▁aspire	-13.0707
pering	-13.071
ishly	-13.0715
royal	-13.0717
z	-13.072
tified	-13.0726
▁accu	-13.0729
▁nausea	-13.0729
▁depos	-13.0734
forgive	-13.0746
circle	-13.0747
open	-13.0752
tuous	-13.0757
ses	-13.076
top	-13.0764
count	-13.0772
tter	-13.078
ries	-13.0783
▁doe	-13.0787
▁mow	-13.0801
acting	-13.0804
lucentio	-13.0806
fast	-13.0812
respect	-13.0813
chus	-13.0816
saw	-13.0819
hanging	-13.0821
harry	-13.0823
bite	-13.0829
▁salut	-13.0833
lead	-13.0841
bri	-13.0842
martius	-13.0851
captain	-13.0858
ewed	-13.0858
false	-13.0859
hundred	-13.0867
benedick	-13.0868
ordered	-13.0873
short	-13.0873
monster	-13.0873
belli	-13.0874
pig	-13.0875
command	-13.0878
stock	-13.0878
ol	-13.0881
holy	-13.0887
▁compos	-13.0892
whisper	-13.0901
▁theirs	-13.0917
ups	-13.0921
henry	-13.0921
bastard	-13.0924
hood	-13.0929
ings	-13.0931
thwack	-13.0937
proteus	-13.0939
dly	-13.0941
edward	-13.0942
thinking	-13.0948
trying	-13.0952
ility	-13.0955
pyramus	-13.0957
▁circl	-13.096
▁enact	-13.0962
suit	-13.0964
richmond	-13.0964
edged	-13.0966
▁lai	-13.0966
deep	-13.0968
shut	-13.0968
vio	-13.0972
ways	-13.0973
ixed	-13.0977
▁cra	-13.098
truly	-13.0981
▁rela	-13.0981
loving	-13.0982
▁rega	-13.0988
corns	-13.0988
healthy	-13.0989
▁boun	-13.099
olivia	-13.0992
prick	-13.0998
sense	-13.0998
moor	-13.0999
tranio	-13.1002
four	-13.1003
shake	-13.1005
silver	-13.1006
ieving	-13.1006
guarantee	-13.1007
stood	-13.1008
beaten	-13.1014
breaker	-13.1016
mortimer	-13.1019
satisfied	-13.1021
sexual	-13.1024
shape	-13.1027
rebellion	-13.1028
eager	-13.1028
creature	-13.1031
loose	-13.1033
breeding	-13.1034
craft	-13.1035
active	-13.1037
above	-13.104
hammer	-13.1041
competent	-13.1044
caliban	-13.1046
quart	-13.1047
william	-13.1047
accurate	-13.1049
deserving	-13.1049
conspirator	-13.1049
▁births	-13.105
deformed	-13.105
glass	-13.1053
jacket	-13.1054
breaking	-13.1054
attractive	-13.1058
refrain	-13.106
▁involv	-13.106
defense	-13.106
treachery	-13.106
discovered	-13.106
▁debat	-13.1062
rolling	-13.1065
interrupt	-13.1066
opo	-13.1068
pastoral	-13.1069
defendant	-13.1069
▁onion	-13.1069
occupied	-13.1071
examination	-13.1071
▁partial	-13.1071
beast	-13.1072
loudly	-13.1072
bald	-13.1072
puppet	-13.1072
described	-13.1073
borachio	-13.1073
sensitive	-13.1073
damnation	-13.1074
accommodated	-13.1074
knights	-13.1074
delusions	-13.1075
occupy	-13.1076
squire	-13.1076
lessness	-13.1078
burden	-13.108
luce	-13.1081
digestion	-13.1084
mutton	-13.1087
sufficient	-13.1087
enforced	-13.1088
guarded	-13.1088
falsely	-13.109
suitable	-13.1094
opposed	-13.1095
spirited	-13.1096
vile	-13.1097
teasing	-13.1101
split	-13.1101
scale	-13.1101
goose	-13.1104
paying	-13.1107
carnation	-13.1107
▁clip	-13.1109
riding	-13.1109
▁authoriz	-13.1109
text	-13.111
killer	-13.111
nesses	-13.1124
pink	-13.1129
▁petticoat	-13.1134
▁bagpipe	-13.1134
▁cricket	-13.1134
▁tripoli	-13.1134
▁bou	-13.1134
▁rainstorm	-13.1134
▁serpent	-13.1134
consum	-13.1134
▁promotion	-13.1135
truth	-13.1138
▁assistant	-13.1138
▁turkey	-13.1138
▁cou	-13.1139
▁measurement	-13.114
▁kat	-13.1145
▁berri	-13.1146
pitche	-13.1151
▁subordinate	-13.1152
▁thunderbolt	-13.1152
▁declaration	-13.1152
▁speculation	-13.1153
▁nightmare	-13.1154
ju	-13.1154
▁resembl	-13.1154
▁blockhead	-13.1155
▁relation	-13.1157
▁cramp	-13.1157
▁tutor	-13.1158
▁basilisk	-13.116
▁trinket	-13.116
▁snore	-13.1161
▁prospect	-13.1161
bag	-13.1162
▁meadow	-13.1163
▁accomplishment	-13.1164
pid	-13.1166
▁comic	-13.1167
▁muscle	-13.1168
▁achievement	-13.1168
▁volsce	-13.1169
▁stroke	-13.117
▁expectation	-13.117
▁consequence	-13.1171
▁preparation	-13.1172
▁banner	-13.1172
order	-13.1172
ative	-13.1175
▁runaway	-13.1175
opening	-13.1176
▁vine	-13.1178
ix	-13.1178
▁sav	-13.1178
syria	-13.1178
llusion	-13.1179
▁commandment	-13.1179
▁innu	-13.118
▁venu	-13.1181
create	-13.1184
▁depth	-13.1187
▁spice	-13.119
▁crazi	-13.1195
offers	-13.1195
angle	-13.1198
ptions	-13.1199
▁clap	-13.12
tation	-13.12
holly	-13.1204
▁joust	-13.1204
skin	-13.121
match	-13.1212
▁disgrac	-13.1213
▁princip	-13.1215
▁sil	-13.1221
locks	-13.1224
lust	-13.1224
▁mule	-13.1229
▁creditor	-13.123
▁credi	-13.1231
lus	-13.1231
▁trumpeter	-13.1232
heigh	-13.1232
shire	-13.1234
maids	-13.1235
limit	-13.124
▁snip	-13.124
▁creation	-13.1241
fired	-13.1243
▁workman	-13.1243
▁absol	-13.1244
▁faction	-13.1247
ons	-13.1251
▁por	-13.1253
tly	-13.1258
gh	-13.1259
tales	-13.1261
racing	-13.1261
▁decid	-13.1262
▁shred	-13.1263
▁preca	-13.1263
riously	-13.1264
coats	-13.1266
▁stru	-13.1269
▁ignor	-13.1273
▁ambigu	-13.1278
▁criticiz	-13.1281
indicate	-13.1282
ig	-13.1283
▁shilling	-13.1283
▁principle	-13.1287
▁twig	-13.1288
▁nourish	-13.1289
▁chore	-13.1293
pigs	-13.1294
lary	-13.1294
profit	-13.1299
▁commo	-13.13
▁rever	-13.1301
▁supplie	-13.1301
herds	-13.1306
centra	-13.1306
▁manipulate	-13.1312
▁profane	-13.1312
▁adviser	-13.1313
▁buzz	-13.1315
▁defile	-13.1315
▁infinit	-13.1316
▁suicid	-13.1316
▁reconcile	-13.1316
▁excite	-13.1317
▁cripple	-13.1318
▁devote	-13.1319
steps	-13.132
▁enrage	-13.132
▁misuse	-13.1321
▁organiz	-13.1321
▁assassinate	-13.1323
▁enforce	-13.1324
▁promote	-13.1324
stra	-13.1325
▁damag	-13.1326
▁enthusiastic	-13.1326
▁relate	-13.1327
compos	-13.1327
▁educate	-13.1328
block	-13.133
▁satur	-13.1331
▁marc	-13.1331
▁discredit	-13.1331
▁engage	-13.1332
minate	-13.1333
▁accommodat	-13.1333
▁imprison	-13.1333
▁thwart	-13.1333
▁disarm	-13.1333
▁lecher	-13.1334
▁adrian	-13.1336
sequent	-13.1337
lbow	-13.1337
▁corpora	-13.1337
▁impartial	-13.1338
▁alban	-13.1338
flow	-13.1339
lubber	-13.1339
fat	-13.1339
rinkle	-13.1339
▁indirect	-13.134
ppy	-13.134
▁amaze	-13.134
▁devout	-13.134
▁thorough	-13.134
▁eventual	-13.134
▁exc	-13.1341
▁insincere	-13.1341
▁geez	-13.1342
▁fertil	-13.1343
▁curio	-13.1344
ropos	-13.1344
▁enthusias	-13.1344
▁regime	-13.1345
▁marvel	-13.1345
▁speculat	-13.1345
▁hallucinat	-13.1345
▁discipl	-13.1345
vocation	-13.1345
▁je	-13.1345
▁babe	-13.1346
invigorat	-13.1346
stanza	-13.1346
▁pockmark	-13.1346
▁reminisc	-13.1346
▁sulfur	-13.1346
hazard	-13.1346
▁amurath	-13.1346
▁contemporar	-13.1346
▁culprit	-13.1346
▁explosive	-13.1346
▁gratify	-13.1346
▁gruesome	-13.1346
▁halfpenny	-13.1346
▁homicid	-13.1346
▁relinquish	-13.1346
▁skirmish	-13.1346
▁spectacular	-13.1346
▁squirrel	-13.1346
▁submissive	-13.1346
▁tantrum	-13.1346
▁thunderclap	-13.1346
hampton	-13.1346
▁achilles	-13.1346
▁acquaintance	-13.1346
▁activity	-13.1346
▁adversaries	-13.1346
▁afloat	-13.1346
▁aggression	-13.1346
▁aguecheek	-13.1346
▁ajax	-13.1346
▁algiers	-13.1346
▁alphabet	-13.1346
▁aphrodisiac	-13.1346
▁apparition	-13.1346
▁apricots	-13.1346
▁arthriti	-13.1346
▁artifice	-13.1346
▁artillery	-13.1346
▁battalion	-13.1346
▁besieged	-13.1346
▁bloodbath	-13.1346
▁bordeaux	-13.1346
▁bouciqualt	-13.1346
▁bumblebee	-13.1346
▁campaign	-13.1346
▁cataracts	-13.1346
▁champion	-13.1346
▁condescend	-13.1346
▁conspiracies	-13.1346
▁constituents	-13.1346
▁correspond	-13.1346
▁cotswold	-13.1346
▁countercheck	-13.1346
▁crucifixion	-13.1346
▁curiosity	-13.1346
▁dawdle	-13.1346
▁debauchery	-13.1346
▁dejected	-13.1346
▁dejectitude	-13.1346
▁delicacies	-13.1346
▁delicious	-13.1346
▁delinquent	-13.1346
▁depleted	-13.1346
▁detriment	-13.1346
▁dialogue	-13.1346
▁disarray	-13.1346
▁discontented	-13.1346
▁disparage	-13.1346
▁distraught	-13.1346
▁domitius	-13.1346
▁dumbfounded	-13.1346
▁emblem	-13.1346
▁energize	-13.1346
▁engulf	-13.1346
▁entombed	-13.1346
▁entrails	-13.1346
▁envelope	-13.1346
▁fabulous	-13.1346
▁fanfare	-13.1346
▁fauconberg	-13.1346
▁feisty	-13.1346
▁ferocity	-13.1346
▁flibbertigibbet	-13.1346
▁frenzy	-13.1346
▁frigid	-13.1346
▁gawsey	-13.1346
▁ghastly	-13.1346
▁griffin	-13.1346
▁hedgehog	-13.1346
▁hilarious	-13.1346
▁hisperia	-13.1346
▁historians	-13.1346
▁horoscope	-13.1346
▁hypocrisy	-13.1346
▁hypocritical	-13.1346
▁hypothetical	-13.1346
▁idiocy	-13.1346
▁illuminat	-13.1346
▁impertinent	-13.1346
▁incestuous	-13.1346
▁inconstant	-13.1346
▁infatuation	-13.1346
▁initiative	-13.1346
▁insurance	-13.1346
▁insurrection	-13.1346
▁intellect	-13.1346
▁interjections	-13.1346
▁intimacy	-13.1346
▁january	-13.1346
▁jargon	-13.1346
▁jaundice	-13.1346
▁jeopardize	-13.1346
▁knucklehead	-13.1346
▁leonardo	-13.1346
▁lestrale	-13.1346
▁lucrece	-13.1346
▁lunacy	-13.1346
▁lydia	-13.1346
▁magistrates	-13.1346
▁majesties	-13.1346
▁malcontents	-13.1346
▁marigold	-13.1346
▁misshapen	-13.1346
▁monstrosit	-13.1346
▁necessity	-13.1346
▁nectar	-13.1346
▁negative	-13.1346
▁nicanor	-13.1346
▁noggin	-13.1346
▁nostrils	-13.1346
▁nutritious	-13.1346
▁oatmeal	-13.1346
▁occult	-13.1346
▁pacorus	-13.1346
▁paranoid	-13.1346
▁parcel	-13.1346
▁peapod	-13.1346
▁perceptive	-13.1346
▁persuasive	-13.1346
▁philostrate	-13.1346
▁phoenicia	-13.1346
▁platitude	-13.1346
▁plentiful	-13.1346
▁pomegranate	-13.1346
▁popperin	-13.1346
▁pulpit	-13.1346
▁ralph	-13.1346
▁rambures	-13.1346
▁rapier	-13.1346
▁reconciliation	-13.1346
▁reproduction	-13.1346
▁reservation	-13.1346
▁sailboat	-13.1346
▁salarino	-13.1346
▁scaffold	-13.1346
▁september	-13.1346
▁serenade	-13.1346
▁soothsayer	-13.1346
▁sophisticat	-13.1346
▁sorcerer	-13.1346
▁sorceress	-13.1346
▁spaniard	-13.1346
▁specify	-13.1346
▁spiderweb	-13.1346
▁splinter	-13.1346
▁squadrons	-13.1346
▁stereotyp	-13.1346
▁streetwalker	-13.1346
▁substantial	-13.1346
▁succumb	-13.1346
▁supremacy	-13.1346
▁talbot	-13.1346
▁technical	-13.1346
▁thrifty	-13.1346
▁tornadoes	-13.1346
▁tournament	-13.1346
▁transgression	-13.1346
▁trespass	-13.1346
▁turmoil	-13.1346
▁unconscious	-13.1346
▁unnoticed	-13.1346
▁unrivaled	-13.1346
▁unsteady	-13.1346
▁upstairs	-13.1346
▁vanguard	-13.1346
▁vapor	-13.1346
▁vaudemont	-13.1346
▁voltemand	-13.1346
▁windpipe	-13.1346
▁xanthippe	-13.1346
▁bronze	-13.1346
▁censor	-13.1346
▁impetuous	-13.1346
▁israel	-13.1346
▁powder	-13.1346
▁threshold	-13.1346
▁welfare	-13.1346
▁wheezing	-13.1346
sympathetic	-13.1346
▁accumulate	-13.1346
▁cedars	-13.1346
▁cranky	-13.1346
▁crucified	-13.1346
▁delegat	-13.1346
▁dorothy	-13.1346
▁essential	-13.1346
▁flabby	-13.1346
▁flirtatious	-13.1346
▁heartstrings	-13.1346
▁lenient	-13.1346
▁masculin	-13.1346
▁mercenar	-13.1346
▁oversexed	-13.1346
▁participa	-13.1346
▁savior	-13.1346
▁silverware	-13.1346
nanimous	-13.1346
▁chirp	-13.1346
▁distasteful	-13.1346
▁dorcas	-13.1346
▁dwarf	-13.1346
▁enmity	-13.1346
▁experiment	-13.1346
▁lamond	-13.1346
▁midsummer	-13.1346
▁otherworldly	-13.1346
▁plummet	-13.1346
▁quintus	-13.1346
▁reinforced	-13.1346
▁sibyl	-13.1346
▁audacity	-13.1346
▁sorrier	-13.1346
▁crabbiness	-13.1346
▁destinies	-13.1346
▁folktale	-13.1346
▁intercourse	-13.1346
▁renais	-13.1346
▁breastfeed	-13.1346
▁chorus	-13.1346
▁controvers	-13.1346
▁decorum	-13.1346
▁hebrew	-13.1346
▁hooray	-13.1346
▁potpan	-13.1346
▁smudge	-13.1346
▁spellbound	-13.1346
▁titius	-13.1346
▁uproar	-13.1346
abiding	-13.1346
▁intervene	-13.1346
▁articles	-13.1346
▁cumberland	-13.1346
▁ferocious	-13.1346
▁intermission	-13.1346
▁leggings	-13.1346
▁paralysis	-13.1346
▁passado	-13.1346
▁phony	-13.1346
▁pleasurable	-13.1346
▁sandbar	-13.1346
▁bombs	-13.1346
▁irration	-13.1346
▁punctuation	-13.1346
▁captivated	-13.1346
▁clogged	-13.1346
▁deference	-13.1346
▁frostbite	-13.1346
▁straddle	-13.1346
▁tinker	-13.1346
▁embedded	-13.1346
▁inhabitants	-13.1346
▁miscarriage	-13.1346
▁agenda	-13.1346
▁competitive	-13.1346
▁context	-13.1346
▁district	-13.1346
▁drudge	-13.1346
▁hyper	-13.1346
▁imperfections	-13.1346
▁whatsoever	-13.1346
▁catalog	-13.1346
▁clamor	-13.1346
▁revolves	-13.1346
▁ethic	-13.1346
▁zeal	-13.1346
▁dummy	-13.1346
▁ivory	-13.1346
▁babylon	-13.1346
▁overconfidence	-13.1346
▁thimble	-13.1346
▁bridgenorth	-13.1346
▁expired	-13.1346
▁occurrence	-13.1346
▁milkmaid	-13.1346
▁conviction	-13.1346
▁enforcing	-13.1346
▁corset	-13.1346
▁sanction	-13.1346
▁woodcock	-13.1346
▁bolster	-13.1346
▁jawbone	-13.1346
▁pillage	-13.1346
▁materialize	-13.1346
▁productions	-13.1346
▁battery	-13.1346
▁thunderstorm	-13.1346
suade	-13.1346
▁scramble	-13.1346
▁gulp	-13.1346
▁heaviness	-13.1346
▁imperfect	-13.1346
▁lamentations	-13.1346
▁shearers	-13.1346
▁swindlers	-13.1346
▁tapster	-13.1346
▁unhappily	-13.1346
▁crabapple	-13.1346
▁calloused	-13.1346
▁supervis	-13.1346
▁wrongdoer	-13.1346
▁bodyguards	-13.1346
▁abbot	-13.1346
▁location	-13.1346
▁midwife	-13.1346
▁digress	-13.1346
▁complement	-13.1346
▁glowworm	-13.1346
▁studious	-13.1346
▁dislocated	-13.1346
▁genius	-13.1346
▁insightfully	-13.1346
▁hordes	-13.1346
▁employment	-13.1346
ndarus	-13.1346
▁apprenticeship	-13.1346
▁expound	-13.1346
▁subside	-13.1346
▁curtsie	-13.1346
▁initial	-13.1346
▁kitten	-13.1346
▁ugliness	-13.1346
▁cowardliness	-13.1346
▁crumbling	-13.1346
▁harlot	-13.1346
▁default	-13.1346
▁effortlessly	-13.1346
▁cluster	-13.1346
▁keyhole	-13.1346
▁althea	-13.1346
▁counselors	-13.1346
▁crossbow	-13.1346
▁illustrat	-13.1346
▁admission	-13.1346
▁hemlock	-13.1346
▁asinine	-13.1346
▁dispense	-13.1346
▁holster	-13.1346
▁objections	-13.1346
▁offshoot	-13.1346
▁pepin	-13.1346
▁belgi	-13.1346
▁validity	-13.1346
▁parentage	-13.1346
▁negligence	-13.1346
▁skeptic	-13.1347
stitution	-13.1347
▁handyman	-13.1347
▁hungary	-13.1347
▁prophetic	-13.1347
▁yorick	-13.1347
▁toryne	-13.1347
▁yawn	-13.1347
▁impersonat	-13.1347
▁scalp	-13.1347
▁yorkists	-13.1347
▁eggshell	-13.1347
▁ostrich	-13.1347
▁seashore	-13.1347
▁dilute	-13.1347
▁thickheaded	-13.1347
▁sperm	-13.1347
▁prophetess	-13.1347
cident	-13.1347
▁farmland	-13.1347
▁baptism	-13.1347
▁stylish	-13.1347
▁herdsmen	-13.1347
▁chaotic	-13.1347
▁fiddlestick	-13.1347
▁undergarment	-13.1347
▁unpredictable	-13.1347
▁italic	-13.1347
▁lava	-13.1347
▁mahu	-13.1347
▁hesione	-13.1347
▁misplaced	-13.1347
▁glares	-13.1347
▁dobbin	-13.1347
▁vibra	-13.1347
▁discard	-13.1347
▁plunder	-13.1347
▁erection	-13.1347
▁trustworthiness	-13.1347
▁flagship	-13.1347
▁quicksilver	-13.1347
▁valorous	-13.1347
▁midget	-13.1347
▁riddance	-13.1347
▁stallion	-13.1347
▁drummer	-13.1347
▁bandits	-13.1347
▁pinhead	-13.1347
▁admiral	-13.1347
▁disband	-13.1347
▁unison	-13.1347
november	-13.1347
▁imaginable	-13.1347
▁vul	-13.1347
▁schoolwork	-13.1347
▁uneasily	-13.1347
▁regroup	-13.1347
▁tingling	-13.1347
▁squint	-13.1347
▁commonwealth	-13.1347
▁bodice	-13.1347
excommunication	-13.1347
▁transport	-13.1347
▁rumble	-13.1348
▁sprout	-13.1348
▁yolk	-13.1348
▁harelip	-13.1348
▁ungracious	-13.1348
▁remorseful	-13.1348
▁lurch	-13.1348
▁inflate	-13.1348
▁professor	-13.1348
▁reconsider	-13.1348
▁sisterhood	-13.1348
▁headdress	-13.1348
▁streak	-13.1348
▁inflammat	-13.1348
▁glint	-13.1348
▁citizenship	-13.1348
▁cotus	-13.1348
▁lapses	-13.1348
▁jig	-13.1348
▁signature	-13.1348
▁agile	-13.1348
▁earnestly	-13.1348
hopper	-13.1348
▁luxurious	-13.1348
▁vividly	-13.1348
▁lamp	-13.1348
▁basement	-13.1348
▁watchdogs	-13.1348
▁spotlight	-13.1348
▁sensation	-13.1349
▁muddled	-13.1349
▁communicate	-13.1349
▁dissent	-13.1349
▁hazy	-13.1349
▁rouen	-13.1349
▁unburied	-13.1349
▁grammar	-13.1349
▁peniten	-13.1349
▁dovehouse	-13.1349
▁recklessness	-13.1349
▁distinct	-13.1349
▁soulmate	-13.1349
▁broiled	-13.1349
▁prankster	-13.1349
▁friendliness	-13.1349
▁cobbler	-13.1349
▁unworthiness	-13.1349
▁teenager	-13.1349
▁gondola	-13.1349
▁intrud	-13.1349
▁gentlewomen	-13.1349
▁hacket	-13.135
▁eng	-13.135
▁highwaymen	-13.135
▁consciousness	-13.135
▁thrash	-13.135
▁outdoors	-13.135
▁matchmaker	-13.135
▁exertion	-13.135
▁restricted	-13.135
▁courtesan	-13.135
▁unsatisfied	-13.135
▁guesswork	-13.135
terminated	-13.135
▁respectability	-13.135
▁hesitant	-13.135
▁knifepoint	-13.135
▁bleated	-13.135
▁frankness	-13.135
▁gash	-13.135
▁apologizing	-13.135
▁lethargy	-13.1351
▁immorality	-13.1351
▁earliest	-13.1351
stocks	-13.1351
▁contentment	-13.1351
▁livestock	-13.1351
▁trickier	-13.1351
▁endorse	-13.1351
▁relic	-13.1351
▁fumbling	-13.1351
▁laban	-13.1351
▁interrogated	-13.1351
▁tombstone	-13.1351
▁popularity	-13.1351
▁comedian	-13.1351
umul	-13.1351
▁blather	-13.1351
▁lewd	-13.1351
▁heartbroken	-13.1351
▁invention	-13.1351
▁absorbed	-13.1351
ridge	-13.1352
▁bedridden	-13.1352
▁mortality	-13.1352
▁thievery	-13.1352
rheum	-13.1352
▁solicit	-13.1352
▁furthe	-13.1352
▁womanhood	-13.1352
▁devoutly	-13.1352
▁drugged	-13.1352
itude	-13.1352
▁simpleton	-13.1352
odious	-13.1353
prop	-13.1353
▁professed	-13.1353
▁deserters	-13.1353
▁insincerely	-13.1353
▁sleepwalking	-13.1353
▁inexperience	-13.1353
▁handshake	-13.1353
▁munch	-13.1353
▁belman	-13.1353
▁wavering	-13.1353
▁flirtation	-13.1353
▁truthfulness	-13.1353
▁lepro	-13.1354
▁turf	-13.1354
▁stocking	-13.1354
ppo	-13.1354
▁battl	-13.1354
▁swoop	-13.1354
▁commerce	-13.1354
▁mountaintop	-13.1354
▁altogether	-13.1355
▁exemp	-13.1355
▁deafness	-13.1355
▁dissect	-13.1355
vant	-13.1355
▁proce	-13.1355
▁underground	-13.1355
▁crap	-13.1356
▁impartially	-13.1356
▁satiriz	-13.1356
smith	-13.1356
▁cancer	-13.1356
▁undergone	-13.1356
▁succession	-13.1356
▁falsetto	-13.1356
▁devastating	-13.1356
▁tangle	-13.1357
eville	-13.1357
▁confer	-13.1357
▁planks	-13.1357
▁promptly	-13.1357
▁ancho	-13.1357
▁copied	-13.1357
▁landlady	-13.1357
▁perpetually	-13.1358
▁straightaway	-13.1358
▁exceptions	-13.1358
▁doncaster	-13.1358
▁dela	-13.1358
▁indoors	-13.1358
▁regardless	-13.1358
▁fickleness	-13.1358
▁fellowship	-13.1358
▁shapeless	-13.1359
▁praiseworthy	-13.1359
▁thrashed	-13.1359
▁taxes	-13.1359
▁ogre	-13.1359
▁weaponry	-13.1359
▁underwear	-13.1359
▁antics	-13.1359
▁twentie	-13.1359
▁unfurl	-13.136
▁rosebud	-13.136
excusable	-13.136
▁accidental	-13.136
arius	-13.136
▁testicle	-13.1361
▁sardinia	-13.1361
livered	-13.1361
▁suppressed	-13.1361
vity	-13.1361
▁improvement	-13.1361
deceptive	-13.1361
gora	-13.1362
▁scour	-13.1362
▁brandy	-13.1362
▁brew	-13.1362
▁moderately	-13.1362
▁update	-13.1362
▁aggressively	-13.1362
▁improperly	-13.1362
▁chick	-13.1363
▁excessively	-13.1363
▁mutually	-13.1363
▁manliness	-13.1363
▁administer	-13.1363
▁fiddler	-13.1363
▁install	-13.1363
dies	-13.1363
▁plowing	-13.1363
▁assert	-13.1363
▁creator	-13.1363
▁trail	-13.1364
▁consummated	-13.1364
▁combatant	-13.1364
▁alps	-13.1365
▁oaf	-13.1366
enthusiastically	-13.1366
▁colme	-13.1366
▁forceful	-13.1367
▁unjustly	-13.1367
▁vaguely	-13.1367
▁husk	-13.1367
▁colorless	-13.1367
alog	-13.1369
▁trimming	-13.1369
▁halves	-13.1369
ammer	-13.1369
▁preaches	-13.137
▁maze	-13.137
▁beaumont	-13.1371
▁escaping	-13.1371
▁lor	-13.1371
▁tags	-13.1371
▁meddling	-13.1372
toned	-13.1372
▁excitedly	-13.1372
▁gallantly	-13.1372
▁unexpectedly	-13.1372
▁reluctantly	-13.1372
▁roughness	-13.1372
dures	-13.1373
▁nourishing	-13.1374
▁valet	-13.1374
▁masterpiece	-13.1375
▁bottomless	-13.1375
▁flaunt	-13.1376
▁ruff	-13.1376
▁rays	-13.1376
▁buzzing	-13.1376
▁sleepiness	-13.1376
▁overdressed	-13.1376
▁institute	-13.1377
▁starry	-13.1377
▁deity	-13.1377
▁increasing	-13.1377
archy	-13.1377
▁gambler	-13.1378
▁horseback	-13.1379
▁profaned	-13.1379
▁manipulated	-13.1379
▁loyalist	-13.138
▁settlement	-13.138
▁defiled	-13.138
▁payback	-13.138
▁refilled	-13.138
▁bloodletting	-13.138
▁knel	-13.138
ching	-13.138
▁overboard	-13.1381
▁manual	-13.1381
▁sieve	-13.1381
▁unrest	-13.1381
▁anxiously	-13.1382
▁nightfall	-13.1382
▁baton	-13.1382
▁freshness	-13.1383
▁vainly	-13.1383
▁shrieked	-13.1383
▁disowned	-13.1383
▁trickster	-13.1384
chment	-13.1384
▁homeland	-13.1384
▁swine	-13.1384
▁overhang	-13.1384
▁songbird	-13.1386
▁delicately	-13.1386
▁tempter	-13.1387
▁brewer	-13.1387
ual	-13.1388
▁mandra	-13.1388
▁poo	-13.1388
▁observer	-13.1389
▁gallon	-13.1389
▁unseen	-13.1389
▁glue	-13.139
▁dampen	-13.139
▁frosty	-13.139
▁joyless	-13.139
▁subservient	-13.139
▁inconvenient	-13.139
▁impatiently	-13.1391
▁moder	-13.1391
▁twang	-13.1391
ceptions	-13.1392
havoc	-13.1393
▁flawed	-13.1395
▁offence	-13.1395
▁squabbling	-13.1395
▁endangered	-13.1396
wdy	-13.1396
▁neighed	-13.1396
cist	-13.1396
▁trite	-13.1398
▁browner	-13.1398
▁shrill	-13.1398
▁burrs	-13.14
▁churchman	-13.14
▁slack	-13.14
▁attraction	-13.14
▁mightily	-13.1401
▁aragon	-13.1401
▁slurs	-13.1402
▁brood	-13.1402
igue	-13.1403
▁constraint	-13.1403
▁inspect	-13.1403
▁exiting	-13.1403
vies	-13.1404
▁volume	-13.1404
▁unleashed	-13.1404
nox	-13.1406
▁firsthand	-13.1408
▁justifi	-13.1408
▁unfold	-13.1409
▁incarnate	-13.1409
mander	-13.141
▁fenced	-13.141
▁combined	-13.1411
consistent	-13.1411
▁spoon	-13.1411
▁astrologer	-13.1412
ledge	-13.1412
▁shortness	-13.1413
▁yearning	-13.1413
▁ambiguous	-13.1414
▁reflected	-13.1415
new	-13.1416
▁funnie	-13.1416
▁meddler	-13.1416
▁disrespected	-13.1417
xim	-13.1417
▁scout	-13.1418
▁jingl	-13.1418
▁vapi	-13.1419
nkard	-13.1419
▁hangers	-13.142
▁divorced	-13.1422
▁calmness	-13.1423
▁insects	-13.1423
▁sift	-13.1423
▁beginners	-13.1423
▁furrows	-13.1424
▁caskets	-13.1425
▁fluids	-13.1425
▁saxons	-13.1425
▁icicles	-13.1425
▁minstrels	-13.1425
▁primroses	-13.1426
shrine	-13.1426
▁surpasse	-13.1427
▁pimples	-13.1427
▁collected	-13.1429
▁daydream	-13.143
▁agreeable	-13.1431
▁commitment	-13.1432
▁weakening	-13.1434
▁translated	-13.1434
▁goodfellow	-13.1435
▁lightness	-13.1437
▁reversed	-13.1437
▁ele	-13.1438
▁goths	-13.1438
▁louse	-13.1442
▁director	-13.1442
▁successes	-13.1442
▁readers	-13.1442
▁slanderers	-13.1443
▁elope	-13.1443
▁bored	-13.1443
▁markings	-13.1444
▁jar	-13.1444
▁stead	-13.1445
wardly	-13.1446
raine	-13.1448
▁decayed	-13.1448
▁landlord	-13.1448
peak	-13.1449
▁metaphorical	-13.1449
nation	-13.145
▁connect	-13.1451
▁cuff	-13.1452
intentionally	-13.1453
▁modo	-13.1453
▁withdrawn	-13.1453
▁comments	-13.1454
▁outlaws	-13.1454
▁flinch	-13.1455
▁heartbeats	-13.1457
▁misses	-13.1458
▁bolder	-13.146
▁repopulate	-13.146
nosing	-13.146
▁investments	-13.1461
▁beforehand	-13.1463
▁conspirator	-13.1464
cythe	-13.1464
▁pinn	-13.1465
▁hermit	-13.1465
risky	-13.1465
▁etc	-13.1466
▁sporting	-13.1467
▁nunnery	-13.1467
▁expand	-13.1467
▁iniquity	-13.1468
▁accessible	-13.1468
▁furniture	-13.1469
▁sarcastically	-13.1469
▁catastrophe	-13.1469
▁blushed	-13.1471
▁riders	-13.1471
tocks	-13.1472
antic	-13.1473
enia	-13.1473
▁tarnished	-13.1473
▁collapsed	-13.1475
collection	-13.1475
▁beautified	-13.1477
▁frets	-13.1477
▁shak	-13.1478
▁resides	-13.1478
▁mingo	-13.148
▁endear	-13.1481
▁abdicat	-13.1482
▁baker	-13.1482
▁monstrously	-13.1483
▁inqui	-13.1483
arch	-13.1484
idleness	-13.1484
hero	-13.1485
▁mope	-13.1486
erica	-13.1486
embellished	-13.1486
▁imitated	-13.1487
▁observed	-13.1488
ab	-13.1488
▁cornered	-13.1489
▁menton	-13.1489
distributed	-13.1491
▁sobs	-13.1494
▁painfully	-13.1494
▁slain	-13.1495
diator	-13.1495
▁realistic	-13.1496
▁sash	-13.1498
▁patches	-13.1498
▁blam	-13.15
▁wires	-13.1501
▁miserabl	-13.1501
▁devotedly	-13.1502
uzzle	-13.1502
▁attempting	-13.1503
heath	-13.1504
▁silky	-13.1506
▁obst	-13.1509
▁pounce	-13.1511
▁coughs	-13.1512
▁disapprove	-13.1513
▁chores	-13.1514
▁foxes	-13.1514
▁blanc	-13.1516
▁cleverly	-13.1516
▁awoken	-13.1519
▁steely	-13.1519
▁disciplined	-13.1528
▁tattle	-13.1528
▁lender	-13.1529
wn	-13.1532
▁bubbl	-13.1532
▁unity	-13.1532
trance	-13.1533
▁heap	-13.1533
▁pont	-13.1534
▁frustrat	-13.1534
▁roughly	-13.1535
braiding	-13.1535
eign	-13.1535
▁unclear	-13.1535
▁dispos	-13.1536
▁cord	-13.1538
▁snores	-13.1539
▁ipse	-13.154
▁searched	-13.154
▁repented	-13.1541
▁suspende	-13.1547
▁organized	-13.155
▁amused	-13.1554
▁assistants	-13.1558
▁creations	-13.1559
▁pish	-13.1559
▁promotions	-13.1561
▁runaways	-13.1561
▁turkeys	-13.1561
▁serpents	-13.1561
▁tripolis	-13.1561
▁crickets	-13.1562
▁grappl	-13.1562
▁bagpipes	-13.1562
▁rainstorms	-13.1562
▁petticoats	-13.1562
▁gris	-13.1562
▁measurements	-13.1563
▁exaggerated	-13.1563
▁colo	-13.1564
▁advisers	-13.1564
▁rite	-13.1564
looks	-13.1566
alas	-13.1567
even	-13.1569
▁manmade	-13.157
▁fishes	-13.1571
▁danes	-13.1575
▁succeeding	-13.1576
dering	-13.1577
▁shipment	-13.1582
▁petitioner	-13.1583
ogan	-13.1584
▁remarkabl	-13.1585
▁bully	-13.1588
▁schemer	-13.1589
▁carnation	-13.1592
▁ec	-13.1596
fianc	-13.1597
▁helpless	-13.1603
▁condi	-13.1605
sticks	-13.1605
▁cruci	-13.1606
▁wilder	-13.1606
▁incurr	-13.1611
▁exaggerat	-13.1612
▁smartly	-13.1615
▁basin	-13.162
▁blacker	-13.1621
▁lett	-13.1622
▁repeated	-13.1625
strengthened	-13.1629
▁tur	-13.1629
▁drone	-13.163
mally	-13.1631
rks	-13.1631
▁quilt	-13.1631
▁stout	-13.1633
▁quest	-13.1634
▁aene	-13.1636
▁plucking	-13.1637
▁dumps	-13.1639
▁import	-13.164
▁hose	-13.1642
ola	-13.1644
▁accurate	-13.1645
▁beautifie	-13.1645
▁listeners	-13.1646
▁comeback	-13.1647
▁thiev	-13.165
▁diver	-13.165
▁bran	-13.1652
▁statu	-13.1659
▁competent	-13.1662
▁roy	-13.1662
▁obli	-13.1665
▁preserved	-13.1666
▁ewe	-13.1666
▁op	-13.1671
▁ionia	-13.1674
▁jerkin	-13.1674
▁basing	-13.1676
▁quart	-13.168
▁abus	-13.168
inate	-13.1682
▁knowingly	-13.1683
▁preci	-13.1686
▁fi	-13.1686
label	-13.1688
▁denis	-13.1689
▁leaden	-13.1689
▁archers	-13.1693
fleur	-13.1695
▁unsuspect	-13.1697
▁provinces	-13.1698
iff	-13.1698
▁methods	-13.17
▁wrongdoings	-13.1701
▁mongrels	-13.1701
▁cannibals	-13.1702
ist	-13.1704
▁button	-13.1704
▁brim	-13.171
sa	-13.1715
▁kindest	-13.1718
▁contin	-13.1722
▁walkway	-13.1723
▁liberate	-13.1725
▁clappe	-13.1727
▁ideal	-13.173
▁buoy	-13.1731
▁firing	-13.1735
ower	-13.1738
▁treading	-13.1739
▁patients	-13.1739
▁blunted	-13.1741
cial	-13.1741
▁oration	-13.1742
▁debas	-13.1744
▁stretches	-13.1746
▁remarry	-13.1749
trim	-13.175
▁needles	-13.1751
▁unf	-13.1754
▁bottled	-13.1755
▁weakens	-13.1755
▁transferr	-13.1755
▁huh	-13.1757
nize	-13.1758
▁render	-13.176
olished	-13.176
▁fable	-13.176
▁dangerously	-13.1761
enacted	-13.1763
▁floats	-13.1763
▁exits	-13.177
▁unsettl	-13.177
▁tormente	-13.1774
▁thwack	-13.1774
aped	-13.1775
onomy	-13.1775
urus	-13.1775
▁clas	-13.1778
▁tights	-13.1778
▁contra	-13.1782
▁forester	-13.1783
▁anyhow	-13.1785
tru	-13.1786
▁pew	-13.1787
airy	-13.1787
▁shal	-13.1789
▁bur	-13.1792
▁repentan	-13.1803
▁unthankful	-13.1804
eless	-13.181
▁mills	-13.1812
▁slav	-13.1812
▁scorning	-13.1813
▁dully	-13.1815
wo	-13.1816
ord	-13.1818
▁yard	-13.1819
▁amber	-13.1824
sisted	-13.1827
stery	-13.1834
▁anchors	-13.1837
obsessed	-13.1839
▁zeros	-13.184
rova	-13.1841
▁operations	-13.1841
▁spectacles	-13.1842
▁uprisings	-13.1842
▁proportions	-13.1842
▁earthquakes	-13.1842
▁breeding	-13.1842
▁lawsuits	-13.1842
▁gravestones	-13.1843
▁mermaids	-13.1843
▁leftovers	-13.1844
▁sticky	-13.1845
▁paph	-13.185
onizing	-13.1854
▁nuts	-13.186
uritani	-13.1862
▁discussing	-13.1868
▁deceits	-13.1872
bruised	-13.1881
eels	-13.1882
nts	-13.1885
adel	-13.1889
▁cicel	-13.189
▁begone	-13.1898
aggering	-13.1901
▁quieter	-13.1902
▁thrives	-13.191
ragon	-13.1911
▁happie	-13.1916
▁feeding	-13.1916
pan	-13.1917
▁cease	-13.1921
▁dais	-13.1922
coat	-13.1925
rehearse	-13.1926
affo	-13.1928
▁hol	-13.1929
▁trou	-13.1932
acclaim	-13.1935
bery	-13.1935
▁grumbl	-13.1939
▁intensi	-13.1939
▁accessor	-13.1944
harden	-13.1952
▁mace	-13.1952
▁colla	-13.1955
▁exa	-13.1955
▁fingering	-13.1959
▁trans	-13.1963
▁flashe	-13.1969
▁lake	-13.198
ishing	-13.1982
▁festivals	-13.1982
▁criticisms	-13.1983
spero	-13.1984
▁rung	-13.1985
▁foundations	-13.1987
wall	-13.1991
bbling	-13.1991
ga	-13.1994
▁tricky	-13.1994
critical	-13.1995
▁germans	-13.1996
▁visits	-13.2001
ealthy	-13.2007
▁doom	-13.2008
▁peas	-13.2011
▁beck	-13.2012
▁untangle	-13.2021
hire	-13.2024
▁anna	-13.2025
▁pier	-13.2027
▁recline	-13.2027
▁stabb	-13.2034
mis	-13.2034
▁spook	-13.2039
▁perch	-13.204
▁dancer	-13.2044
licker	-13.2045
▁pimping	-13.2047
ody	-13.2052
▁copie	-13.2055
boned	-13.2061
▁forc	-13.2079
ounce	-13.2079
▁killers	-13.2081
▁impressions	-13.2091
▁sparkl	-13.2092
▁conj	-13.2101
unction	-13.2104
▁gra	-13.2105
▁whi	-13.2105
▁riddles	-13.2106
▁shifts	-13.2106
meditate	-13.2107
load	-13.2111
▁unwis	-13.2111
rush	-13.2112
▁pup	-13.2113
▁shir	-13.2116
stoke	-13.2118
▁goblets	-13.212
▁surgeons	-13.2122
▁newborns	-13.2122
bre	-13.2123
▁desserts	-13.2123
cile	-13.2124
▁scribe	-13.2125
▁temptations	-13.2125
▁radi	-13.213
nipping	-13.213
▁adults	-13.2132
▁collapses	-13.2135
▁deposi	-13.2139
nder	-13.2142
▁overw	-13.2148
▁coals	-13.2152
▁hairstyl	-13.2154
itation	-13.2158
stress	-13.2159
▁spurn	-13.2161
advert	-13.2162
▁orator	-13.2166
ittle	-13.2167
▁temp	-13.217
endo	-13.2183
part	-13.2188
▁steed	-13.219
▁bucks	-13.2196
days	-13.22
▁rang	-13.2203
▁breaker	-13.2211
▁lung	-13.2215
▁drying	-13.2216
▁sham	-13.2217
▁yells	-13.2218
worthiness	-13.2221
keepers	-13.2224
▁defects	-13.2227
▁bod	-13.2228
▁zi	-13.2238
▁ravens	-13.2238
assign	-13.2239
▁loo	-13.225
tops	-13.2253
▁players	-13.2254
▁inco	-13.2255
ump	-13.2257
▁grou	-13.2258
▁commentar	-13.2259
▁brooks	-13.2259
▁dragons	-13.2261
▁bubbles	-13.2264
▁dates	-13.2271
imate	-13.2271
▁impro	-13.2271
dity	-13.2289
united	-13.2299
advancing	-13.23
itive	-13.2302
▁associates	-13.2304
▁depriv	-13.2307
▁clownish	-13.231
▁mated	-13.2327
sun	-13.2329
▁shins	-13.2332
▁sm	-13.2333
noble	-13.2333
eph	-13.2333
dignity	-13.2337
▁rants	-13.234
▁behead	-13.2344
▁belts	-13.2348
▁tub	-13.2349
▁originate	-13.2349
▁rods	-13.2352
▁blith	-13.2357
▁igni	-13.2362
▁score	-13.2371
arity	-13.2373
reeds	-13.2374
▁factor	-13.2375
▁finer	-13.2377
▁memorial	-13.2378
▁lessen	-13.2378
solely	-13.2389
own	-13.2393
▁dishonorabl	-13.2393
impressed	-13.2396
▁students	-13.2403
▁costumes	-13.2404
▁stools	-13.2414
▁inhale	-13.2415
lnut	-13.2417
▁owners	-13.2424
av	-13.2428
▁scrape	-13.2431
▁swims	-13.2435
▁butterfl	-13.2435
probable	-13.244
▁messal	-13.2443
▁groves	-13.2445
▁mobil	-13.2445
tch	-13.2447
▁schemes	-13.2448
eld	-13.2449
▁sim	-13.2451
ended	-13.2476
▁mytholog	-13.2487
▁condon	-13.2488
numera	-13.249
▁sender	-13.2494
▁liberti	-13.2494
hol	-13.2503
▁strand	-13.2507
emper	-13.2518
▁mimick	-13.2526
▁flutes	-13.2527
eak	-13.2527
lacks	-13.2528
▁wallets	-13.2529
▁grounded	-13.2535
▁overturn	-13.2539
▁monkeys	-13.2543
▁recovers	-13.2543
▁conquerors	-13.2543
▁graveyards	-13.2545
▁shops	-13.2557
▁offerings	-13.256
che	-13.2565
▁slings	-13.2569
ony	-13.2587
▁boats	-13.2596
▁shrunk	-13.2602
tebo	-13.2626
▁sizzl	-13.263
fed	-13.2633
dry	-13.2644
▁preen	-13.2647
commissioned	-13.2652
ob	-13.2654
equ	-13.2655
proven	-13.2667
▁outfits	-13.267
ullied	-13.2672
▁endur	-13.2677
▁stin	-13.2682
lender	-13.2685
▁inferiors	-13.2686
▁discussions	-13.2689
▁farms	-13.2693
▁laments	-13.2694
▁grease	-13.27
▁nerves	-13.2702
▁vac	-13.2702
▁discolor	-13.2708
▁chins	-13.2711
ibe	-13.2713
▁tra	-13.2714
hooting	-13.2719
▁syc	-13.2721
agged	-13.2723
▁musk	-13.2724
▁shrugg	-13.2734
▁earning	-13.2735
ransack	-13.2742
▁itch	-13.275
orality	-13.2751
▁pointy	-13.276
auspicious	-13.278
▁bridget	-13.278
▁convene	-13.2782
▁revolts	-13.2784
sheathed	-13.279
▁horrors	-13.2815
ibble	-13.2819
racy	-13.2821
▁scales	-13.2821
▁flocks	-13.2824
▁disapprov	-13.2826
▁concept	-13.283
abo	-13.2833
▁sam	-13.2846
▁huff	-13.2849
▁moths	-13.2868
▁vic	-13.2869
zing	-13.2872
▁pala	-13.2875
▁malign	-13.2878
▁("	-13.2893
aved	-13.2894
▁founded	-13.2896
byes	-13.2908
▁hatche	-13.2913
bid	-13.2914
▁foods	-13.2922
ines	-13.2936
nfirmities	-13.2937
lands	-13.2938
!(	-13.2941
▁deformit	-13.2954
▁innocents	-13.2955
xi	-13.296
▁tigers	-13.2965
▁descends	-13.2966
anned	-13.297
▁seats	-13.2976
▁puzzle	-13.2987
lent	-13.299
fled	-13.2995
▁potions	-13.301
▁entren	-13.3018
pin	-13.3025
cess	-13.3039
mo	-13.3049
▁indi	-13.3058
ple	-13.3063
▁que	-13.307
▁impo	-13.3077
▁forming	-13.308
▁mom	-13.3081
▁flare	-13.3082
▁glid	-13.3085
▁departs	-13.3095
nag	-13.3117
prune	-13.3117
▁terr	-13.3122
▁botch	-13.3123
▁merrim	-13.3135
▁plow	-13.3136
▁hardy	-13.3147
▁untie	-13.3151
ort	-13.3183
▁defi	-13.3191
epopulate	-13.3194
▁thumbs	-13.3196
▁rece	-13.3206
▁twinkle	-13.3206
▁reg	-13.3236
▁harvests	-13.3243
▁perk	-13.3248
▁reflections	-13.3249
mingo	-13.3252
vas	-13.3256
visibly	-13.3276
▁rep	-13.3286
oo	-13.3294
ents	-13.3302
▁mold	-13.3303
▁boasts	-13.331
▁bathe	-13.3311
iting	-13.3313
lights	-13.3315
▁thoughtless	-13.3322
ere	-13.3328
▁plut	-13.334
▁becom	-13.3342
▁buyer	-13.3354
▁imped	-13.337
bodies	-13.3379
nable	-13.338
▁spi	-13.3381
▁disasters	-13.3384
▁tread	-13.3385
▁washe	-13.3387
▁planta	-13.3387
▁bills	-13.3389
▁editor	-13.3401
▁labors	-13.3409
▁nations	-13.341
▁net	-13.3425
ride	-13.3428
ass	-13.3437
eferential	-13.3463
ounding	-13.348
bub	-13.3484
llies	-13.3497
▁cells	-13.3541
orn	-13.3546
armed	-13.3547
tary	-13.355
▁woeful	-13.3553
▁slutt	-13.3563
▁impu	-13.3596
▁punch	-13.3621
▁contemplat	-13.3624
▁satiri	-13.3633
▁asset	-13.3636
nique	-13.364
guided	-13.3644
▁inns	-13.3645
die	-13.3649
▁heel	-13.3662
rrified	-13.3666
dn	-13.3685
eworthy	-13.3694
mill	-13.3697
▁stings	-13.3705
▁shells	-13.3708
▁paints	-13.3713
low	-13.3715
▁mocker	-13.3722
▁mysteri	-13.3752
▁semi	-13.3756
▁commons	-13.3769
▁soar	-13.3787
fathers	-13.3787
▁orchards	-13.3799
▁confessions	-13.3821
▁pell	-13.3823
cot	-13.3827
assaila	-13.3828
▁emb	-13.3844
spel	-13.3847
▁barbari	-13.3857
ingle	-13.3864
▁ke	-13.3866
tan	-13.3891
der	-13.3891
▁len	-13.3927
ius	-13.393
▁loosen	-13.3942
quests	-13.3948
▁williams	-13.3949
▁cas	-13.3956
▁mull	-13.3966
isper	-13.399
▁duels	-13.3995
ery	-13.3995
▁annu	-13.4005
▁drizzle	-13.4033
aging	-13.4076
▁swipe	-13.4078
ailing	-13.408
immed	-13.4081
▁reache	-13.4083
ural	-13.4085
anc	-13.4087
ich	-13.4093
▁sweethearts	-13.4095
▁cont	-13.4096
ric	-13.4101
opinioned	-13.4127
▁mindless	-13.413
ves	-13.4137
▁corns	-13.4138
▁ark	-13.4138
▁glo	-13.415
▁rea	-13.4158
ro	-13.4167
ved	-13.4175
has	-13.4179
▁lowli	-13.4183
itary	-13.4194
▁divers	-13.4195
mpl	-13.42
▁dime	-13.4205
▁pebble	-13.4225
▁honora	-13.4237
vel	-13.4256
▁candid	-13.4256
▁berate	-13.4272
isions	-13.4298
ached	-13.4318
wards	-13.433
slated	-13.4333
sleeping	-13.4339
▁controll	-13.4348
nches	-13.4354
▁wan	-13.4366
ark	-13.437
▁wanderings	-13.437
ail	-13.4372
▁sto	-13.4377
ants	-13.4377
▁profi	-13.4388
intolerable	-13.4399
▁pers	-13.4431
snatching	-13.4443
▁arena	-13.4443
alty	-13.4467
ners	-13.4468
ise	-13.447
▁fans	-13.4489
▁irritati	-13.4502
▁sur	-13.4506
▁ambitions	-13.4507
▁assassin	-13.4543
▁hosts	-13.4547
▁cal	-13.4548
▁cre	-13.4556
nius	-13.4557
▁buckl	-13.4559
▁pens	-13.458
aptured	-13.4584
▁obs	-13.4586
▁curv	-13.4594
▁riser	-13.4599
say	-13.4602
▁fla	-13.4605
▁heralds	-13.4631
willed	-13.4637
tumble	-13.4643
rk	-13.4647
▁professions	-13.4648
▁pris	-13.4652
▁switche	-13.4654
ngs	-13.467
nap	-13.4683
mp	-13.4684
magne	-13.4693
▁roles	-13.4703
anging	-13.4716
movable	-13.4718
▁cleanse	-13.4719
▁assur	-13.4723
og	-13.4749
▁occasional	-13.4758
▁perpetrate	-13.4778
▁bee	-13.4796
iv	-13.4816
think	-13.4837
▁underestimate	-13.4855
cks	-13.4856
pound	-13.4869
▁leech	-13.489
each	-13.4892
▁gas	-13.4893
▁spri	-13.4898
crat	-13.4903
ambles	-13.4903
ain	-13.4919
whoa	-13.4925
▁dolt	-13.4927
live	-13.4972
aring	-13.4977
xen	-13.502
▁nook	-13.504
▁nin	-13.5045
checked	-13.5055
▁schools	-13.5055
▁ero	-13.5057
▁audiences	-13.5062
▁marketplaces	-13.5071
pending	-13.5098
appropriately	-13.512
▁needy	-13.5126
▁womaniz	-13.5134
▁untied	-13.5135
ishness	-13.5146
hy	-13.5173
almed	-13.5184
▁dreamer	-13.5191
uma	-13.521
lena	-13.5212
▁rested	-13.5236
chat	-13.5253
bra	-13.5254
lover	-13.5268
▁bested	-13.5276
dotes	-13.5287
...	-13.5288
▁pruden	-13.5319
▁interfer	-13.5344
tress	-13.5354
icted	-13.5357
tricke	-13.5364
ath	-13.5373
ank	-13.5397
sake	-13.54
▁inscribe	-13.5427
▁enr	-13.5431
res	-13.5435
▁spray	-13.5435
▁stam	-13.5441
priestly	-13.5466
▁financ	-13.5477
mate	-13.5519
resents	-13.5532
nus	-13.5543
pulation	-13.555
▁comrade	-13.556
eeches	-13.5569
pun	-13.5574
▁pies	-13.5592
▁ad	-13.5607
ale	-13.5615
mous	-13.5625
▁oversho	-13.5639
▁oversleep	-13.5642
▁teache	-13.5652
▁clipp	-13.5659
▁masts	-13.5671
▁cloaks	-13.5677
▁rooms	-13.5712
▁inevitab	-13.5713
hank	-13.5716
examined	-13.5727
▁thunders	-13.5765
▁radia	-13.5768
ubbing	-13.5774
▁occurr	-13.579
rassed	-13.579
▁rous	-13.5813
▁handy	-13.5825
▁sou	-13.5883
ens	-13.591
▁annul	-13.5921
solation	-13.5936
▁dictat	-13.5937
▁wrongful	-13.594
ches	-13.5959
unted	-13.5986
rowing	-13.5986
▁hur	-13.5991
sque	-13.5996
▁reside	-13.6001
sort	-13.6053
▁mend	-13.6061
gged	-13.6083
▁magn	-13.6084
licit	-13.6097
▁harmon	-13.6101
io	-13.6106
lotted	-13.6133
▁dist	-13.6144
▁hearse	-13.6152
rain	-13.6158
▁breathless	-13.616
mish	-13.6185
bi	-13.6199
nk	-13.6199
▁tart	-13.6204
▁figur	-13.6208
thin	-13.621
▁consol	-13.6247
▁ou	-13.6259
itely	-13.6268
obby	-13.6282
▁pebbl	-13.6293
▁happenings	-13.6306
mask	-13.6312
ss	-13.6327
▁dive	-13.6339
visions	-13.6357
drinkers	-13.6358
ud	-13.637
▁quin	-13.6373
pot	-13.6376
rained	-13.6386
▁trickle	-13.6395
▁wha	-13.6423
▁suckl	-13.6426
air	-13.6482
sound	-13.65
▁stor	-13.6504
please	-13.6509
rying	-13.651
▁dirtie	-13.6516
lice	-13.6517
people	-13.6517
▁pres	-13.6526
▁dote	-13.6538
▁trad	-13.654
▁warp	-13.6541
▁science	-13.6549
▁drizzl	-13.6555
▁endow	-13.6561
▁contr	-13.6563
▁fract	-13.6573
▁wisecrack	-13.6579
▁valuables	-13.6586
▁foreheads	-13.6596
ilities	-13.6598
▁lieutenants	-13.6599
▁equi	-13.6603
equi	-13.6615
rical	-13.6638
▁web	-13.6638
li	-13.6653
lish	-13.6661
▁thro	-13.6667
▁queens	-13.6674
▁ador	-13.6698
set	-13.6703
▁fum	-13.6703
antag	-13.6715
lot	-13.6721
▁lest	-13.6763
▁overindulgen	-13.6784
ach	-13.6787
nny	-13.6801
versed	-13.6812
escent	-13.6821
ner	-13.6823
lowing	-13.6843
▁equa	-13.6858
ft	-13.6863
▁residen	-13.6868
▁goods	-13.6879
ean	-13.6883
reserve	-13.69
aken	-13.6946
won	-13.6959
oldness	-13.697
these	-13.6984
owl	-13.7002
before	-13.7053
going	-13.7068
nia	-13.7083
ost	-13.7085
und	-13.7088
▁wedge	-13.7088
solved	-13.7094
▁outgrow	-13.71
▁understandabl	-13.7104
▁prof	-13.7105
illing	-13.713
▁calculat	-13.7139
brands	-13.714
▁easie	-13.7141
▁peli	-13.7144
▁echoe	-13.716
▁ki	-13.7166
▁degrad	-13.7168
▁mon	-13.7178
▁experiences	-13.718
▁poll	-13.7184
pect	-13.7201
dem	-13.7205
▁che	-13.7212
cept	-13.7216
val	-13.7233
▁stall	-13.7253
▁nurtur	-13.7273
term	-13.7285
nate	-13.7299
▁toy	-13.7301
▁dreame	-13.7342
▁lik	-13.7348
lier	-13.736
▁aggravat	-13.7369
root	-13.7372
bushes	-13.7403
▁confin	-13.7421
sses	-13.743
pro	-13.7444
▁diss	-13.7502
▁slu	-13.7517
▁punche	-13.7526
▁myster	-13.7567
traightforwardly	-13.7585
war	-13.7593
commendation	-13.7599
▁tempora	-13.7612
▁jumpe	-13.7631
words	-13.7647
tty	-13.7666
mounted	-13.7683
▁embar	-13.7688
▁twinkl	-13.7692
rob	-13.7708
▁cla	-13.7743
lity	-13.7748
▁tone	-13.7757
used	-13.7765
▁lovelie	-13.7777
▁herd	-13.7787
ma	-13.7812
keep	-13.7813
idence	-13.7836
▁occurre	-13.7837
▁worthie	-13.7882
▁tid	-13.7894
▁rampa	-13.7903
▁handl	-13.7909
▁swap	-13.7936
▁giver	-13.7959
cared	-13.7962
ouch	-13.7976
trate	-13.798
word	-13.7999
lized	-13.8035
▁cho	-13.8057
amper	-13.8067
▁classif	-13.8069
▁containe	-13.8073
▁puzzl	-13.8073
press	-13.8077
orned	-13.808
tale	-13.809
done	-13.8102
unt	-13.8102
blown	-13.8107
▁hugg	-13.8119
ace	-13.8155
▁deform	-13.8158
▁hesitat	-13.8163
▁def	-13.8163
▁reviv	-13.8181
▁sor	-13.8191
world	-13.8203
▁needless	-13.8209
▁equ	-13.8219
▁chu	-13.8233
▁prin	-13.8254
gonus	-13.8265
sign	-13.8268
ot	-13.8279
▁env	-13.8287
ient	-13.8291
wear	-13.8295
ak	-13.8298
ray	-13.8299
rried	-13.8306
▁loa	-13.8307
sop	-13.8322
▁memor	-13.8329
leave	-13.8331
aking	-13.8334
ards	-13.8336
against	-13.8341
scent	-13.8344
tions	-13.8345
ker	-13.8358
▁prior	-13.8366
▁hitch	-13.8382
fied	-13.8418
▁rai	-13.8419
tains	-13.8425
ditional	-13.8431
pies	-13.8441
fuse	-13.8442
ightened	-13.8446
once	-13.8465
dying	-13.8481
▁bass	-13.8481
table	-13.8492
adam	-13.8495
win	-13.8499
eur	-13.8524
travele	-13.8527
into	-13.8532
lia	-13.8534
cuts	-13.8538
john	-13.8542
bear	-13.8543
ust	-13.8548
▁homes	-13.8551
lock	-13.8558
full	-13.8586
tent	-13.8598
fter	-13.8606
ished	-13.8608
talk	-13.8613
▁wil	-13.8622
hills	-13.8625
▁strutt	-13.8634
bring	-13.8635
▁demo	-13.8636
rise	-13.8643
flies	-13.8649
▁amble	-13.8672
icken	-13.8672
swear	-13.8726
owe	-13.8733
▁sheds	-13.8734
▁cus	-13.874
unti	-13.8743
▁reuni	-13.8755
great	-13.876
rom	-13.8765
▁feste	-13.8781
numer	-13.8791
bad	-13.8791
dden	-13.88
ild	-13.8816
those	-13.8817
earest	-13.8834
▁heave	-13.8843
▁gl	-13.8853
▁plum	-13.887
mother	-13.8877
rating	-13.8877
▁reas	-13.8882
tality	-13.8885
▁foll	-13.8889
dicted	-13.8905
▁unchang	-13.8911
ased	-13.8917
every	-13.892
bble	-13.8928
blood	-13.894
beautiful	-13.8952
torn	-13.8956
play	-13.8956
ficienc	-13.8962
▁piti	-13.8981
ram	-13.8993
▁subdu	-13.8993
eats	-13.8995
around	-13.8995
▁locate	-13.8999
prince	-13.9019
nothings	-13.9019
▁dumbe	-13.9023
▁bragg	-13.9025
▁prep	-13.9032
care	-13.9034
someone	-13.9035
▁mol	-13.9041
frightens	-13.907
▁mumbl	-13.908
servant	-13.908
lting	-13.9084
heaven	-13.9089
▁plo	-13.9125
▁budd	-13.9134
▁competit	-13.9135
▁replac	-13.9136
gone	-13.915
▁strengths	-13.9152
ngling	-13.9174
gne	-13.9178
▁disrep	-13.918
tingly	-13.9181
▁dy	-13.9183
rosy	-13.9185
band	-13.9191
ef	-13.9197
power	-13.9203
ried	-13.9208
ool	-13.9214
▁compensat	-13.9267
▁tripp	-13.9276
eously	-13.9277
▁ve	-13.9289
ainted	-13.9291
ady	-13.9305
shaven	-13.931
▁infidel	-13.9318
lted	-13.9321
▁observan	-13.9324
ney	-13.9332
▁hom	-13.9348
▁gloomi	-13.9366
together	-13.9383
close	-13.9384
bone	-13.9384
uffed	-13.9391
person	-13.9398
ta	-13.941
rade	-13.943
▁mint	-13.9456
▁emba	-13.9457
wned	-13.9491
rat	-13.9493
▁floren	-13.9501
▁raisin	-13.9503
ite	-13.9515
uffle	-13.9533
ters	-13.9538
ficial	-13.9543
bber	-13.9543
iable	-13.9552
opped	-13.9557
arily	-13.9563
▁ign	-13.9563
▁investigat	-13.9571
acing	-13.9579
▁rig	-13.9581
fl	-13.9585
addle	-13.9593
▁flam	-13.9596
▁ches	-13.9598
zi	-13.9615
tomorrow	-13.9632
asteful	-13.9637
▁starv	-13.9663
olding	-13.9671
▁meditat	-13.9672
follow	-13.9685
morning	-13.9692
▁sen	-13.9716
yet	-13.9716
sting	-13.9716
▁glanc	-13.9725
holds	-13.9728
▁circums	-13.973
▁indignit	-13.9745
▁barg	-13.9746
soon	-13.9748
▁scr	-13.9759
inner	-13.9762
england	-13.9767
gentleman	-13.9769
▁inhal	-13.9776
▁retr	-13.9778
nders	-13.9789
beg	-13.9791
afraid	-13.9794
obbed	-13.9795
sty	-13.9795
ority	-13.9813
arms	-13.9816
▁lectur	-13.9835
thought	-13.9841
repe	-13.9847
▁commenta	-13.9854
children	-13.986
▁swe	-13.9861
▁bruise	-13.9862
ound	-13.9882
lace	-13.989
▁rev	-13.9892
▁til	-13.9904
honest	-13.9906
quickly	-13.991
▁vigil	-13.991
▁postpon	-13.9914
rge	-13.9924
stic	-13.9924
▁reclin	-13.9929
cousin	-13.993
▁twel	-13.993
ngle	-13.9932
believably	-13.9932
abbed	-13.9933
▁dism	-13.9942
dog	-13.9951
justice	-13.9956
tongue	-13.9965
▁thr	-13.9991
▁ventur	-13.9996
crewed	-13.9999
lost	-14
brave	-14.0002
enemy	-14.001
whole	-14.0024
gentlemen	-14.0026
ption	-14.0046
gossips	-14.0051
▁arra	-14.0051
bo	-14.0059
▁indigna	-14.0071
▁translat	-14.0082
hurry	-14.0084
▁swordsman	-14.0111
eared	-14.0111
shing	-14.0123
▁overstate	-14.0124
wis	-14.0125
cian	-14.0129
▁dens	-14.0129
drink	-14.0132
clo	-14.0136
▁saf	-14.0141
▁predic	-14.0142
french	-14.0145
cassio	-14.0147
▁uneas	-14.017
atches	-14.0171
step	-14.0172
rry	-14.0175
aiming	-14.0175
vice	-14.0178
▁vo	-14.018
plum	-14.0183
understand	-14.0191
▁squ	-14.0199
fair	-14.0199
atri	-14.0199
hide	-14.0213
except	-14.0218
▁extrem	-14.0228
rd	-14.0242
mbling	-14.0242
honorable	-14.0242
crow	-14.0247
hamlet	-14.0251
pital	-14.0251
lines	-14.0255
▁conf	-14.0263
phe	-14.0266
ators	-14.0275
unless	-14.0275
▁oppresse	-14.0279
human	-14.028
moment	-14.0293
▁ano	-14.0295
voice	-14.0306
wearing	-14.0306
▁overindulg	-14.0306
▁squea	-14.0309
hatched	-14.032
▁tw	-14.0321
▁comm	-14.0325
sent	-14.0326
paired	-14.0334
therefore	-14.0352
reputa	-14.0363
▁transfer	-14.0365
▁pur	-14.0367
carry	-14.0372
gentle	-14.0378
▁yo	-14.0379
▁reno	-14.038
exactly	-14.0385
▁exchang	-14.039
traitor	-14.0393
bites	-14.0394
courage	-14.0399
ately	-14.0403
▁thinker	-14.0405
serving	-14.0407
▁luc	-14.0408
▁suppress	-14.0418
fighting	-14.0439
macbeth	-14.0439
pile	-14.044
mouth	-14.0447
odd	-14.047
built	-14.0472
certain	-14.0473
big	-14.0475
leaving	-14.0476
gling	-14.0476
▁sacri	-14.0476
company	-14.0477
▁aristocra	-14.0479
▁travele	-14.0482
rich	-14.0488
▁lin	-14.0489
living	-14.0497
crying	-14.0498
pompey	-14.0503
▁intolerabl	-14.051
mark	-14.0512
▁advocat	-14.0514
ci	-14.0518
matically	-14.0519
ails	-14.0519
express	-14.0519
han	-14.0522
proud	-14.0522
bird	-14.0523
▁sn	-14.0527
orous	-14.053
banished	-14.0532
mission	-14.0532
messenger	-14.0538
fleets	-14.0544
▁te	-14.0545
dance	-14.0553
ladies	-14.0555
▁cro	-14.0556
field	-14.0562
minute	-14.0565
stupid	-14.0569
utto	-14.0573
small	-14.0576
▁cri	-14.0579
plain	-14.0585
cassius	-14.0585
valentine	-14.0586
front	-14.0588
public	-14.0589
jew	-14.0599
▁beautif	-14.0603
▁comment	-14.0609
▁tran	-14.0611
attention	-14.0615
stru	-14.0618
▁lovell	-14.0618
▁uncon	-14.062
▁enthr	-14.0623
▁nea	-14.0626
lie	-14.0626
▁attentions	-14.0628
▁lu	-14.0635
written	-14.0636
kate	-14.0636
start	-14.0644
sylvia	-14.0647
choose	-14.0649
clarence	-14.065
pass	-14.0651
shepherd	-14.0658
earned	-14.0664
mus	-14.0664
fended	-14.0665
york	-14.0668
force	-14.0676
safe	-14.0676
umble	-14.0679
heavy	-14.0686
hour	-14.0693
▁jil	-14.0695
wealth	-14.0696
beatrice	-14.0698
worthless	-14.0701
baby	-14.0705
fought	-14.0706
rators	-14.0706
▁executi	-14.0708
hermia	-14.0716
drake	-14.072
buried	-14.0721
▁toys	-14.0727
lame	-14.0727
value	-14.0731
▁appreciat	-14.0732
▁unknow	-14.0733
▁depress	-14.0734
demetrius	-14.0735
different	-14.0739
plicate	-14.0743
shakespeare	-14.0744
spear	-14.0746
▁poi	-14.0748
empty	-14.0752
conscience	-14.0754
noise	-14.0756
▁rejoic	-14.0758
advantage	-14.0762
passion	-14.0762
confess	-14.0767
turning	-14.0771
bu	-14.0771
considered	-14.0772
paris	-14.0774
northumberland	-14.0776
respectfully	-14.0777
carriage	-14.0778
third	-14.078
servants	-14.0781
▁wet	-14.0783
killing	-14.0785
judgment	-14.0785
wonder	-14.0785
▁brit	-14.0788
suffering	-14.079
book	-14.079
▁sal	-14.0793
mitting	-14.0795
finished	-14.0803
▁origin	-14.0804
laertes	-14.0806
malvolio	-14.0807
fashion	-14.0808
▁furnishe	-14.081
banquo	-14.0813
double	-14.0813
pice	-14.0817
▁deflower	-14.0817
lear	-14.0822
wisdom	-14.0826
feet	-14.0826
witness	-14.0835
affection	-14.0838
private	-14.0839
rotten	-14.0843
horatio	-14.0844
margaret	-14.0844
▁tea	-14.0845
▁scen	-14.0848
journey	-14.0849
lepidus	-14.085
caught	-14.085
move	-14.0853
arrest	-14.0857
treasure	-14.086
jesus	-14.0863
mowbray	-14.0864
blunt	-14.0865
lovely	-14.0866
▁conspi	-14.0869
demon	-14.0871
invite	-14.0871
launcelot	-14.0872
gaunt	-14.0873
seriously	-14.0875
helena	-14.0876
kick	-14.0878
argue	-14.0878
fancy	-14.0879
sacred	-14.088
legitimate	-14.0882
clouds	-14.0882
▁hus	-14.0884
estine	-14.0885
caius	-14.0885
jump	-14.0888
horns	-14.089
suspect	-14.0891
peter	-14.0894
[...]
