[PAD]	0
[BOS]	0
[EOS]	0
[UNK]	0
@-@	0
,	-2.51917
.	-3.02407
▁the	-3.71239
▁and	-3.80527
▁i	-3.81737
▁to	-4.0465
▁of	-4.21467
'	-4.22137
▁you	-4.26704
s	-4.28826
▁a	-4.29865
▁my	-4.43074
?	-4.53206
▁that	-4.54393
▁in	-4.57992
▁is	-4.73267
▁not	-4.7845
▁me	-4.85949
▁it	-4.87719
▁for	-4.94246
▁with	-5.00085
▁be	-5.01352
▁he	-5.02801
▁your	-5.04293
!	-5.0784
▁but	-5.12545
▁this	-5.13541
▁his	-5.15417
▁have	-5.19471
▁thou	-5.22634
▁as	-5.23615
▁so	-5.31768
▁him	-5.32203
▁will	-5.33949
▁what	-5.35873
;	-5.40766
▁do	-5.5436
▁no	-5.5812
▁thy	-5.63719
▁her	-5.65651
▁by	-5.66303
▁if	-5.6787
▁we	-5.68843
▁all	-5.695
▁are	-5.72095
▁shall	-5.73344
d	-5.74835
▁'	-5.74937
▁thee	-5.80109
▁on	-5.82583
▁good	-5.84444
:	-5.86851
▁our	-5.91593
▁sir	-5.91934
-	-5.92359
▁now	-5.93744
▁come	-5.95599
▁	-5.97371
▁lord	-6.00524
▁o	-6.01106
▁(	-6.01868
▁she	-6.02807
ll	-6.0388
▁love	-6.04718
▁from	-6.07305
)	-6.09095
▁they	-6.0924
▁or	-6.10003
▁let	-6.10391
▁at	-6.11516
▁well	-6.11635
▁which	-6.12082
ing	-6.12226
▁would	-6.12991
▁more	-6.13426
▁there	-6.13433
▁here	-6.14939
▁how	-6.15017
▁am	-6.1618
▁then	-6.16759
▁was	-6.19188
ed	-6.19408
▁man	-6.22766
▁when	-6.23455
▁their	-6.3105
▁than	-6.32658
▁hath	-6.3268
▁them	-6.32988
▁go	-6.33324
▁know	-6.34738
▁an	-6.34773
▁say	-6.3702
t	-6.37393
▁one	-6.38973
▁upon	-6.40153
▁did	-6.43604
▁like	-6.439
▁may	-6.48778
▁why	-6.48864
▁us	-6.48928
▁"	-6.49035
▁should	-6.49056
▁make	-6.49114
▁yet	-6.49739
▁who	-6.50641
▁see	-6.51514
▁were	-6.53494
▁must	-6.56999
▁where	-6.62009
▁out	-6.62264
▁had	-6.62424
▁give	-6.62463
▁such	-6.63114
st	-6.63969
tis	-6.64355
▁some	-6.66385
▁speak	-6.7157
▁most	-6.73117
▁can	-6.73237
▁too	-6.73467
▁take	-6.74489
▁time	-6.76788
▁think	-6.79645
er	-6.80349
▁these	-6.80632
▁king	-6.80796
▁mine	-6.81353
▁tell	-6.84791
▁up	-6.88843
▁heart	-6.90271
▁father	-6.92876
▁much	-6.93148
ly	-6.95147
to	-6.9546
▁never	-6.95853
▁art	-6.97133
▁hear	-6.97157
▁doth	-6.98201
▁nor	-6.99069
▁look	-7.00432
▁god	-7.01109
▁very	-7.03507
▁men	-7.0949
▁death	-7.10473
▁life	-7.13622
▁true	-7.13801
▁pray	-7.16341
▁cannot	-7.17591
▁hand	-7.18235
▁away	-7.18466
▁any	-7.19281
▁own	-7.19952
▁fair	-7.20104
▁sweet	-7.20514
▁night	-7.2071
▁great	-7.20877
y	-7.21494
e	-7.21516
▁made	-7.21805
▁day	-7.22841
▁thus	-7.23752
▁master	-7.26428
▁th	-7.27447
▁ay	-7.28582
▁old	-7.28876
▁nothing	-7.29574
▁before	-7.30559
▁world	-7.31019
▁again	-7.31129
▁eyes	-7.33176
▁name	-7.33966
▁been	-7.34739
▁being	-7.35709
▁lady	-7.36017
▁call	-7.38137
▁though	-7.38436
▁oh	-7.38896
▁better	-7.39147
▁done	-7.40484
▁could	-7.40596
▁therefore	-7.41012
▁poor	-7.42857
▁fear	-7.4353
▁hast	-7.43741
▁leave	-7.44065
▁other	-7.44315
▁brother	-7.44596
▁comes	-7.44785
▁blood	-7.45063
▁bear	-7.46015
▁son	-7.46163
▁down	-7.46252
▁till	-7.46422
▁nay	-7.4654
▁caesar	-7.47109
▁into	-7.47119
▁myself	-7.4768
▁two	-7.5001
▁against	-7.5008
▁put	-7.50314
▁both	-7.506
▁noble	-7.51138
▁even	-7.51988
▁grace	-7.52795
▁stand	-7.52858
▁ever	-7.53555
▁way	-7.55604
▁might	-7.55999
▁live	-7.56024
▁heaven	-7.56193
▁dead	-7.56613
▁still	-7.57024
."	-7.57079
▁word	-7.58221
▁indeed	-7.6089
▁many	-7.62179
▁those	-7.62545
▁first	-7.6288
▁madam	-7.63126
▁dear	-7.64634
▁none	-7.65271
▁peace	-7.65941
▁every	-7.66021
▁wife	-7.66288
▁duke	-7.67002
▁find	-7.67142
▁part	-7.67444
▁keep	-7.67589
▁die	-7.67655
aside	-7.6811
▁little	-7.69457
▁set	-7.71006
▁hold	-7.71137
▁house	-7.71356
▁bring	-7.71869
▁dost	-7.73172
▁fool	-7.73363
▁un	-7.73425
▁long	-7.73524
▁head	-7.73624
est	-7.7391
▁prince	-7.74272
▁off	-7.74519
▁soul	-7.75136
▁face	-7.75266
▁since	-7.75337
▁show	-7.75669
▁eye	-7.76127
▁friends	-7.76673
▁young	-7.77203
▁gone	-7.7728
▁best	-7.77756
▁himself	-7.78043
▁friend	-7.78552
▁daughter	-7.79436
▁thine	-7.80019
▁faith	-7.81609
▁bid	-7.81616
▁else	-7.82425
▁marry	-7.83657
▁matter	-7.83934
▁full	-7.84385
▁stay	-7.85165
▁thing	-7.85186
▁said	-7.8574
▁please	-7.86391
▁answer	-7.86684
▁nature	-7.86909
"	-7.89077
▁place	-7.89191
▁once	-7.9007
▁tongue	-7.90443
▁about	-7.90485
▁hence	-7.91192
▁thought	-7.91202
▁gentle	-7.91785
▁after	-7.93165
▁forth	-7.93177
▁home	-7.93215
▁mistress	-7.93622
▁came	-7.937
▁back	-7.93757
▁mind	-7.9387
▁lie	-7.93943
▁welcome	-7.94542
▁woman	-7.94992
▁whom	-7.95021
n	-7.95625
▁three	-7.95928
▁fortune	-7.96438
▁fellow	-7.96439
▁farewell	-7.96865
▁things	-7.96981
▁news	-7.97524
▁meet	-7.97659
▁cause	-7.98345
▁ere	-7.99811
▁unto	-7.9986
▁queen	-8.00214
▁rest	-8.00249
▁mother	-8.00285
▁enough	-8.01191
▁hour	-8.01315
▁honor	-8.01538
▁another	-8.01683
▁husband	-8.0204
▁words	-8.02297
▁help	-8.02767
▁without	-8.03217
▁does	-8.03407
▁play	-8.03753
▁end	-8.05367
▁power	-8.05837
▁heard	-8.07208
▁kind	-8.07851
▁within	-8.0804
▁get	-8.0821
▁hope	-8.0853
▁sword	-8.08538
▁hither	-8.08739
▁pardon	-8.09036
▁has	-8.09209
▁boy	-8.09621
▁gentleman	-8.09923
▁reason	-8.10311
▁cousin	-8.10676
▁mean	-8.1099
▁truth	-8.11179
▁fall	-8.13821
▁use	-8.14084
▁saw	-8.14299
▁antony	-8.14299
▁yourself	-8.14859
▁sure	-8.14899
▁new	-8.15038
▁bed	-8.15638
▁mad	-8.15882
▁rather	-8.15992
se	-8.16151
▁state	-8.16453
r	-8.16521
▁wilt	-8.16564
▁thank	-8.16697
▁earth	-8.17063
▁makes	-8.172
▁mark	-8.17578
▁hands	-8.1782
▁thousand	-8.18047
▁only	-8.18134
▁follow	-8.18716
▁youth	-8.18865
,"	-8.19184
▁right	-8.19467
▁last	-8.19866
▁sleep	-8.2044
▁spirit	-8.20493
▁lay	-8.20525
▁send	-8.20862
▁wit	-8.21079
▁shame	-8.21271
▁honest	-8.2168
▁under	-8.21912
▁light	-8.22391
▁turn	-8.23119
▁swear	-8.23293
▁strange	-8.23469
▁villain	-8.24059
▁high	-8.24138
▁ho	-8.24804
▁fire	-8.249
▁whos	-8.2562
▁seen	-8.26395
▁far	-8.27157
▁shalt	-8.28737
▁horse	-8.28958
▁sea	-8.2906
▁present	-8.29081
▁wrong	-8.29096
▁through	-8.29273
▁means	-8.30415
▁false	-8.30558
▁devil	-8.3063
▁letter	-8.30678
▁beauty	-8.30697
▁prithee	-8.30697
▁told	-8.31658
▁believe	-8.31689
▁ill	-8.31793
▁ha	-8.32014
▁break	-8.32443
▁lies	-8.32521
▁body	-8.33374
en	-8.3374
▁draw	-8.34669
▁lost	-8.34786
▁less	-8.351
▁says	-8.35359
▁tomorrow	-8.35746
▁rome	-8.36111
▁together	-8.36122
▁itself	-8.36122
▁while	-8.36149
▁thoughts	-8.36165
▁left	-8.36822
▁foul	-8.37385
▁business	-8.37526
▁sent	-8.37529
th	-8.39296
▁prove	-8.39344
▁alone	-8.3967
▁majesty	-8.39671
▁seek	-8.39949
▁desire	-8.39997
▁gods	-8.40064
▁sister	-8.40474
▁beseech	-8.4086
▁john	-8.41126
as	-8.41802
▁near	-8.42335
▁brutus	-8.42603
▁kill	-8.43021
▁over	-8.43947
▁sun	-8.44089
▁money	-8.4412
less	-8.44205
▁care	-8.44329
▁found	-8.44673
▁people	-8.45249
▁seem	-8.4541
▁remember	-8.4542
▁england	-8.4562
▁half	-8.45628
▁age	-8.45913
▁tears	-8.4606
▁war	-8.46182
▁yea	-8.46368
▁between	-8.46437
▁lives	-8.47221
▁ear	-8.4758
▁gave	-8.48031
▁happy	-8.48737
▁sight	-8.48966
ness	-8.5012
▁crown	-8.51034
▁romeo	-8.51149
▁same	-8.51159
▁sit	-8.51451
▁talk	-8.51769
▁purpose	-8.51869
▁general	-8.5194
▁land	-8.52001
▁hate	-8.52194
▁worth	-8.5225
▁hang	-8.52323
▁save	-8.5245
▁france	-8.52764
▁something	-8.52769
▁lose	-8.52775
▁alas	-8.52782
▁joy	-8.53019
▁royal	-8.53478
▁bloody	-8.53812
▁wear	-8.54018
▁charge	-8.54338
▁cold	-8.54349
▁wish	-8.54463
▁run	-8.54998
▁cry	-8.55049
▁breath	-8.55098
▁comfort	-8.55182
▁child	-8.55261
▁neither	-8.55264
▁thyself	-8.55266
▁tonight	-8.55412
▁court	-8.55425
▁wind	-8.55794
▁pity	-8.55827
▁fight	-8.55985
▁each	-8.56113
▁air	-8.56229
▁ne	-8.56535
▁read	-8.56823
▁company	-8.56968
▁worse	-8.57838
▁didst	-8.58099
▁return	-8.58528
▁dare	-8.58582
▁truly	-8.58703
▁worthy	-8.58787
▁looks	-8.59181
▁change	-8.59235
▁service	-8.60141
▁grief	-8.60875
▁times	-8.60969
▁warrant	-8.61266
▁days	-8.61397
▁law	-8.6164
▁sorrow	-8.61764
▁years	-8.62239
▁further	-8.62255
▁mercy	-8.62262
▁drink	-8.62416
▁work	-8.62459
▁free	-8.6262
▁uncle	-8.63489
es	-8.6356
▁yes	-8.63632
▁cut	-8.63702
▁loved	-8.63847
▁strong	-8.6387
▁)	-8.63966
▁gentlemen	-8.64088
▁honour	-8.64527
▁maid	-8.64549
▁music	-8.64998
▁sake	-8.65007
▁grave	-8.65408
▁virtue	-8.65493
▁either	-8.65941
▁because	-8.65945
▁gracious	-8.65948
▁need	-8.66054
▁known	-8.66318
▁yours	-8.66879
▁patience	-8.66885
▁lead	-8.67238
▁voice	-8.67423
▁wise	-8.67602
▁hard	-8.68089
▁fit	-8.68995
▁doubt	-8.69019
▁weep	-8.69138
▁kiss	-8.69318
▁bound	-8.69333
▁trust	-8.69489
▁proud	-8.69666
▁cassio	-8.69769
▁given	-8.70066
▁heavy	-8.7076
▁knows	-8.71117
▁late	-8.71632
▁certain	-8.7164
▁merry	-8.71744
▁holy	-8.71901
▁sound	-8.72134
▁withal	-8.72318
▁knave	-8.72352
▁fly	-8.72534
▁pass	-8.72544
▁dream	-8.72571
▁brought	-8.7274
▁question	-8.72741
▁women	-8.72747
▁praise	-8.73232
▁moon	-8.73269
▁fault	-8.73398
▁four	-8.73723
▁fie	-8.7374
▁knew	-8.7375
▁goes	-8.73777
▁appear	-8.74212
▁content	-8.7423
▁pleasure	-8.74383
▁soldier	-8.74425
▁called	-8.74526
▁fare	-8.75263
▁foot	-8.75286
ous	-8.75382
▁strike	-8.7554
▁black	-8.75647
▁born	-8.75752
▁bless	-8.76429
▁hell	-8.76476
▁touch	-8.76618
▁straight	-8.76842
▁almost	-8.76843
▁coming	-8.7689
▁sing	-8.77195
▁haste	-8.77829
▁report	-8.77837
▁kate	-8.77896
▁ground	-8.779
▁arms	-8.78137
a	-8.78306
▁eat	-8.78342
▁serve	-8.78565
▁water	-8.78667
▁took	-8.78966
▁married	-8.7897
▁gold	-8.78985
▁course	-8.79455
▁ears	-8.79757
▁sin	-8.79996
▁justice	-8.80613
▁just	-8.80835
▁sad	-8.80871
▁dog	-8.80875
▁canst	-8.81096
▁enemy	-8.81122
▁common	-8.81893
▁deep	-8.82006
▁e	-8.82157
▁claudio	-8.82221
▁next	-8.82221
▁harry	-8.82223
▁sirrah	-8.82224
▁arm	-8.82674
▁today	-8.82694
▁watch	-8.82861
▁ring	-8.83227
▁duty	-8.83332
▁fetch	-8.83332
▁lucentio	-8.83333
▁rich	-8.835
▁behold	-8.83583
▁captain	-8.84142
▁ask	-8.8419
▁already	-8.84455
▁themselves	-8.84455
▁having	-8.84457
▁lest	-8.84569
▁command	-8.84729
▁side	-8.85368
▁excellent	-8.85484
▁twenty	-8.85619
▁beat	-8.85636
▁soon	-8.85746
▁loves	-8.85895
al	-8.86173
▁walk	-8.86294
▁deny	-8.86511
▁flesh	-8.86523
▁deed	-8.86724
▁hark	-8.86741
▁morning	-8.8679
▁wherein	-8.86813
▁grow	-8.87415
▁de	-8.87445
▁spoke	-8.87524
▁hearts	-8.87651
▁woe	-8.87676
▁signior	-8.87904
▁richard	-8.87905
▁methinks	-8.87912
▁wherefore	-8.87934
▁base	-8.88193
▁speech	-8.89037
▁liege	-8.89084
▁sick	-8.89128
▁ye	-8.89784
twas	-8.90286
▁unless	-8.90342
▁past	-8.90432
▁hours	-8.91195
▁attend	-8.91255
▁pay	-8.91286
▁self	-8.91476
▁french	-8.91478
eth	-8.92081
▁hot	-8.92446
▁pluck	-8.92493
▁point	-8.92583
▁note	-8.92604
▁anon	-8.92841
▁bad	-8.93236
▁count	-8.93707
▁slave	-8.93769
▁bosom	-8.93778
▁servant	-8.93805
▁ten	-8.94569
▁yield	-8.9459
▁murder	-8.94646
▁suit	-8.94838
▁open	-8.94883
▁bold	-8.94933
▁oath	-8.95072
▁children	-8.95182
▁mouth	-8.95249
▁ready	-8.95289
▁stands	-8.95789
▁confess	-8.9622
▁become	-8.96412
▁country	-8.96444
▁hamlet	-8.96447
▁fell	-8.96464
▁presently	-8.96632
▁fast	-8.97276
▁deliver	-8.97522
▁soft	-8.97529
▁pale	-8.97698
▁needs	-8.98314
▁teach	-8.98501
▁brave	-8.98569
▁person	-8.98792
▁office	-8.98908
▁antonio	-8.99026
▁behind	-8.99026
▁letters	-8.99111
▁lips	-8.99516
▁met	-8.99596
▁learn	-8.99944
▁wars	-9.0005
▁wonder	-9.00268
▁cassius	-9.00342
▁morrow	-9.00435
!"	-9.00926
em	-9.01251
▁hair	-9.01544
▁sport	-9.0155
▁throw	-9.01655
re	-9.01707
▁force	-9.01813
▁lords	-9.01967
▁ah	-9.02086
▁mock	-9.02807
▁passion	-9.02882
▁sense	-9.0298
▁angelo	-9.03033
▁highness	-9.03072
▁white	-9.03517
▁counsel	-9.03614
▁traitor	-9.04396
▁five	-9.04406
▁often	-9.04421
▁shake	-9.04548
▁longer	-9.04807
▁heavens	-9.04863
▁wouldst	-9.05486
▁glad	-9.0566
▁fashion	-9.05683
▁year	-9.05763
▁lack	-9.06724
▁speed	-9.0679
▁tender	-9.06848
▁write	-9.0685
▁chamber	-9.06945
▁jew	-9.07203
▁action	-9.07236
▁rage	-9.07335
▁dull	-9.0761
▁thanks	-9.07733
i	-9.08132
▁want	-9.08224
▁act	-9.08361
▁valiant	-9.08517
▁hundred	-9.08623
twere	-9.08623
▁choose	-9.08625
▁troth	-9.08626
▁field	-9.08676
▁besides	-9.08898
▁beard	-9.0932
▁quick	-9.09937
▁gloucester	-9.10071
▁sovereign	-9.10071
ixt	-9.10082
▁knight	-9.10141
▁killed	-9.10469
▁entreat	-9.11155
▁second	-9.11201
▁seems	-9.11226
o	-9.11292
▁english	-9.11531
▁cast	-9.11576
▁loving	-9.11591
▁whole	-9.11611
▁tale	-9.11646
sings	-9.12073
▁souls	-9.12424
▁nurse	-9.12674
▁weak	-9.12833
▁vile	-9.12936
▁strength	-9.13005
▁martius	-9.13035
▁sworn	-9.13036
▁pompey	-9.13037
▁friar	-9.13037
▁green	-9.13043
▁worship	-9.1308
▁judgment	-9.13084
ies	-9.13208
▁steal	-9.13707
▁feel	-9.14179
▁promise	-9.144
▁noise	-9.14543
▁whilst	-9.1455
▁living	-9.14569
▁shallow	-9.14573
▁ta	-9.14587
▁fine	-9.14595
▁measure	-9.14744
▁writ	-9.14991
▁t	-9.15175
▁wild	-9.15751
▁plain	-9.15969
▁marriage	-9.15977
▁quarrel	-9.15978
▁respect	-9.16007
▁move	-9.16011
▁health	-9.16082
▁whether	-9.16088
▁city	-9.1609
▁edward	-9.16095
▁monster	-9.16181
▁offer	-9.16229
▁door	-9.16471
▁form	-9.17126
▁revenge	-9.17133
▁masters	-9.17393
us	-9.17482
▁foolish	-9.17573
▁loss	-9.17649
▁worst	-9.17654
▁anything	-9.17656
▁making	-9.1769
▁begin	-9.1783
▁hero	-9.18042
▁spirits	-9.18102
▁grant	-9.18775
▁lend	-9.18855
within	-9.1897
"?	-9.18974
▁saint	-9.19001
▁judge	-9.19065
▁small	-9.19241
▁buy	-9.1925
▁awhile	-9.19251
▁pains	-9.20009
l	-9.20294
▁laugh	-9.20366
▁ancient	-9.2084
▁pretty	-9.20851
▁town	-9.2102
▁beg	-9.21222
▁win	-9.21729
▁issue	-9.22224
▁understand	-9.22269
▁chance	-9.22332
▁fortunes	-9.22336
▁safe	-9.22426
▁stood	-9.22491
▁dinner	-9.22493
▁conscience	-9.22591
▁subject	-9.22769
▁case	-9.2277
ion	-9.23462
▁order	-9.23605
▁oft	-9.23931
▁others	-9.23963
▁died	-9.24057
▁speaks	-9.24243
▁along	-9.24312
▁gives	-9.24335
▁paper	-9.24364
▁toward	-9.24713
▁turned	-9.24714
▁blame	-9.255
▁poison	-9.25513
▁parts	-9.25646
▁close	-9.25649
▁seven	-9.25829
▁ourselves	-9.25852
▁forget	-9.25863
▁fresh	-9.25974
▁among	-9.26031
able	-9.26094
▁rogue	-9.26155
▁lion	-9.26168
▁hide	-9.26181
▁calls	-9.26183
▁fearful	-9.26355
▁going	-9.26499
▁least	-9.27577
▁adieu	-9.27579
▁witness	-9.27615
▁above	-9.27644
ment	-9.27681
▁wine	-9.27698
▁wisdom	-9.27758
▁plague	-9.27844
▁battle	-9.27894
▁deeds	-9.27896
▁thence	-9.27997
ful	-9.28832
▁feed	-9.29101
▁jest	-9.29155
▁dark	-9.29204
▁fill	-9.29291
▁quickly	-9.29447
▁mortal	-9.29593
▁bond	-9.29697
▁affection	-9.29727
▁woo	-9.29832
▁faults	-9.2995
▁book	-9.30507
▁low	-9.30874
▁brief	-9.31021
▁quiet	-9.31093
▁alack	-9.31116
▁bardolph	-9.31116
▁christian	-9.31117
▁went	-9.31237
▁scorn	-9.31269
▁summer	-9.31425
▁kingdom	-9.31536
▁double	-9.31661
▁shows	-9.32187
▁silence	-9.32551
▁bears	-9.32611
▁enter	-9.32804
▁blind	-9.32924
▁valentine	-9.32935
▁folly	-9.32935
▁herself	-9.32935
▁slain	-9.32935
▁piece	-9.32999
▁hadst	-9.33107
▁looked	-9.33144
▁weary	-9.3328
ry	-9.3331
▁heir	-9.33363
▁mighty	-9.33382
▁fools	-9.34151
▁short	-9.34503
▁got	-9.34624
▁march	-9.34774
▁enemies	-9.34786
▁presence	-9.34786
▁alive	-9.34787
▁york	-9.34789
▁rosalind	-9.34794
▁iago	-9.3481
▁shape	-9.34848
▁jack	-9.35212
▁humor	-9.35241
ers	-9.35762
▁awake	-9.35823
▁banish	-9.36497
▁swift	-9.36547
▁sorry	-9.36673
▁laid	-9.36682
▁dangerous	-9.36688
▁moor	-9.36699
▁guard	-9.36816
▁shepherd	-9.37022
▁favor	-9.37165
▁shadow	-9.37197
▁wits	-9.37209
▁heads	-9.3741
like	-9.38094
▁perceive	-9.38279
▁burn	-9.38524
▁drunk	-9.38573
▁scarce	-9.38598
▁percy	-9.38599
▁commend	-9.38885
▁purse	-9.39125
gainst	-9.39159
▁due	-9.39306
▁fat	-9.39516
▁lo	-9.39748
▁seal	-9.40117
▁dispatch	-9.40331
▁wood	-9.40379
ring	-9.404
▁patient	-9.40459
▁cheer	-9.40459
▁owe	-9.40476
▁angry	-9.40557
▁obey	-9.40567
▁forgot	-9.40592
▁honorable	-9.40598
▁excuse	-9.40661
▁cross	-9.40711
▁stop	-9.41017
▁coward	-9.41049
▁proof	-9.41087
▁hurt	-9.41108
▁soldiers	-9.41226
▁stir	-9.41834
the	-9.41914
▁unti	-9.42039
▁taste	-9.42124
▁consent	-9.42374
▁prison	-9.42437
▁valor	-9.42502
▁thither	-9.42557
▁proteus	-9.4256
▁sylvia	-9.4256
▁kept	-9.4256
▁thrice	-9.42561
▁rain	-9.42574
▁try	-9.42584
▁feast	-9.42625
▁taken	-9.43105
▁beast	-9.43112
▁danger	-9.43114
▁chain	-9.43131
▁carry	-9.44342
▁virtuous	-9.44476
▁cunning	-9.44598
▁lordship	-9.44635
▁golden	-9.44645
▁honesty	-9.44854
▁receive	-9.44939
▁harm	-9.44965
▁curse	-9.44972
▁opinion	-9.45228
▁fiend	-9.45232
ish	-9.45347
▁forward	-9.454
▁stars	-9.45473
▁re	-9.4583
▁lover	-9.46246
▁round	-9.46581
▁six	-9.46661
▁smile	-9.46675
▁whither	-9.46681
▁third	-9.46689
▁ladies	-9.46701
▁neck	-9.46893
▁red	-9.46964
▁labor	-9.47008
▁ride	-9.47171
▁manner	-9.47326
▁treason	-9.47382
▁brain	-9.47437
▁greater	-9.47748
▁hal	-9.48115
▁approach	-9.4853
▁bitter	-9.48634
▁falstaff	-9.48809
▁lysander	-9.48809
▁naught	-9.48809
▁knowledge	-9.48812
▁drawn	-9.48944
▁tongues	-9.49003
▁suffer	-9.49045
▁grows	-9.49185
▁blow	-9.49302
▁hanged	-9.4934
▁hearing	-9.49358
▁offense	-9.49515
▁breast	-9.49529
▁creature	-9.49582
▁post	-9.49584
▁sometime	-9.49615
▁flower	-9.49703
▁flatter	-9.50586
▁nose	-9.50638
▁bolingbroke	-9.50983
▁precious	-9.50983
▁pride	-9.50983
▁benedick	-9.50986
▁jove	-9.50988
▁view	-9.50991
▁tybalt	-9.50998
▁dry	-9.51006
▁tune	-9.51454
▁tyrant	-9.51715
▁prayers	-9.51921
▁wall	-9.51944
▁la	-9.52179
▁manners	-9.52412
▁match	-9.53004
▁color	-9.53087
▁pyramus	-9.53205
▁food	-9.53205
▁whereof	-9.5321
▁slander	-9.53245
▁quite	-9.53269
▁madness	-9.53286
▁proceed	-9.53458
▁legs	-9.53953
▁winter	-9.54012
▁widow	-9.54083
▁wast	-9.54085
▁roman	-9.54094
▁trouble	-9.54123
▁bare	-9.54712
▁lovers	-9.54878
▁proper	-9.55042
▁visit	-9.5518
▁rough	-9.55372
▁twice	-9.55478
▁aught	-9.55478
▁bright	-9.55481
▁fond	-9.55482
▁sack	-9.55482
▁nine	-9.55497
▁hail	-9.55502
▁lived	-9.5557
▁wert	-9.55646
▁borne	-9.55706
▁moved	-9.55973
▁knock	-9.56168
▁rascal	-9.56247
▁amen	-9.566
on	-9.56728
▁le	-9.57141
▁endure	-9.57495
reads	-9.57588
▁cruel	-9.57678
▁church	-9.57782
▁defend	-9.578
▁bianca	-9.57803
▁hermia	-9.57803
▁monstrous	-9.57803
▁thief	-9.57803
▁juliet	-9.57807
▁ducats	-9.57951
▁bones	-9.57952
▁p	-9.58093
▁affairs	-9.58118
▁effect	-9.58509
▁tear	-9.58558
in	-9.58623
▁occasion	-9.58695
▁shore	-9.58731
▁brow	-9.5876
▁voices	-9.58833
▁keeps	-9.59888
▁offend	-9.59896
▁en	-9.59941
▁rude	-9.60086
▁sudden	-9.60087
▁princes	-9.60147
▁idle	-9.60169
▁bassanio	-9.60184
▁lieutenant	-9.60184
▁supper	-9.60196
▁wide	-9.60211
▁asleep	-9.60237
▁yonder	-9.60242
▁whence	-9.60259
▁terms	-9.60551
▁kings	-9.60557
▁promised	-9.6073
▁mayst	-9.60799
▁rise	-9.61073
▁meat	-9.61082
▁birth	-9.61099
▁motion	-9.61105
▁won	-9.61989
▁prepare	-9.62297
▁fain	-9.6239
▁custom	-9.62408
▁fish	-9.62475
▁leisure	-9.62498
▁struck	-9.62599
▁account	-9.62623
▁macbeth	-9.62623
▁possible	-9.6263
▁former	-9.62691
▁pure	-9.62838
▁greatness	-9.62853
▁counterfeit	-9.629
▁led	-9.63137
▁heat	-9.63459
▁advantage	-9.63657
▁earl	-9.63695
▁list	-9.63696
▁sever	-9.64536
▁aside	-9.64781
▁broke	-9.64799
▁perfect	-9.64876
▁catch	-9.64878
▁fled	-9.65054
▁clarence	-9.65123
▁cleopatra	-9.65123
▁demetrius	-9.65123
▁dromio	-9.65123
▁sharp	-9.65123
▁yourselves	-9.65123
▁natural	-9.65127
▁spent	-9.65128
▁liberty	-9.65128
▁forgive	-9.65129
▁cried	-9.65135
▁wretched	-9.65289
▁banished	-9.65391
▁held	-9.65556
man	-9.65557
▁blessed	-9.65626
▁bow	-9.6563
▁beggar	-9.65871
▁request	-9.65878
▁seeming	-9.659
▁forbid	-9.65992
▁delight	-9.66004
▁quo	-9.66143
▁cup	-9.66169
▁used	-9.66234
▁messenger	-9.6626
▁vice	-9.66263
▁condition	-9.66266
▁drop	-9.66293
▁angel	-9.66298
▁cheek	-9.66302
▁ship	-9.66318
▁song	-9.66414
▁goodly	-9.66909
▁desires	-9.6719
▁towards	-9.67348
▁depart	-9.67421
▁consider	-9.67455
▁wait	-9.67459
▁steel	-9.67461
▁few	-9.67563
▁edmund	-9.67687
▁disposition	-9.67688
▁story	-9.67688
▁spend	-9.67688
▁vain	-9.67693
▁glass	-9.67699
▁army	-9.67864
▁loud	-9.67879
▁becomes	-9.67911
▁horses	-9.6798
▁clouds	-9.68097
▁blessing	-9.68237
▁repent	-9.68391
▁rank	-9.68492
▁fail	-9.68562
▁pound	-9.68803
▁sail	-9.68879
▁remain	-9.6892
▁wounds	-9.68995
ious	-9.69141
tw	-9.6916
▁toby	-9.69207
▁blows	-9.69353
▁damn	-9.69385
▁takes	-9.69474
▁pleased	-9.69687
▁doors	-9.701
▁fellows	-9.70105
▁rare	-9.70184
▁blunt	-9.70195
▁gross	-9.70221
▁sum	-9.70249
▁choice	-9.70319
▁pistol	-9.70319
▁safety	-9.7032
▁kent	-9.70322
▁fought	-9.70331
▁guilty	-9.70359
▁outward	-9.7037
▁damned	-9.70522
▁deserved	-9.7056
▁sooner	-9.70579
▁wont	-9.70664
▁heels	-9.70676
▁waste	-9.70925
▁ways	-9.7132
▁bawd	-9.71352
▁hid	-9.71354
▁title	-9.71613
▁stone	-9.71707
▁sometimes	-9.72036
rous	-9.72098
▁mend	-9.72158
▁d	-9.72781
▁whiles	-9.72922
▁large	-9.73001
▁camillo	-9.73022
▁hortensio	-9.73022
▁northumberland	-9.73022
▁remembrance	-9.73022
▁tranio	-9.73026
▁beatrice	-9.73026
▁quality	-9.73027
▁broken	-9.73063
▁thisbe	-9.73218
▁servants	-9.73309
▁weeping	-9.73646
▁wound	-9.73924
▁hie	-9.73977
▁gain	-9.74057
▁vow	-9.74187
▁simple	-9.74225
▁sort	-9.74372
▁gate	-9.74448
▁officer	-9.74471
ve	-9.74504
and	-9.74509
▁powers	-9.74842
▁forest	-9.75368
clock	-9.75523
▁s	-9.75568
▁jealous	-9.75716
▁crave	-9.75786
▁egypt	-9.75794
▁absence	-9.75799
▁melancholy	-9.75799
▁venice	-9.758
▁peril	-9.758
▁courtesy	-9.75804
▁horatio	-9.75804
▁bottom	-9.75811
▁paid	-9.75812
▁breathe	-9.7583
▁spoken	-9.75894
▁cost	-9.75902
▁grown	-9.7594
▁dearest	-9.76164
▁wash	-9.76757
▁pain	-9.76937
▁clear	-9.76963
▁reasons	-9.77329
▁tent	-9.77723
▁divine	-9.77773
▁saying	-9.77812
▁stuff	-9.7816
▁weigh	-9.78273
▁thrust	-9.78375
▁private	-9.78549
▁constant	-9.78561
▁protest	-9.78642
▁easy	-9.78657
▁niece	-9.78657
▁petruchio	-9.78657
▁remedy	-9.78657
▁richmond	-9.78657
▁thrive	-9.78657
▁vantage	-9.78657
▁plot	-9.78659
▁malvolio	-9.78661
▁womb	-9.78661
▁main	-9.7867
▁fright	-9.7867
▁doom	-9.78679
▁forbear	-9.7869
▁cries	-9.78706
?"	-9.79045
▁received	-9.79166
▁countenance	-9.79252
▁treasure	-9.79333
▁followed	-9.79656
▁appears	-9.79658
▁sheep	-9.79764
▁doing	-9.79894
▁discourse	-9.79936
▁secret	-9.80051
▁bastard	-9.80058
▁bark	-9.80082
▁smell	-9.80137
▁evil	-9.80194
▁top	-9.80522
le	-9.8076
▁spite	-9.8086
▁bar	-9.81072
▁dies	-9.81152
▁throne	-9.81184
▁store	-9.8122
▁disgrace	-9.81264
▁instant	-9.81501
▁wealth	-9.81511
▁humble	-9.81574
▁naked	-9.81578
▁lean	-9.81592
▁ignorant	-9.81598
▁glory	-9.81598
▁desdemona	-9.81598
▁wench	-9.81599
▁happiness	-9.81602
▁hastings	-9.8163
twill	-9.81783
▁wrongs	-9.8192
▁wake	-9.82233
▁served	-9.8251
▁sigh	-9.82585
▁encounter	-9.8282
▁daughters	-9.82968
▁gown	-9.82976
▁gates	-9.83097
▁particular	-9.8316
ation	-9.83171
▁dagger	-9.83206
▁crowns	-9.83693
rs	-9.83762
▁paris	-9.8407
▁begins	-9.84248
▁meaning	-9.84303
▁je	-9.84316
giving	-9.84354
▁despair	-9.8437
▁wretch	-9.84407
▁silver	-9.84415
▁challenge	-9.84536
gives	-9.8455
▁quit	-9.84555
▁buckingham	-9.84628
▁desperate	-9.84628
▁despite	-9.84628
▁perchance	-9.84628
▁tarry	-9.8463
▁barren	-9.84631
▁guess	-9.84631
▁hereafter	-9.84632
▁pour	-9.84632
▁shut	-9.84633
▁spake	-9.84633
▁eight	-9.84634
▁denied	-9.84638
▁memory	-9.84639
▁early	-9.85101
▁learned	-9.85117
m	-9.85127
▁returned	-9.8534
▁follows	-9.85673
▁knees	-9.85686
▁breed	-9.85702
▁embrace	-9.85717
by	-9.85758
▁innocent	-9.85849
▁frown	-9.8605
▁kneel	-9.86071
▁intend	-9.86093
▁stones	-9.86217
▁argument	-9.86234
▁storm	-9.86265
▁hill	-9.86374
▁liest	-9.86434
▁spring	-9.86518
▁cap	-9.86625
▁holds	-9.86991
▁drown	-9.87322
▁slow	-9.87496
▁ransom	-9.87527
▁entertain	-9.87744
▁monsieur	-9.87753
▁skill	-9.87757
▁forsworn	-9.87759
▁trial	-9.87762
▁mistake	-9.87765
▁dust	-9.87787
▁kindness	-9.87882
▁deceived	-9.87943
▁cock	-9.88066
▁host	-9.88558
▁betw	-9.88566
▁chide	-9.88703
▁dance	-9.8904
▁dwell	-9.89299
▁finger	-9.8931
▁thunder	-9.8932
▁complexion	-9.89325
▁thinking	-9.89349
▁tomb	-9.89415
▁neighbor	-9.89425
▁trumpet	-9.89573
▁swords	-9.89643
▁star	-9.89671
▁lust	-9.89925
an	-9.90436
ting	-9.90467
▁brothers	-9.90595
▁regard	-9.90759
▁prize	-9.90847
▁wicked	-9.90961
▁always	-9.90979
▁durst	-9.90979
▁empty	-9.90979
▁lancaster	-9.90979
▁orlando	-9.90979
▁othello	-9.90979
▁taught	-9.90979
▁pair	-9.90979
▁wanton	-9.90979
▁teeth	-9.9098
▁vincentio	-9.90984
▁although	-9.90984
▁room	-9.91001
▁modesty	-9.91042
▁claim	-9.91074
▁weight	-9.91138
▁shortly	-9.91148
▁wives	-9.91162
de	-9.91163
▁oaths	-9.91286
▁freely	-9.91327
▁ripe	-9.91624
▁sooth	-9.91649
▁party	-9.91686
▁turns	-9.91766
▁tall	-9.91768
▁determine	-9.92259
▁hopes	-9.92277
▁cure	-9.92469
▁merit	-9.92644
▁cheeks	-9.92755
age	-9.92824
▁boys	-9.9284
▁season	-9.92892
▁gift	-9.9292
▁romans	-9.92988
▁rose	-9.93031
▁prisoner	-9.93103
▁sits	-9.93267
h	-9.93757
▁hereford	-9.93769
▁warm	-9.93793
▁practice	-9.93858
▁assure	-9.94009
▁bestow	-9.94115
▁lear	-9.94226
▁according	-9.94268
▁smooth	-9.94286
▁convey	-9.94312
▁twelve	-9.94312
▁chief	-9.94312
▁leonato	-9.94312
▁london	-9.94312
▁norfolk	-9.94312
▁roderigo	-9.94312
▁portia	-9.94313
▁flight	-9.94313
▁unknown	-9.94313
▁whoreson	-9.94314
▁undone	-9.94316
▁knife	-9.94317
▁salt	-9.94321
▁fancy	-9.94327
▁fury	-9.94328
▁gentlewoman	-9.94332
▁abroad	-9.94339
▁francis	-9.94344
▁doctor	-9.94356
▁sickness	-9.94385
▁assured	-9.94648
▁therein	-9.94652
▁garments	-9.94716
▁deadly	-9.95354
▁fingers	-9.9577
▁anger	-9.95876
▁abuse	-9.9599
▁vows	-9.96009
▁griefs	-9.96156
▁tower	-9.96199
▁offence	-9.96293
▁intent	-9.96318
▁table	-9.96337
▁trick	-9.96367
▁worm	-9.96368
▁walls	-9.96428
▁charm	-9.96491
▁flowers	-9.965
▁bearing	-9.96981
▁deal	-9.96994
▁spare	-9.97397
▁dis	-9.97457
▁enjoy	-9.97544
▁sway	-9.97548
▁perform	-9.9755
▁minds	-9.97749
▁single	-9.97752
▁signor	-9.97754
▁gaunt	-9.97758
▁wales	-9.97761
▁authority	-9.97762
▁constable	-9.97762
▁farther	-9.97762
▁henry	-9.97762
▁swore	-9.97763
▁unhappy	-9.97764
▁reverence	-9.97766
▁satisfied	-9.97767
▁repair	-9.97768
▁ladyship	-9.97775
▁avoid	-9.97782
▁loose	-9.97812
▁fiery	-9.97816
▁civil	-9.97819
▁drowned	-9.9799
▁allow	-9.98407
▁heavenly	-9.98844
▁names	-9.98874
▁loath	-9.98923
▁sleeping	-9.99066
▁cat	-9.99541
▁bleed	-9.99631
▁edge	-9.99684
▁services	-9.99703
▁number	-9.99719
▁bade	-9.99735
▁picture	-9.99766
▁habit	-9.9977
▁stomach	-9.99849
▁desert	-9.99897
▁throat	-9.99915
▁image	-9.9993
▁jewel	-9.99933
or	-10.0005
▁apt	-10.0008
▁leaves	-10.006
▁utter	-10.0074
▁stain	-10.0077
ance	-10.0082
▁sons	-10.0083
▁big	-10.0088
▁rule	-10.0101
▁fears	-10.011
▁greet	-10.0111
▁fruit	-10.0123
▁sacr	-10.0126
▁advice	-10.0133
▁capitol	-10.0133
▁humbly	-10.0133
▁mirth	-10.0133
▁perhaps	-10.0133
▁kinsman	-10.0133
▁tidings	-10.0133
▁violent	-10.0133
▁julia	-10.0134
▁seeing	-10.0137
▁dreadful	-10.0137
▁buried	-10.0138
▁beloved	-10.0139
▁plead	-10.0142
▁bred	-10.0145
▁tribunes	-10.0151
▁travel	-10.016
▁abused	-10.0172
▁prayer	-10.0187
▁trade	-10.0217
▁ran	-10.027
▁saved	-10.0283
▁triumph	-10.0285
▁tempt	-10.0298
▁deserve	-10.0301
▁sentence	-10.0303
▁meant	-10.0305
▁line	-10.0319
▁conceit	-10.0323
▁sweat	-10.0324
▁rob	-10.034
▁pocket	-10.0352
▁figure	-10.0358
▁maiden	-10.0362
▁debt	-10.0364
▁speaking	-10.0364
▁runs	-10.0367
▁tree	-10.0369
▁brings	-10.0402
▁profit	-10.041
▁seat	-10.0426
▁express	-10.0459
▁frame	-10.047
▁wander	-10.047
▁earnest	-10.0495
▁tedious	-10.0502
▁credit	-10.0503
▁baptista	-10.0504
▁benefit	-10.0504
▁douglas	-10.0504
▁familiar	-10.0504
▁rotten	-10.0504
▁commission	-10.0504
▁vengeance	-10.0504
▁hazard	-10.0504
▁charmian	-10.0504
▁contract	-10.0504
▁peter	-10.0505
▁mount	-10.0505
▁slight	-10.0507
▁bought	-10.0507
▁painted	-10.0509
▁haply	-10.051
▁drive	-10.0513
▁m	-10.0517
▁belly	-10.0518
▁offended	-10.0536
▁hardly	-10.0542
▁et	-10.0545
▁join	-10.0558
▁tame	-10.0563
▁delivered	-10.0567
▁weeds	-10.0574
▁partly	-10.0608
no	-10.0627
▁changed	-10.0645
▁dreams	-10.0646
▁mar	-10.0652
▁played	-10.0662
morrow	-10.0666
▁fairly	-10.0671
▁answered	-10.0685
▁maids	-10.0689
▁drops	-10.0712
▁gall	-10.0716
▁parted	-10.0725
▁faces	-10.0734
▁girl	-10.0736
▁rid	-10.0738
▁ghost	-10.0741
▁flood	-10.0743
▁rock	-10.0743
▁wing	-10.0744
▁bird	-10.0748
▁lip	-10.0748
▁month	-10.075
▁foe	-10.0754
▁brains	-10.0755
▁suppose	-10.0772
▁shine	-10.0788
▁withdraw	-10.0797
▁subjects	-10.0822
▁delay	-10.0835
▁roar	-10.0846
▁fame	-10.085
▁success	-10.0862
▁ruin	-10.0867
▁modest	-10.087
he	-10.0875
▁execution	-10.0876
▁herald	-10.0888
▁ambition	-10.0888
▁appetite	-10.0888
▁beyond	-10.0888
▁handkerchief	-10.0888
▁perforce	-10.0888
▁westmoreland	-10.0888
▁caius	-10.0888
▁envy	-10.0888
▁malice	-10.0888
▁charity	-10.0888
▁cupid	-10.0888
▁unnatural	-10.0888
▁coriolanus	-10.0889
▁laertes	-10.0889
▁everything	-10.0889
▁conjure	-10.0922
▁mere	-10.0923
▁giving	-10.0925
▁forever	-10.0939
▁streets	-10.0957
ld	-10.0979
▁stays	-10.0995
▁dearly	-10.1
▁blush	-10.1015
▁fairy	-10.1025
▁isle	-10.1028
▁fate	-10.1031
▁lovely	-10.1044
▁sighs	-10.1069
▁sayest	-10.1072
▁meeting	-10.1072
▁falls	-10.1075
▁pen	-10.1105
▁unfold	-10.1126
▁dew	-10.1127
▁winds	-10.1135
▁tailor	-10.1137
▁knee	-10.1137
▁circumstance	-10.1143
▁methought	-10.1143
▁glove	-10.1146
▁hit	-10.1149
▁window	-10.1151
▁mis	-10.1211
▁flow	-10.1238
▁recover	-10.1257
▁advise	-10.1257
▁except	-10.1264
▁condemn	-10.1267
▁wrath	-10.1274
▁hollow	-10.1286
▁thick	-10.1288
▁afraid	-10.1288
▁banquo	-10.1288
▁lorenzo	-10.1288
▁octavia	-10.1288
▁scene	-10.1288
▁stephano	-10.1288
▁davy	-10.1288
▁special	-10.1288
▁grew	-10.1288
▁midnight	-10.1288
▁hostess	-10.1288
▁snow	-10.1288
▁estate	-10.1289
▁countrymen	-10.1289
▁priest	-10.129
▁launcelot	-10.129
▁visage	-10.129
▁dying	-10.129
▁muse	-10.1291
▁castle	-10.1291
▁shot	-10.1291
▁committed	-10.1291
▁lawful	-10.1304
▁possessed	-10.1305
▁cur	-10.1318
▁suck	-10.1348
▁g	-10.1352
day	-10.137
▁leg	-10.1392
▁dogs	-10.1408
▁able	-10.1435
▁foes	-10.1436
▁numbers	-10.1447
▁add	-10.1467
▁enforce	-10.1495
▁graces	-10.1498
▁crack	-10.1527
▁torment	-10.1548
▁tom	-10.1552
▁verse	-10.1564
▁instrument	-10.1565
▁horn	-10.1566
ity	-10.1627
▁smiles	-10.1637
▁lament	-10.1639
▁sisters	-10.1659
▁cover	-10.1662
▁ease	-10.1662
▁persuade	-10.1672
▁raise	-10.1673
▁discover	-10.1674
shrew	-10.1676
▁compass	-10.1678
▁sink	-10.1678
▁ev	-10.1682
▁firm	-10.1691
▁rash	-10.1693
▁solemn	-10.1698
▁co	-10.17
▁dumb	-10.1702
▁disdain	-10.1704
▁honey	-10.1705
▁absolute	-10.1705
▁aufidius	-10.1705
▁casca	-10.1705
▁impossible	-10.1705
▁lepidus	-10.1705
▁obedience	-10.1705
▁provost	-10.1705
▁reverend	-10.1705
▁sebastian	-10.1705
▁substance	-10.1705
▁thieves	-10.1705
▁trinculo	-10.1705
▁reputation	-10.1705
▁bodies	-10.1705
▁bottle	-10.1706
▁helena	-10.1706
▁traitors	-10.1706
▁betray	-10.1706
▁huge	-10.1706
▁study	-10.1706
▁entertainment	-10.1706
▁mortimer	-10.1707
▁bind	-10.1708
▁darkness	-10.171
▁wedding	-10.1713
ure	-10.1734
▁followers	-10.1738
▁wisely	-10.1748
▁apparel	-10.1764
▁inward	-10.1777
▁woes	-10.1783
▁don	-10.1815
▁hanging	-10.1823
▁belike	-10.1856
▁goodness	-10.1862
▁marks	-10.1865
▁sold	-10.188
▁gifts	-10.1882
▁temper	-10.192
▁brows	-10.1956
▁flat	-10.1956
▁proclaim	-10.1967
▁groan	-10.1972
▁demand	-10.1973
▁cares	-10.1975
▁gallant	-10.1981
▁thane	-10.1982
▁import	-10.1987
▁consul	-10.1988
▁degree	-10.1995
▁stick	-10.1996
▁bite	-10.1998
▁lands	-10.2001
▁odd	-10.2007
▁affections	-10.2041
▁whip	-10.2052
▁seize	-10.2102
▁approve	-10.211
▁bend	-10.2113
▁conduct	-10.2114
▁coz	-10.2124
ate	-10.2129
▁courage	-10.2137
▁cordelia	-10.214
▁grumio	-10.214
▁imagination	-10.214
▁necessity	-10.214
▁padua	-10.214
▁phoebe	-10.214
▁thomas	-10.214
▁addition	-10.214
▁eros	-10.214
▁chaste	-10.214
▁shift	-10.214
▁front	-10.214
▁savage	-10.214
▁acquaintance	-10.214
▁katherine	-10.214
▁margaret	-10.214
▁dozen	-10.214
▁sought	-10.2141
▁gaze	-10.2141
▁discretion	-10.2141
▁flies	-10.2142
▁banishment	-10.2145
▁prey	-10.2146
▁undertake	-10.2146
▁forty	-10.2149
▁willow	-10.215
▁gild	-10.2152
▁citizens	-10.2162
is	-10.217
▁players	-10.2182
▁melt	-10.2182
▁nails	-10.2187
▁offered	-10.2198
▁sat	-10.2204
▁commit	-10.2237
▁forswear	-10.2247
▁drinking	-10.2248
▁crowned	-10.2252
▁ma	-10.2276
▁wronged	-10.2279
▁stretch	-10.2297
▁urge	-10.2299
▁wings	-10.23
men	-10.2314
my	-10.2345
▁stayed	-10.2356
▁officers	-10.2365
scape	-10.2368
▁wink	-10.2388
▁stol	-10.2412
▁confound	-10.2427
▁tremble	-10.2429
▁rhyme	-10.2429
▁spur	-10.2445
▁abide	-10.2445
▁merchant	-10.2445
▁key	-10.2447
▁ends	-10.2454
▁guest	-10.2454
▁stranger	-10.2519
▁armor	-10.254
▁venture	-10.2557
▁direct	-10.2562
▁devise	-10.2562
ary	-10.2565
▁boast	-10.2566
▁school	-10.2569
▁dread	-10.2574
▁miss	-10.2576
▁wants	-10.2577
▁render	-10.2578
▁public	-10.2583
▁isabel	-10.2594
▁absent	-10.2594
▁ariel	-10.2594
▁beauteous	-10.2594
▁behalf	-10.2594
▁gratiano	-10.2594
▁nerissa	-10.2594
▁displeasure	-10.2594
▁emperor	-10.2594
▁gently	-10.2594
▁written	-10.2594
▁milan	-10.2594
▁delicate	-10.2594
▁afeard	-10.2594
▁poins	-10.2594
▁invention	-10.2594
▁wholesome	-10.2595
▁thereof	-10.2596
▁cell	-10.2596
▁aim	-10.2597
▁otherwise	-10.2598
▁charles	-10.2598
▁search	-10.2598
▁sky	-10.2599
▁pinch	-10.2601
▁tide	-10.2601
▁yond	-10.2607
▁sore	-10.2608
▁feet	-10.2611
▁height	-10.2612
▁vouchsafe	-10.2619
▁flame	-10.2631
▁fathers	-10.2634
▁suits	-10.2643
▁tut	-10.2661
▁con	-10.2711
▁aid	-10.2712
rt	-10.2736
▁knowing	-10.276
▁deserves	-10.277
▁charged	-10.2777
ling	-10.2789
▁prisoners	-10.2791
▁showed	-10.2844
▁island	-10.2855
▁crow	-10.2869
▁spit	-10.287
▁prick	-10.2876
▁disease	-10.2894
▁sign	-10.2898
▁ours	-10.2905
▁enterprise	-10.2905
▁serpent	-10.2905
▁vessel	-10.2905
▁minister	-10.2906
▁wears	-10.291
▁burden	-10.2916
▁difference	-10.2919
▁purposes	-10.2921
▁minute	-10.2926
▁mountain	-10.2928
▁boot	-10.293
▁feared	-10.294
▁heed	-10.2957
▁mourn	-10.2966
▁hat	-10.2974
▁whereto	-10.2975
▁equal	-10.298
if	-10.2982
▁princess	-10.3009
▁possess	-10.3018
▁fee	-10.3023
▁censure	-10.3035
▁discharge	-10.3036
▁kin	-10.3041
▁strain	-10.3047
▁destroy	-10.3048
▁whisper	-10.3048
▁maintain	-10.3049
▁esteem	-10.3049
▁garden	-10.305
▁accuse	-10.3056
▁refuse	-10.3056
▁east	-10.3059
▁length	-10.3062
▁c	-10.3064
ay	-10.3068
▁creep	-10.307
▁bohemia	-10.307
▁giddy	-10.307
▁goneril	-10.307
▁gremio	-10.307
▁mowbray	-10.307
▁policy	-10.307
▁satisfaction	-10.307
▁saucy	-10.307
▁weather	-10.307
▁contrary	-10.307
▁denmark	-10.307
▁edgar	-10.307
▁pause	-10.307
▁senate	-10.307
▁catesby	-10.307
▁preparation	-10.307
▁also	-10.307
▁calm	-10.3071
▁meantime	-10.3071
▁couple	-10.3071
▁robin	-10.3071
▁cease	-10.3072
▁stage	-10.3073
▁mass	-10.3073
▁bore	-10.3074
▁worn	-10.3074
▁senators	-10.3074
▁amiss	-10.3075
▁heartily	-10.3078
▁sell	-10.3078
▁directly	-10.3081
▁amazed	-10.3082
▁beaten	-10.3084
▁pursue	-10.3088
▁apace	-10.3095
bury	-10.3096
▁bestowed	-10.31
▁whereon	-10.3101
▁ruled	-10.3117
▁mouths	-10.3117
▁doublet	-10.3118
▁whore	-10.3122
▁north	-10.3126
▁score	-10.313
▁bent	-10.3134
den	-10.3139
▁kindly	-10.3161
▁armed	-10.3164
▁asked	-10.3168
▁greatest	-10.3169
▁sides	-10.3175
▁villains	-10.3184
▁looking	-10.3185
▁seemed	-10.3204
▁les	-10.3208
▁hey	-10.3213
▁sleeps	-10.3228
▁mars	-10.3229
▁horns	-10.3233
▁months	-10.3247
▁lines	-10.3255
▁virtues	-10.3307
▁sour	-10.331
▁corn	-10.3355
▁clerk	-10.3384
▁start	-10.34
▁press	-10.3405
▁scot	-10.3406
▁device	-10.3406
▁attempt	-10.3414
▁character	-10.3415
▁brook	-10.342
▁faint	-10.3423
▁companion	-10.3427
nt	-10.3428
▁babe	-10.3429
▁mile	-10.3429
▁stroke	-10.3429
▁pace	-10.3437
▁books	-10.3454
▁inform	-10.3488
▁finds	-10.3528
▁chase	-10.353
▁record	-10.3532
it	-10.3542
▁expect	-10.3543
▁forfeit	-10.3544
lief	-10.3546
▁leap	-10.355
▁morn	-10.355
▁redeem	-10.3556
▁cambio	-10.357
▁cawdor	-10.357
▁ceremony	-10.357
▁compare	-10.357
▁cyprus	-10.357
▁george	-10.357
▁ophelia	-10.357
▁thurio	-10.357
▁zounds	-10.357
▁naples	-10.357
▁native	-10.357
▁pitiful	-10.357
▁athens	-10.3571
▁shook	-10.3571
▁freedom	-10.3571
▁dish	-10.3571
▁ashamed	-10.3571
▁favour	-10.3571
▁twain	-10.3571
▁level	-10.3571
▁friendship	-10.3572
▁lent	-10.3572
▁began	-10.3572
▁goose	-10.3573
▁lift	-10.3573
▁rebellion	-10.3573
▁victory	-10.3574
▁whipped	-10.3574
▁aboard	-10.3574
▁warlike	-10.3576
▁senses	-10.358
▁yellow	-10.3587
▁serves	-10.3606
▁urged	-10.3608
▁lad	-10.3608
▁rouse	-10.3612
▁justly	-10.3616
▁soundly	-10.362
▁clock	-10.3621
▁herein	-10.3621
▁shown	-10.3624
▁stronger	-10.3633
▁feeling	-10.3638
▁weapons	-10.3661
▁darest	-10.3669
▁thinks	-10.367
▁friendly	-10.3698
▁waters	-10.3724
▁port	-10.3738
▁shoulders	-10.3741
▁remove	-10.3763
▁pawn	-10.3766
▁knaves	-10.3769
▁sounds	-10.377
▁bell	-10.378
▁pierce	-10.3868
▁decay	-10.3908
▁grieve	-10.392
▁tread	-10.3931
▁elder	-10.3933
▁tells	-10.3938
▁mischief	-10.394
▁conclusion	-10.3945
▁check	-10.3946
▁behavior	-10.3948
▁que	-10.3955
▁iron	-10.3962
▁provide	-10.3986
▁pate	-10.3992
▁profess	-10.402
▁rail	-10.405
▁conceive	-10.4061
▁root	-10.4068
▁fleet	-10.4068
blood	-10.4071
▁flout	-10.4071
▁punish	-10.4073
▁contempt	-10.4074
▁train	-10.4075
▁ones	-10.4083
▁unkind	-10.4084
▁smiling	-10.4084
▁grievous	-10.4085
▁human	-10.409
▁rush	-10.4095
▁audience	-10.4097
▁dignity	-10.4097
▁fierce	-10.4097
▁harsh	-10.4097
▁ignorance	-10.4097
▁journey	-10.4097
▁litio	-10.4097
▁mercutio	-10.4097
▁prologue	-10.4097
▁tyranny	-10.4097
▁bounty	-10.4097
▁language	-10.4097
▁slept	-10.4097
▁assurance	-10.4097
▁gait	-10.4097
▁opposite	-10.4097
▁moral	-10.4097
▁pleasant	-10.4097
▁access	-10.4097
▁nobly	-10.4097
▁coxcomb	-10.4098
▁feeble	-10.4098
▁grey	-10.4098
▁perish	-10.4098
▁thirty	-10.4099
▁injury	-10.41
▁topas	-10.4101
▁redress	-10.4103
▁mettle	-10.4105
▁below	-10.4107
▁touches	-10.4107
▁jealousy	-10.4111
▁lusty	-10.4113
▁repose	-10.4122
▁wept	-10.4125
▁curst	-10.4149
▁devils	-10.4149
▁ago	-10.4153
▁burning	-10.416
▁villainy	-10.4164
▁murdered	-10.4185
▁surely	-10.419
▁curs	-10.4225
▁working	-10.423
▁younger	-10.4259
▁praised	-10.4273
▁instruments	-10.4277
▁roses	-10.4325
▁sees	-10.4332
item	-10.434
▁guilt	-10.4345
▁milk	-10.4347
w	-10.4372
▁couldst	-10.4375
▁remains	-10.4386
▁ink	-10.4438
ant	-10.4462
▁phrase	-10.4467
▁perfection	-10.4468
▁candle	-10.4488
▁favors	-10.4493
▁shadows	-10.4497
▁montague	-10.4501
▁possession	-10.4502
▁chin	-10.4502
▁stream	-10.4503
▁error	-10.4508
▁honors	-10.4536
▁rate	-10.4541
▁torture	-10.4564
ever	-10.4566
▁usurp	-10.4573
▁wail	-10.4601
▁ale	-10.4607
▁exchange	-10.461
▁boar	-10.4615
▁borrow	-10.4617
▁instruct	-10.4628
▁purchase	-10.4629
▁dine	-10.4636
g	-10.464
god	-10.464
▁tend	-10.464
▁virgin	-10.4643
▁pick	-10.4643
▁hap	-10.4645
ought	-10.4646
▁joyful	-10.4647
▁dauphin	-10.4652
▁defy	-10.4652
▁emilia	-10.4652
▁ferdinand	-10.4652
▁immortal	-10.4652
▁jessica	-10.4652
▁liberal	-10.4652
▁lodging	-10.4652
▁nimble	-10.4652
▁obedient	-10.4652
▁octavius	-10.4652
▁regan	-10.4652
▁scope	-10.4652
▁terrible	-10.4652
▁proportion	-10.4652
▁slew	-10.4652
▁conference	-10.4652
▁cornwall	-10.4652
▁verona	-10.4652
▁drew	-10.4652
▁scotland	-10.4652
▁adam	-10.4653
▁expectation	-10.4653
▁quench	-10.4653
▁wrought	-10.4653
▁shylock	-10.4653
▁blot	-10.4653
▁misery	-10.4653
▁task	-10.4654
▁unkindness	-10.4655
▁pett	-10.4656
▁current	-10.4656
▁wonderful	-10.4656
▁hercules	-10.4657
▁palm	-10.4657
▁wax	-10.4658
▁madman	-10.4659
▁spurn	-10.4659
▁beware	-10.4659
▁breach	-10.4661
▁youthful	-10.4661
▁wipe	-10.4668
▁kisses	-10.4669
▁betimes	-10.4674
▁resolved	-10.468
▁arise	-10.4687
▁provided	-10.4688
▁elements	-10.4705
▁advised	-10.4708
▁lately	-10.4708
▁afoot	-10.4714
▁wond	-10.4715
▁wooed	-10.4719
▁seas	-10.4725
▁prepared	-10.4729
▁wooing	-10.473
▁points	-10.474
▁continue	-10.4749
▁rebels	-10.4755
▁contented	-10.4768
▁likeness	-10.4769
▁crying	-10.4804
▁boots	-10.4819
▁marvel	-10.4837
▁shines	-10.486
▁trees	-10.4874
lt	-10.4878
▁mart	-10.4893
▁ned	-10.4898
▁weeps	-10.4902
▁telling	-10.4906
▁proved	-10.4917
▁fairer	-10.4952
▁nobles	-10.4974
▁dares	-10.4975
▁wi	-10.4977
faced	-10.4993
▁deceive	-10.4994
▁creatures	-10.5026
▁revolt	-10.5033
▁beasts	-10.5052
▁monument	-10.5055
▁alike	-10.5077
▁standing	-10.5079
▁luck	-10.508
▁courtier	-10.5086
▁object	-10.5094
▁pieces	-10.5096
▁feather	-10.5096
▁sting	-10.5096
▁pearl	-10.5097
▁drum	-10.5098
▁knit	-10.5099
▁step	-10.5111
▁shoulder	-10.5156
▁govern	-10.5162
▁observe	-10.5177
▁strive	-10.519
ier	-10.5191
▁trifle	-10.5193
▁exile	-10.5204
▁divide	-10.5207
▁knights	-10.5211
score	-10.5213
▁limit	-10.5214
▁strumpet	-10.5214
▁dismiss	-10.5214
teen	-10.5217
▁prevent	-10.5218
▁employ	-10.5219
▁arrest	-10.522
▁renown	-10.5221
▁infinite	-10.5228
▁venom	-10.5236
▁increase	-10.5237
▁prefer	-10.524
▁physic	-10.524
▁choler	-10.524
▁frail	-10.524
▁apollo	-10.524
▁aumerle	-10.524
▁bachelor	-10.524
▁caught	-10.524
▁commonwealth	-10.524
▁extremity	-10.524
▁fulvia	-10.524
▁rejoice	-10.524
▁scratch	-10.524
▁suspicion	-10.524
▁threw	-10.524
▁vault	-10.524
▁wolf	-10.524
▁yesterday	-10.524
▁imagine	-10.524
indicat	-10.524
▁andrew	-10.5241
▁enobarbus	-10.5241
▁busy	-10.5241
▁terror	-10.5241
▁rapier	-10.5241
▁signify	-10.5241
▁forehead	-10.5241
▁pitch	-10.5241
▁expedition	-10.5241
▁corse	-10.5241
▁stale	-10.5241
▁deputy	-10.5241
▁privilege	-10.5241
▁tempest	-10.5241
▁felt	-10.5241
▁italy	-10.5241
▁stamp	-10.5241
▁defense	-10.5242
▁share	-10.5242
▁blest	-10.5242
▁vent	-10.5243
▁liking	-10.5243
▁lying	-10.5243
▁olivia	-10.5243
▁kindred	-10.5244
▁faithful	-10.5244
▁council	-10.5245
▁apart	-10.5246
▁bald	-10.5246
▁needful	-10.5247
▁stolen	-10.5247
▁fifty	-10.5248
▁hateful	-10.5248
▁weakness	-10.5249
▁blown	-10.5251
▁wager	-10.5255
▁merely	-10.5256
▁willingly	-10.5256
▁acquainted	-10.5259
▁suddenly	-10.5265
▁offices	-10.528
▁board	-10.5283
▁removed	-10.5284
▁ex	-10.5286
▁wounded	-10.5288
red	-10.5297
▁strongly	-10.5305
▁sealed	-10.5306
▁importune	-10.5312
▁yoke	-10.5312
▁dame	-10.5313
▁limbs	-10.5331
fold	-10.5336
▁rightly	-10.5341
▁plucked	-10.5342
▁shoes	-10.5357
▁beholding	-10.5362
▁talked	-10.5394
▁wave	-10.5399
▁remembered	-10.5403
▁liver	-10.5433
▁dearer	-10.5444
at	-10.5463
▁assist	-10.5476
▁jewels	-10.5479
▁lap	-10.5484
▁honored	-10.5495
▁tooth	-10.5512
▁dote	-10.5533
▁joint	-10.5567
▁shed	-10.5579
fore	-10.5583
▁sue	-10.5615
▁est	-10.5625
▁cloak	-10.5681
▁manhood	-10.5688
▁aspect	-10.5694
▁division	-10.5701
▁skull	-10.5701
▁peasant	-10.5701
▁suspect	-10.5701
▁date	-10.5707
▁direction	-10.5716
▁turk	-10.5719
▁temple	-10.572
▁reign	-10.5722
▁lamb	-10.5724
▁husbands	-10.5728
▁band	-10.5733
▁admit	-10.5786
▁vou	-10.5787
▁dove	-10.5794
▁toil	-10.5805
▁neglect	-10.5808
▁err	-10.5816
▁befall	-10.5828
▁yon	-10.5833
▁dispose	-10.5834
hearted	-10.5838
most	-10.5838
▁stoop	-10.5842
▁couch	-10.5842
▁apprehend	-10.5843
▁mask	-10.5845
▁famous	-10.5854
▁doubtful	-10.5861
▁alter	-10.5862
▁dam	-10.5863
▁fox	-10.5863
▁goddess	-10.5863
▁antipholus	-10.5865
▁burgundy	-10.5865
▁cesario	-10.5865
▁estimation	-10.5865
▁ganymede	-10.5865
▁ocean	-10.5865
▁recompense	-10.5865
▁scholar	-10.5865
▁sensible	-10.5865
▁silent	-10.5865
▁vulgar	-10.5865
▁lucius	-10.5865
▁nuncle	-10.5866
▁peevish	-10.5866
▁messala	-10.5866
▁eternal	-10.5866
▁lark	-10.5866
▁pox	-10.5866
▁stabbed	-10.5866
▁glorious	-10.5866
▁cheap	-10.5866
▁moment	-10.5866
▁potent	-10.5866
▁conquest	-10.5866
▁history	-10.5866
▁envious	-10.5866
▁homage	-10.5866
▁push	-10.5866
▁merrily	-10.5866
▁reply	-10.5866
▁caliban	-10.5866
▁injuries	-10.5867
▁fourteen	-10.5867
▁beheld	-10.5868
▁bay	-10.5868
▁prosperous	-10.5869
▁jot	-10.5869
▁fatal	-10.588
▁invisible	-10.5881
▁b	-10.5882
▁stern	-10.5885
▁instantly	-10.5887
▁gallows	-10.5889
▁taking	-10.5889
▁ebb	-10.5894
▁beguiled	-10.5898
▁county	-10.5905
▁lower	-10.5907
▁bravely	-10.5914
▁begged	-10.5916
▁washed	-10.5916
▁raised	-10.5918
▁sheets	-10.5928
▁certainly	-10.5929
▁bosoms	-10.5945
▁inch	-10.5947
▁rivers	-10.5962
▁strangely	-10.597
▁nest	-10.5975
▁nights	-10.5979
▁commanded	-10.5983
▁praises	-10.5989
▁growing	-10.5991
▁revenged	-10.6003
▁wished	-10.6024
▁talking	-10.6043
▁sins	-10.6057
▁subtle	-10.6061
▁odds	-10.6073
▁matters	-10.6082
▁clean	-10.6095
▁turning	-10.6103
▁worms	-10.6134
▁evils	-10.6176
▁graves	-10.6187
ive	-10.6223
▁undo	-10.6243
▁chid	-10.6251
mely	-10.6256
▁knocks	-10.6262
▁whit	-10.629
▁wed	-10.6309
▁retire	-10.6312
▁stock	-10.6328
house	-10.633
▁william	-10.6348
▁confusion	-10.6348
▁jesu	-10.6349
▁split	-10.6349
▁market	-10.635
▁plays	-10.6356
▁shapes	-10.6359
▁revenue	-10.6368
▁accident	-10.637
▁wot	-10.6374
▁kingdoms	-10.6376
▁reward	-10.6377
▁garland	-10.6381
▁nation	-10.6381
▁suitor	-10.6391
▁fearing	-10.6398
▁fa	-10.6404
ce	-10.6406
▁viola	-10.6424
▁extreme	-10.6435
▁west	-10.6436
▁sup	-10.6444
▁murderer	-10.6447
ments	-10.6468
▁shun	-10.6478
▁corrupt	-10.6484
▁pack	-10.6488
▁complain	-10.6488
▁beguile	-10.6501
▁surfeit	-10.6508
▁acquaint	-10.6511
▁prevail	-10.6512
▁nice	-10.6522
▁prosper	-10.6529
▁accept	-10.6532
▁altogether	-10.6532
▁audrey	-10.6532
▁cominius	-10.6532
▁gertrude	-10.6532
▁glendower	-10.6532
▁hermione	-10.6532
▁narrow	-10.6532
▁nuptial	-10.6532
▁perpetual	-10.6532
▁satisfy	-10.6532
▁stanley	-10.6532
▁sullen	-10.6532
▁thursday	-10.6532
▁titinius	-10.6532
▁seigneur	-10.6532
▁parcel	-10.6532
▁carried	-10.6532
▁treacherous	-10.6532
▁middle	-10.6532
▁price	-10.6532
▁hotspur	-10.6532
▁miserable	-10.6532
▁correction	-10.6532
▁society	-10.6532
▁secure	-10.6532
▁begun	-10.6533
▁keen	-10.6533
▁staff	-10.6533
▁apparent	-10.6533
▁leaving	-10.6533
▁losing	-10.6533
▁sugar	-10.6533
▁sufferance	-10.6534
▁piteous	-10.6534
▁filthy	-10.6534
▁contend	-10.6535
▁bidding	-10.6535
▁burst	-10.6536
▁shade	-10.6537
▁rope	-10.6538
▁exceeding	-10.6538
▁coin	-10.6539
▁fixed	-10.6543
▁hideous	-10.6543
▁senseless	-10.6543
▁brass	-10.6547
▁transform	-10.6547
▁profane	-10.6548
▁pin	-10.6552
▁unworth	-10.6554
▁hairs	-10.656
▁hose	-10.6562
▁performed	-10.6573
▁plainly	-10.6576
▁soil	-10.6582
▁breeding	-10.6583
▁accused	-10.6584
▁softly	-10.6585
▁tied	-10.6587
ily	-10.6602
▁skin	-10.6604
▁troubled	-10.6634
▁learning	-10.665
▁amends	-10.666
▁appeared	-10.6672
▁passed	-10.6674
▁touched	-10.6677
▁lame	-10.6697
vous	-10.6715
▁ugl	-10.6717
▁lads	-10.6724
▁hasty	-10.6728
▁groans	-10.6755
▁earn	-10.6758
▁tie	-10.676
▁ope	-10.677
▁windows	-10.6775
▁swearing	-10.6788
▁following	-10.6798
▁tricks	-10.6815
pt	-10.6818
▁trumpets	-10.6835
▁hated	-10.6847
▁leads	-10.6858
▁l	-10.6865
▁sings	-10.691
▁ships	-10.6916
▁angels	-10.6916
▁sorrows	-10.6918
▁effects	-10.6949
ter	-10.696
▁provoke	-10.6996
ble	-10.7009
▁com	-10.702
▁cowards	-10.7029
▁wishes	-10.7032
▁sayst	-10.7034
▁rub	-10.7042
▁slip	-10.7046
▁south	-10.7052
▁message	-10.7062
▁page	-10.7066
▁rack	-10.7067
▁elbow	-10.7076
▁hare	-10.7077
▁plant	-10.7081
▁female	-10.7082
▁mood	-10.7083
▁ballad	-10.7084
▁cuckold	-10.7085
▁discontent	-10.7087
▁poet	-10.7094
▁defect	-10.7095
▁lance	-10.7096
▁token	-10.7096
▁threaten	-10.7096
▁build	-10.7098
▁concern	-10.7102
▁shoe	-10.7107
▁ape	-10.7131
came	-10.7135
▁greeting	-10.7135
▁beside	-10.7138
▁forms	-10.7173
▁rat	-10.7173
▁lov	-10.7173
born	-10.7202
▁tales	-10.7208
▁rescue	-10.7208
▁acknowledge	-10.7208
▁pronounce	-10.7214
▁resolve	-10.7216
▁invite	-10.7218
▁inherit	-10.7218
▁labour	-10.7223
▁infect	-10.7224
▁descend	-10.7224
▁compound	-10.7225
▁fields	-10.7225
this	-10.7226
▁furnish	-10.7227
▁hung	-10.7233
▁drunken	-10.7241
▁bush	-10.7241
icious	-10.7244
▁control	-10.7244
▁bread	-10.7245
▁loyal	-10.7246
▁alexander	-10.7246
▁athenian	-10.7246
▁jump	-10.7246
▁orchard	-10.7246
▁resolution	-10.7246
▁warwick	-10.7246
▁alonso	-10.7246
▁choke	-10.7246
▁corioli	-10.7246
▁guildenstern	-10.7246
▁happily	-10.7246
▁horrid	-10.7246
▁instinct	-10.7246
▁isabella	-10.7246
▁oracle	-10.7246
▁pedro	-10.7246
▁poverty	-10.7246
▁ratcliffe	-10.7246
▁scurvy	-10.7246
▁voyage	-10.7246
▁arrant	-10.7246
▁courteous	-10.7246
▁mutiny	-10.7246
▁sauce	-10.7246
▁daily	-10.7246
▁prodigal	-10.7246
▁vanity	-10.7246
▁realm	-10.7247
▁ourself	-10.7247
▁gray	-10.7247
▁grandam	-10.7247
▁distress	-10.7247
▁hush	-10.7247
▁space	-10.7247
▁minion	-10.7247
▁thumb	-10.7247
▁imperial	-10.7247
▁eldest	-10.7247
▁unseen	-10.7247
▁corporal	-10.7248
▁example	-10.7248
▁government	-10.7248
▁egyptian	-10.7248
▁pleasing	-10.7249
▁cannon	-10.7249
▁ragged	-10.7249
▁witch	-10.725
▁spy	-10.725
▁interest	-10.725
▁consort	-10.725
▁comment	-10.725
▁sober	-10.725
▁thin	-10.725
▁hungry	-10.725
▁moving	-10.7251
▁linger	-10.7251
▁confession	-10.7253
▁dire	-10.7253
▁sitting	-10.7254
▁pull	-10.7255
▁mingle	-10.7256
▁woeful	-10.726
▁shrewd	-10.7262
▁locked	-10.7266
▁metal	-10.7266
▁begone	-10.7271
▁picked	-10.7274
▁proclaimed	-10.7281
▁briefly	-10.7287
▁gage	-10.7295
▁intended	-10.7295
▁clothes	-10.7296
▁thereby	-10.7301
▁theseus	-10.7302
▁devised	-10.7303
▁thread	-10.7308
▁suffered	-10.7317
▁veins	-10.7337
▁endured	-10.7353
▁vex	-10.7366
▁pro	-10.7377
▁awaked	-10.7377
▁cursed	-10.7394
▁amend	-10.7405
▁walks	-10.7405
▁marshal	-10.7427
▁natures	-10.7427
▁pre	-10.7451
▁ministers	-10.7465
▁purge	-10.747
▁guests	-10.7476
▁birds	-10.752
▁pipe	-10.753
▁charms	-10.7547
▁ended	-10.755
▁diest	-10.7592
▁honours	-10.763
▁titles	-10.7639
▁hunt	-10.7655
▁beggars	-10.7662
▁laws	-10.7665
led	-10.7668
▁appeal	-10.7676
▁car	-10.7677
maker	-10.7686
▁holding	-10.7711
el	-10.7719
▁riches	-10.7741
ties	-10.7745
▁owes	-10.7765
▁game	-10.7766
▁wag	-10.7804
▁horror	-10.7832
▁strife	-10.7832
▁shield	-10.7833
▁grain	-10.7834
▁oak	-10.7838
▁spoil	-10.7842
▁quarter	-10.7843
eign	-10.7848
▁varlet	-10.7852
▁block	-10.7852
▁feature	-10.7852
▁capulet	-10.786
▁palace	-10.786
▁instance	-10.786
▁canker	-10.7862
▁lock	-10.7863
▁moan	-10.7864
▁exercise	-10.7864
▁infant	-10.7864
▁bull	-10.7867
▁article	-10.7868
▁wheel	-10.787
▁rebel	-10.7875
▁weapon	-10.7876
▁street	-10.7877
▁kills	-10.791
▁li	-10.791
▁diet	-10.7937
▁conclude	-10.7937
▁moves	-10.794
▁sole	-10.7944
▁seeks	-10.7952
▁dress	-10.7956
▁rehearse	-10.7978
eyed	-10.7985
▁value	-10.7988
love	-10.7988
same	-10.7989
good	-10.7989
▁bait	-10.7993
▁mild	-10.7994
▁taint	-10.7994
▁confirm	-10.7995
wise	-10.8004
▁pomp	-10.8004
▁craft	-10.8008
▁trespass	-10.8013
▁achieve	-10.8015
▁ambitious	-10.8016
▁biondello	-10.8016
▁bliss	-10.8016
▁cinna	-10.8016
▁devotion	-10.8016
▁elizabeth	-10.8016
▁ephesus	-10.8016
▁fluellen	-10.8016
▁gonzalo	-10.8016
▁jupiter	-10.8016
▁liquor	-10.8016
▁macduff	-10.8016
▁monmouth	-10.8016
▁neigh	-10.8016
▁orsino	-10.8016
▁paulina	-10.8016
▁repeal	-10.8016
▁seldom	-10.8016
▁silvius	-10.8016
▁trembling	-10.8016
▁worcester	-10.8016
▁exeter	-10.8016
▁lucio	-10.8016
▁thorough	-10.8016
▁dorset	-10.8016
▁duncan	-10.8016
▁shrewsbury	-10.8016
▁treble	-10.8016
▁tush	-10.8016
▁chair	-10.8016
▁pisa	-10.8016
▁bride	-10.8016
▁cruelty	-10.8016
▁eleven	-10.8016
▁slay	-10.8016
▁treachery	-10.8016
▁afternoon	-10.8016
▁royalty	-10.8016
▁moreover	-10.8016
twould	-10.8016
▁fray	-10.8017
▁careful	-10.8017
▁forsooth	-10.8017
▁leather	-10.8017
▁salic	-10.8017
▁broad	-10.8017
▁wore	-10.8017
▁fantastical	-10.8017
▁nobody	-10.8017
▁evermore	-10.8018
▁fellowship	-10.8018
▁merciful	-10.8018
▁mouldy	-10.8018
▁everywhere	-10.8018
▁neat	-10.8019
▁deaf	-10.8019
▁supply	-10.8019
▁easily	-10.8019
▁prophesy	-10.8019
▁countryman	-10.802
▁nobility	-10.802
▁spread	-10.8021
▁siege	-10.8021
▁volsces	-10.8022
▁hangman	-10.8022
▁pine	-10.8023
▁stake	-10.8023
▁road	-10.8023
▁aunt	-10.8023
▁relish	-10.8024
▁bolt	-10.8028
▁balm	-10.8039
▁waking	-10.804
▁tired	-10.8044
▁governed	-10.8047
▁upright	-10.8049
▁meddle	-10.805
▁cowardly	-10.8055
▁patiently	-10.8056
ho	-10.8057
▁drows	-10.8063
▁roaring	-10.8063
▁disposed	-10.8067
▁bleeding	-10.8069
▁gladly	-10.8072
▁breaks	-10.8074
▁dined	-10.8081
▁sickly	-10.8083
▁deer	-10.8093
▁peers	-10.8103
▁ding	-10.8105
▁filled	-10.811
▁feeding	-10.8119
▁granted	-10.812
▁slaves	-10.8121
▁understanding	-10.8125
▁despise	-10.8128
▁pays	-10.8142
▁perceived	-10.8154
▁walked	-10.816
ne	-10.816
▁noon	-10.8165
▁beating	-10.8174
▁sounded	-10.8182
▁willing	-10.8186
▁kissed	-10.8187
▁stocks	-10.8187
▁commands	-10.8207
▁kissing	-10.8212
▁reading	-10.8235
▁babes	-10.8241
▁diseases	-10.8253
▁killing	-10.8262
▁r	-10.8274
▁f	-10.8274
▁awe	-10.8282
▁verses	-10.8288
▁breaking	-10.8292
▁rights	-10.831
▁breathed	-10.8312
▁preserve	-10.8314
▁ice	-10.8315
▁contents	-10.8318
▁stole	-10.8329
▁throats	-10.8335
▁falling	-10.8343
▁event	-10.8366
pern	-10.8369
▁hencefor	-10.8385
ning	-10.8386
▁robe	-10.8394
▁desired	-10.84
out	-10.8402
▁knowest	-10.8411
▁prompt	-10.8447
te	-10.8453
▁perfume	-10.8465
▁inquire	-10.8501
▁parting	-10.854
▁pe	-10.8561
▁bud	-10.8569
▁rebuke	-10.8627
▁humors	-10.8633
horse	-10.864
▁slaughter	-10.8645
▁sights	-10.8648
▁pot	-10.8651
▁houses	-10.8665
▁flock	-10.8665
▁bargain	-10.8666
▁funeral	-10.8666
▁nephew	-10.8666
▁adventure	-10.8666
▁swoon	-10.8666
▁roof	-10.8666
▁require	-10.8669
▁haunt	-10.8679
▁hum	-10.8686
▁raven	-10.8687
▁dukedom	-10.8694
▁leek	-10.8697
▁physician	-10.8698
▁brawl	-10.8699
▁bill	-10.87
▁afford	-10.87
▁ornament	-10.87
▁sur	-10.8701
take	-10.8702
▁jade	-10.8704
▁reckoning	-10.8704
▁reach	-10.8704
▁passage	-10.8706
▁coat	-10.8708
▁knot	-10.8709
▁hole	-10.8725
▁doll	-10.8741
▁swell	-10.8748
▁comest	-10.8762
▁ut	-10.8762
▁cloud	-10.8775
▁pow	-10.8778
work	-10.8783
▁proceeding	-10.8788
▁requite	-10.8808
▁gorge	-10.8809
▁abate	-10.881
▁restore	-10.8819
taking	-10.882
▁steep	-10.8826
▁convert	-10.8828
▁heigh	-10.8831
▁indifferent	-10.8838
▁unjust	-10.8839
▁actions	-10.8841
▁gap	-10.8843
▁brag	-10.8844
▁chose	-10.8845
▁intelligence	-10.8846
▁stubborn	-10.8847
▁flourish	-10.8847
▁dishonour	-10.8848
▁welsh	-10.8848
▁upbraid	-10.8849
▁crab	-10.8849
▁grand	-10.8849
▁michael	-10.8849
▁zeal	-10.8849
▁banquet	-10.8849
▁likelihood	-10.8849
▁neptune	-10.8849
▁outlive	-10.8849
▁penitent	-10.8849
▁persuasion	-10.8849
▁phoebus	-10.8849
▁polixenes	-10.8849
▁shroud	-10.8849
▁statue	-10.8849
▁sufficient	-10.8849
▁vassal	-10.8849
▁violence	-10.8849
▁entrance	-10.8849
▁ireland	-10.8849
▁tapster	-10.8849
▁witchcraft	-10.8849
▁amorous	-10.8849
▁consequence	-10.8849
▁dishonest	-10.8849
▁observance	-10.8849
▁dowry	-10.8849
▁gower	-10.8849
▁holp	-10.8849
▁giant	-10.8849
▁suffice	-10.8849
▁camp	-10.8849
▁rumor	-10.8849
▁frank	-10.8849
▁shop	-10.8849
▁heavier	-10.8849
▁miracle	-10.8849
▁nought	-10.8849
▁trim	-10.8849
▁hatred	-10.885
▁sustain	-10.885
▁dower	-10.885
▁errand	-10.885
▁hue	-10.885
▁perjured	-10.885
▁surgeon	-10.885
▁infection	-10.885
▁laughter	-10.885
▁heaviness	-10.8851
▁contrive	-10.8851
▁mouse	-10.8851
▁brown	-10.8851
▁horrible	-10.8852
▁mantua	-10.8852
▁sicilia	-10.8852
▁destiny	-10.8852
▁guiltless	-10.8853
▁thrift	-10.8853
▁beef	-10.8853
▁grass	-10.8853
▁stead	-10.8853
▁everyone	-10.8853
▁marvelous	-10.8854
▁wenches	-10.8855
▁settled	-10.8855
▁stockings	-10.8856
▁box	-10.8856
▁spell	-10.8856
amen	-10.8857
▁knavery	-10.8857
▁stirring	-10.8858
▁idleness	-10.8858
▁honourable	-10.8858
▁tail	-10.8858
▁losses	-10.886
▁adore	-10.8861
▁vast	-10.8862
▁stopped	-10.8863
▁withered	-10.8864
▁reasonable	-10.8865
▁putting	-10.8865
▁rear	-10.8866
▁sadness	-10.8867
▁notice	-10.8868
▁growth	-10.8868
▁anne	-10.887
▁furnished	-10.8873
▁thrown	-10.8874
▁flattery	-10.888
▁confined	-10.8883
▁livery	-10.8886
▁pricked	-10.8887
iness	-10.8894
▁fed	-10.8901
▁term	-10.8916
▁hounds	-10.8918
▁persuaded	-10.8918
▁burnt	-10.893
▁ag	-10.8934
▁dri	-10.8934
▁nobler	-10.894
▁closet	-10.8942
een	-10.8942
takes	-10.8944
▁waked	-10.8946
▁entered	-10.8947
▁fo	-10.8948
▁starve	-10.8948
▁powerful	-10.8948
▁shames	-10.8949
▁tu	-10.8951
▁menas	-10.8953
stern	-10.8959
▁laughed	-10.896
▁ado	-10.8969
up	-10.8975
▁reconcile	-10.8988
ted	-10.8992
▁yielded	-10.8994
▁earthly	-10.9
▁locks	-10.9006
▁theme	-10.9036
▁steps	-10.9057
▁fires	-10.906
▁wasted	-10.9067
be	-10.9074
▁grieves	-10.9083
▁experience	-10.909
▁strokes	-10.9095
bed	-10.9105
▁lights	-10.911
il	-10.9159
▁marked	-10.9167
▁strikes	-10.9188
▁nightly	-10.9246
▁caps	-10.9252
▁daggers	-10.9262
"!	-10.9285
um	-10.9323
▁conditions	-10.934
▁delights	-10.9341
▁impart	-10.9351
▁inn	-10.9382
ities	-10.9383
llowed	-10.9398
am	-10.9402
▁test	-10.941
▁finding	-10.9423
▁comforts	-10.9442
▁kingly	-10.9447
▁curses	-10.9463
▁joys	-10.9475
▁commends	-10.9499
▁burns	-10.95
▁shrew	-10.9502
▁w	-10.9521
▁evening	-10.9521
think	-10.9528
▁sets	-10.9529
waking	-10.9543
▁patch	-10.9553
▁affect	-10.9571
▁bit	-10.9572
ch	-10.9574
▁helm	-10.9574
▁cook	-10.9575
▁week	-10.9575
▁ruffian	-10.9575
▁ague	-10.9576
▁partner	-10.9576
▁peep	-10.9577
▁brand	-10.9577
▁dislike	-10.9578
▁confine	-10.958
▁load	-10.9586
▁exceed	-10.9587
▁lions	-10.9591
▁rogues	-10.9591
▁silk	-10.9592
▁impediment	-10.9594
▁scruple	-10.9594
▁design	-10.9595
▁square	-10.9595
▁medicine	-10.9595
▁proverb	-10.9602
▁league	-10.9613
▁million	-10.9613
▁river	-10.9619
▁mothers	-10.9621
▁mak	-10.9621
▁limb	-10.9624
for	-10.9627
some	-10.9649
▁fore	-10.9659
▁counter	-10.9664
▁dukes	-10.9703
who	-10.9707
law	-10.9711
▁examine	-10.9718
▁clap	-10.972
▁advance	-10.972
▁hire	-10.9722
favored	-10.9725
▁mistrust	-10.9732
▁sacrifice	-10.9734
▁bate	-10.9734
▁sex	-10.9734
▁cudgel	-10.9734
▁manifest	-10.9734
▁detest	-10.9738
▁scant	-10.9739
▁hinder	-10.9745
▁immediate	-10.9748
▁frost	-10.975
▁fift	-10.975
▁nym	-10.9758
▁alexas	-10.9758
▁aloud	-10.9758
▁april	-10.9758
▁balthasar	-10.9758
▁burthen	-10.9758
▁destruction	-10.9758
▁eglamour	-10.9758
▁exploit	-10.9758
▁fancies	-10.9758
▁fertile	-10.9758
▁fife	-10.9758
▁fortinbras	-10.9758
▁impatience	-10.9758
▁notwithstanding	-10.9758
▁pomfret	-10.9758
▁remorse	-10.9758
▁spleen	-10.9758
▁wednesday	-10.9758
▁wreck	-10.9758
▁climb	-10.9758
▁shoot	-10.9758
▁stuck	-10.9758
▁composition	-10.9758
▁curtsy	-10.9758
▁moiety	-10.9758
▁walter	-10.9758
▁motley	-10.9758
▁muddy	-10.9758
▁mutton	-10.9758
▁profound	-10.9758
▁drift	-10.9758
▁farthest	-10.9758
▁quince	-10.9758
▁studied	-10.9758
▁model	-10.9758
▁philippi	-10.9758
▁loyalty	-10.9758
▁mistook	-10.9758
▁apple	-10.9758
▁rheum	-10.9758
▁apprehension	-10.9758
▁raw	-10.9758
▁napkin	-10.9758
▁duties	-10.9758
▁marcus	-10.9758
▁venus	-10.9758
▁heavily	-10.9758
▁ladder	-10.9758
▁sovereignty	-10.9758
▁aliena	-10.9758
▁dirt	-10.9759
▁sap	-10.9759
▁fever	-10.9759
▁nick	-10.9759
▁prospero	-10.9759
▁apply	-10.9759
▁dial	-10.9759
▁departure	-10.9759
▁corruption	-10.9759
▁beginning	-10.976
▁agrippa	-10.976
▁ascend	-10.976
▁dancing	-10.976
▁jerkin	-10.976
▁constancy	-10.976
▁prating	-10.976
▁rot	-10.976
▁crush	-10.9761
▁plate	-10.9761
▁backward	-10.9761
▁prime	-10.9761
▁stray	-10.9762
▁robbed	-10.9762
▁tickle	-10.9762
▁lightning	-10.9762
▁menenius	-10.9762
▁norway	-10.9765
▁pitied	-10.9766
▁dash	-10.977
▁writes	-10.9772
▁painting	-10.9773
▁begot	-10.9774
▁baseness	-10.9775
▁arrived	-10.9776
▁engaged	-10.9777
▁curb	-10.978
▁anointed	-10.9782
▁dressed	-10.9783
▁villainous	-10.9784
▁dover	-10.9784
▁worthless	-10.9784
▁eaten	-10.9785
▁helen	-10.9793
▁ancestors	-10.9793
▁sinews	-10.9793
▁porter	-10.9793
▁grossly	-10.9794
▁di	-10.9794
▁din	-10.9795
ped	-10.9796
▁altered	-10.9799
▁mourning	-10.9803
▁cheerly	-10.9806
▁bending	-10.9807
▁salute	-10.9807
▁orb	-10.9808
▁speedy	-10.9811
▁trod	-10.9816
▁stained	-10.9817
ries	-10.9821
▁nobleness	-10.9826
▁blue	-10.9831
▁rites	-10.9834
▁enforced	-10.9842
ied	-10.9845
▁matched	-10.9847
▁revels	-10.9848
gged	-10.9848
▁knocking	-10.9856
▁prate	-10.9856
▁disgraced	-10.9865
▁goodman	-10.9872
▁abhorr	-10.9872
▁poisoned	-10.9875
▁dole	-10.9885
▁troops	-10.9889
▁saddle	-10.9898
▁stealing	-10.9901
▁wanting	-10.9911
▁coats	-10.9918
▁events	-10.9928
▁lovest	-10.9943
▁accidents	-10.9959
▁egg	-10.9962
▁singing	-10.9977
▁joints	-10.9978
▁rings	-11.0013
▁miles	-11.0029
▁mountains	-11.0043
▁signs	-11.0044
ible	-11.0078
▁gloves	-11.0099
▁pleasures	-11.0125
ial	-11.0126
▁purposed	-11.0159
▁pun	-11.0173
▁neighbors	-11.0185
▁sweetly	-11.0196
▁noblest	-11.0244
▁sweeter	-11.0269
forth	-11.0278
▁works	-11.0297
▁po	-11.0299
▁messengers	-11.0299
▁vices	-11.03
▁hi	-11.0302
ur	-11.0314
▁fret	-11.0324
▁scar	-11.0327
▁cousins	-11.033
night	-11.0333
▁mi	-11.0362
one	-11.0377
▁suppos	-11.038
▁misuse	-11.0402
▁noses	-11.0407
▁imp	-11.0408
▁treasons	-11.0415
lier	-11.0429
▁rag	-11.0445
▁hates	-11.0475
▁heirs	-11.0518
▁household	-11.0519
▁straw	-11.0539
▁bonds	-11.0547
▁petition	-11.055
▁jests	-11.0552
▁butcher	-11.0562
▁lodge	-11.0568
let	-11.057
▁cool	-11.0571
▁hides	-11.0584
▁monarch	-11.0585
▁ward	-11.0586
▁tiger	-11.0594
▁squire	-11.0594
▁conqueror	-11.0595
▁throng	-11.0603
▁hook	-11.0606
▁casket	-11.0607
▁gossip	-11.0607
▁function	-11.0607
▁instruction	-11.0608
▁contain	-11.0611
▁curtain	-11.0613
▁troop	-11.0615
▁deserving	-11.0616
▁crime	-11.0616
▁foil	-11.062
▁affair	-11.062
▁receiv	-11.062
▁beget	-11.0627
▁belong	-11.0633
▁undergo	-11.0638
headed	-11.0647
ine	-11.0661
place	-11.0671
▁toad	-11.0674
▁heav	-11.0688
tween	-11.0692
▁support	-11.0701
▁cherish	-11.0704
▁peruse	-11.0717
▁prophet	-11.0717
▁agree	-11.0721
you	-11.0724
▁execute	-11.0725
▁buil	-11.0729
thou	-11.0731
▁writing	-11.0732
▁tire	-11.0732
▁gather	-11.0732
▁wrack	-11.0737
▁conquer	-11.0737
▁dishonor	-11.0737
▁pit	-11.0737
▁digest	-11.0738
that	-11.0739
▁religious	-11.0746
▁villanous	-11.0746
▁everlasting	-11.0747
▁convenient	-11.0748
▁mutual	-11.0748
▁vouch	-11.0758
praising	-11.0758
▁enrich	-11.0758
▁allegiance	-11.0758
▁archbishop	-11.0758
▁arras	-11.0758
▁bankrupt	-11.0758
▁barnardine	-11.0758
▁bridegroom	-11.0758
▁bulk	-11.0758
▁cradle	-11.0758
▁enmity	-11.0758
▁entire	-11.0758
▁especial	-11.0758
▁fabian	-11.0758
▁happier	-11.0758
▁harvest	-11.0758
▁illyria	-11.0758
▁impatient	-11.0758
▁ingratitude	-11.0758
▁lewd	-11.0758
▁lucillius	-11.0758
▁lungs	-11.0758
▁miranda	-11.0758
▁mischance	-11.0758
▁nativity	-11.0758
▁necessary	-11.0758
▁negligence	-11.0758
▁pattern	-11.0758
▁peradventure	-11.0758
▁philosophy	-11.0758
▁pindarus	-11.0758
▁polonius	-11.0758
▁publish	-11.0758
▁salisbury	-11.0758
▁unruly	-11.0758
▁yesternight	-11.0758
▁ashore	-11.0758
▁conspiracy	-11.0758
▁privy	-11.0758
▁purple	-11.0758
▁unwilling	-11.0758
▁beautiful	-11.0758
▁doomsday	-11.0758
▁project	-11.0758
▁rowland	-11.0758
▁cimber	-11.0758
▁oxford	-11.0758
▁barbary	-11.0758
▁demi	-11.0758
▁capital	-11.0758
▁infirmity	-11.0758
▁procure	-11.0758
▁guts	-11.0758
▁metellus	-11.0758
▁veil	-11.0758
▁eloquence	-11.0758
▁proclamation	-11.0758
▁lute	-11.0758
▁assume	-11.0758
▁reap	-11.0758
▁juno	-11.0758
▁property	-11.0758
▁marketplace	-11.0758
▁resign	-11.0758
▁mute	-11.0758
▁imprisonment	-11.0758
▁furious	-11.0758
▁harbor	-11.0759
▁moonshine	-11.0759
▁holiday	-11.0759
▁perjury	-11.0759
▁oppression	-11.0759
▁assembly	-11.0759
▁notorious	-11.0759
▁breakfast	-11.0759
▁burial	-11.0759
▁affliction	-11.0759
▁faction	-11.0759
▁mystery	-11.0759
▁albany	-11.0759
▁print	-11.0759
▁falsehood	-11.076
▁lease	-11.076
▁blade	-11.076
▁gazing	-11.076
▁imitate	-11.076
▁lechery	-11.076
▁puff	-11.076
▁scourge	-11.0761
▁visitation	-11.0761
▁thankful	-11.0761
▁foolery	-11.0761
▁copy	-11.0762
▁ci	-11.0763
▁bootless	-11.0763
▁cue	-11.0763
▁distilled	-11.0764
all	-11.0764
▁forgotten	-11.0764
▁chat	-11.0764
▁grim	-11.0765
▁madmen	-11.0765
▁trot	-11.0765
▁beauties	-11.0766
▁eyelids	-11.0767
▁reck	-11.0767
▁palate	-11.0768
▁survey	-11.0769
▁immediately	-11.0769
▁devilish	-11.0771
▁warning	-11.0771
▁tenor	-11.0772
▁running	-11.0774
▁linen	-11.0774
▁cozen	-11.0774
▁rising	-11.0774
▁inconstant	-11.0776
▁speeches	-11.0776
▁boldness	-11.0776
▁beams	-11.078
▁deposed	-11.078
▁appointed	-11.0781
▁legions	-11.0781
▁slaughtered	-11.0784
▁swelling	-11.0786
▁quicken	-11.0788
▁infected	-11.0788
▁stealth	-11.0788
▁careless	-11.079
moi	-11.0791
▁parties	-11.0792
▁renowned	-11.0794
▁executed	-11.0795
▁advanced	-11.0795
▁ribs	-11.0796
▁borrowed	-11.0797
▁mayor	-11.081
▁amity	-11.0811
▁joined	-11.0816
▁hop	-11.082
▁divided	-11.0821
▁safely	-11.0822
▁cords	-11.0827
▁howling	-11.0827
▁vilely	-11.0828
▁sly	-11.0831
▁tr	-11.084
▁trusty	-11.0843
▁converse	-11.0844
ors	-11.0847
▁faster	-11.0853
▁deeply	-11.0854
with	-11.0857
▁flattered	-11.0859
▁shelter	-11.0862
▁respected	-11.0902
▁falsely	-11.092
▁buds	-11.0934
▁bills	-11.0935
▁robes	-11.0944
▁scepter	-11.095
▁rats	-11.0953
▁carve	-11.0958
▁places	-11.0958
▁manly	-11.0965
▁apes	-11.0967
▁suitors	-11.0982
▁severe	-11.0992
▁reigns	-11.0996
▁afore	-11.1002
▁trifles	-11.101
▁drums	-11.1012
▁pearls	-11.1012
▁breathing	-11.1045
▁companions	-11.1059
▁commons	-11.1062
▁swears	-11.1064
▁thereto	-11.1139
et	-11.1142
▁fates	-11.1154
set	-11.1178
x	-11.1183
▁deserts	-11.1185
▁seasons	-11.1217
▁aye	-11.1225
▁fits	-11.1236
▁frowns	-11.125
▁wakes	-11.1251
▁sav	-11.1263
▁blast	-11.1336
▁sails	-11.1344
▁harp	-11.1352
▁longing	-11.1419
▁colors	-11.144
▁slanders	-11.1448
▁goest	-11.1502
▁harms	-11.1509
▁stirs	-11.154
▁stops	-11.1541
head	-11.1555
▁abhor	-11.1575
ons	-11.1583
▁ca	-11.1601
▁san	-11.1605
▁placed	-11.1612
shall	-11.1635
here	-11.1642
▁battles	-11.1655
▁avouch	-11.1665
tied	-11.1671
▁rein	-11.1674
▁scale	-11.1679
▁outrage	-11.1686
▁fathom	-11.1687
▁pillow	-11.1687
▁bedfellow	-11.169
▁clamor	-11.1704
▁author	-11.1705
▁region	-11.1706
▁slumber	-11.1714
▁bank	-11.1719
▁carriage	-11.1721
▁accent	-11.1721
▁drunkard	-11.1721
▁weed	-11.1726
▁musician	-11.1727
▁bu	-11.1728
▁actor	-11.1728
▁vein	-11.1728
▁garment	-11.1731
▁roll	-11.1732
ck	-11.1735
▁complaint	-11.1752
▁respects	-11.1774
▁quarrels	-11.1774
ug	-11.179
▁whe	-11.1798
▁devour	-11.1815
▁swallow	-11.1819
▁likely	-11.1836
▁boil	-11.1841
twenty	-11.1842
from	-11.1842
▁blemish	-11.1843
▁array	-11.1843
seeing	-11.1845
▁accord	-11.1847
▁invest	-11.1848
▁nigh	-11.1853
▁acts	-11.1856
▁victor	-11.186
▁hurl	-11.186
▁murd	-11.1865
▁antic	-11.1865
▁maria	-11.1865
▁torch	-11.1867
▁mum	-11.1867
▁tax	-11.1868
▁politic	-11.1869
▁scandal	-11.1869
▁centaur	-11.1869
▁goldsmith	-11.1869
▁influence	-11.1869
▁niggard	-11.1869
▁occupation	-11.1869
▁abbey	-11.1869
▁abundance	-11.1869
▁albeit	-11.1869
▁aloof	-11.1869
▁assault	-11.1869
▁birnam	-11.1869
▁caitiff	-11.1869
▁compact	-11.1869
▁coronation	-11.1869
▁detain	-11.1869
▁document	-11.1869
▁ecstasy	-11.1869
▁ensue	-11.1869
▁expense	-11.1869
▁gravity	-11.1869
▁hymn	-11.1869
▁katherina	-11.1869
▁lucetta	-11.1869
▁madonna	-11.1869
▁necessities	-11.1869
▁pledge	-11.1869
▁quaint	-11.1869
▁rosencrantz	-11.1869
▁scroop	-11.1869
▁shrill	-11.1869
▁tavern	-11.1869
▁testimony	-11.1869
▁titus	-11.1869
▁tribute	-11.1869
▁universal	-11.1869
▁urging	-11.1869
▁velvet	-11.1869
▁vienna	-11.1869
▁brabantio	-11.1869
▁leaf	-11.1869
▁pirate	-11.1869
▁semblance	-11.1869
▁shaft	-11.1869
▁stiff	-11.1869
▁superfluous	-11.1869
▁oswald	-11.1869
▁alms	-11.1869
▁attach	-11.1869
▁process	-11.1869
▁vision	-11.1869
▁paul	-11.1869
▁bench	-11.1869
▁titania	-11.1869
▁duck	-11.1869
▁qualities	-11.1869
▁pilgrimage	-11.1869
▁bigger	-11.1869
▁description	-11.1869
▁oblivion	-11.1869
▁produc	-11.1869
▁presage	-11.1869
▁reproof	-11.187
▁bowels	-11.187
▁quake	-11.187
▁sixpence	-11.187
▁lullaby	-11.187
▁fantasy	-11.187
▁sanctuary	-11.187
▁amazement	-11.187
▁volume	-11.187
▁prosperity	-11.187
▁marble	-11.187
▁soothsayer	-11.187
▁witty	-11.187
▁governor	-11.187
▁temperance	-11.187
▁race	-11.187
▁clown	-11.1871
▁excellence	-11.1871
▁clay	-11.1871
▁wring	-11.1871
▁clamorous	-11.1871
▁presume	-11.1871
▁holla	-11.1871
▁trunk	-11.1871
▁latter	-11.1871
▁wolves	-11.1871
▁employment	-11.1871
▁damnation	-11.1872
▁pig	-11.1872
▁succession	-11.1872
▁silken	-11.1872
▁bondage	-11.1872
▁resort	-11.1872
▁iras	-11.1873
▁dropped	-11.1873
▁inhabit	-11.1874
▁security	-11.1874
▁capable	-11.1875
▁fortunate	-11.1875
▁rushes	-11.1875
quisite	-11.1875
▁pregnant	-11.1876
▁punishment	-11.1876
▁mustard	-11.1877
▁irish	-11.1878
▁lacks	-11.1878
▁worthily	-11.1878
▁beneath	-11.1878
▁supplied	-11.1878
▁enraged	-11.1878
▁chest	-11.1879
▁humorous	-11.188
▁handsome	-11.188
▁whatsoever	-11.188
▁dispersed	-11.1881
▁heinous	-11.1882
▁moody	-11.1882
▁plight	-11.1882
▁beards	-11.1883
▁sixth	-11.1883
▁accursed	-11.1883
ward	-11.1883
▁peto	-11.1883
▁cato	-11.1884
▁rode	-11.1884
▁glance	-11.1886
▁tried	-11.1887
▁rod	-11.1888
▁husbandry	-11.1892
▁subdued	-11.1893
▁patricians	-11.1895
▁incensed	-11.1899
▁derived	-11.1899
▁confirmed	-11.19
▁impress	-11.19
▁commandment	-11.1901
▁disguised	-11.1903
▁prevailed	-11.1905
▁arrested	-11.191
▁opposed	-11.1911
▁prevented	-11.1912
▁parents	-11.1912
▁coffers	-11.1912
▁wrinkles	-11.1912
▁formal	-11.1915
▁punished	-11.1915
▁beggarly	-11.1915
▁owner	-11.1918
▁practise	-11.1919
▁idly	-11.192
▁esteemed	-11.192
▁mantle	-11.1924
▁fold	-11.1925
▁beastly	-11.1927
▁members	-11.1929
▁fallen	-11.1931
▁expressed	-11.1935
▁tempted	-11.1936
▁purchased	-11.194
▁nearest	-11.1942
▁drowning	-11.1954
ge	-11.1955
▁highest	-11.1957
▁stuffed	-11.1957
▁wonders	-11.196
we	-11.196
hic	-11.1962
▁personal	-11.1966
▁mended	-11.1967
▁waiting	-11.1973
▁sadly	-11.1978
▁framed	-11.1978
▁thorns	-11.1981
▁agreed	-11.1986
▁deeper	-11.1994
▁scorned	-11.2007
▁colour	-11.2014
▁basest	-11.2015
▁musicians	-11.2016
▁juli	-11.2023
▁trip	-11.2024
▁crimes	-11.2033
▁entreated	-11.2037
▁sa	-11.204
▁assemble	-11.2052
▁nearer	-11.2055
▁highly	-11.2061
▁guide	-11.2083
▁concerns	-11.2102
▁reported	-11.2105
▁pins	-11.2115
▁trusted	-11.2126
▁allay	-11.2126
▁eating	-11.2126
▁smoke	-11.214
▁wart	-11.2157
▁errors	-11.2173
▁answers	-11.2191
▁lays	-11.2198
▁madame	-11.22
▁nourish	-11.2208
nce	-11.2216
▁minutes	-11.2226
▁spurs	-11.2244
▁confounds	-11.2244
▁degrees	-11.2261
▁demands	-11.2262
gartered	-11.2276
▁named	-11.228
▁strip	-11.2287
▁strangle	-11.2311
so	-11.2336
ng	-11.2367
▁intents	-11.2368
▁dwells	-11.2408
▁breeds	-11.2426
▁secrets	-11.2459
▁tar	-11.248
▁village	-11.2522
p	-11.2524
▁ranks	-11.2533
▁shamed	-11.2556
▁injuri	-11.2561
▁ample	-11.2571
ian	-11.2587
▁confer	-11.2589
▁showing	-11.2598
▁bringing	-11.2628
▁returns	-11.2634
ez	-11.2646
son	-11.2676
▁handle	-11.2685
▁parle	-11.2693
▁depend	-11.2707
▁uses	-11.271
▁vot	-11.2721
▁bath	-11.2734
▁mo	-11.2737
ke	-11.2753
▁purses	-11.2771
▁heal	-11.2778
▁consume	-11.2803
▁cre	-11.2813
▁repute	-11.2816
▁heave	-11.2842
▁scorns	-11.2848
▁despis	-11.2857
▁escape	-11.2889
▁attire	-11.2895
▁disguise	-11.2905
▁succeed	-11.2914
▁bridge	-11.2917
▁assay	-11.2917
▁swim	-11.2918
▁shout	-11.2918
▁sow	-11.2926
foot	-11.2929
▁decree	-11.2936
▁endeavor	-11.2937
draws	-11.294
▁gull	-11.2948
▁cam	-11.2953
▁continent	-11.2956
▁shirt	-11.2956
▁grove	-11.2956
▁lackey	-11.2959
▁blank	-11.2963
▁bars	-11.2965
mong	-11.2968
▁steed	-11.2969
▁rival	-11.297
▁bag	-11.297
▁warrior	-11.2971
▁liar	-11.2971
▁peer	-11.2972
▁discipline	-11.2972
▁calling	-11.2974
▁summon	-11.2975
▁nail	-11.2981
▁corner	-11.2994
▁adder	-11.3004
▁revenges	-11.3008
▁halt	-11.301
▁substitute	-11.3019
u	-11.3022
▁ache	-11.3035
▁sand	-11.305
▁howl	-11.3062
▁infer	-11.3064
what	-11.3079
▁restrain	-11.3079
▁lime	-11.3082
▁attain	-11.3082
▁desir	-11.3084
▁divorce	-11.3085
▁derive	-11.3086
kneeling	-11.3088
▁trans	-11.3089
▁solicit	-11.3091
▁hawk	-11.3091
▁conceal	-11.3091
points	-11.3092
▁strew	-11.3093
▁fawn	-11.3095
▁heel	-11.3095
▁deck	-11.3095
▁defeat	-11.3095
▁feign	-11.3096
▁smother	-11.3097
▁transport	-11.3098
strikes	-11.3102
▁yare	-11.3107
▁unlawful	-11.3107
▁triumphant	-11.3108
▁pretti	-11.3108
▁impeach	-11.3111
▁german	-11.3111
▁simpl	-11.3115
▁recei	-11.3115
▁forsake	-11.3115
▁cheerful	-11.3116
▁dat	-11.3117
▁afflict	-11.3118
dded	-11.3118
▁lulla	-11.3119
▁magic	-11.3119
▁arraign	-11.3119
▁bellario	-11.3119
▁lamp	-11.3119
▁traffic	-11.3119
▁valour	-11.3119
▁adversaries	-11.3119
▁adverse	-11.3119
▁approbation	-11.3119
▁bishop	-11.3119
▁bounteous	-11.3119
▁calais	-11.3119
▁cauldron	-11.3119
▁colevile	-11.3119
▁commodity	-11.3119
▁consist	-11.3119
▁dismal	-11.3119
▁distance	-11.3119
▁dolabella	-11.3119
▁epitaph	-11.3119
▁escalus	-11.3119
▁eunuch	-11.3119
▁froze	-11.3119
▁juice	-11.3119
▁lecture	-11.3119
▁leontes	-11.3119
▁lofty	-11.3119
▁lunatic	-11.3119
▁lurk	-11.3119
▁marcellus	-11.3119
▁ordinary	-11.3119
▁perdita	-11.3119
▁permit	-11.3119
▁prophecy	-11.3119
▁reproach	-11.3119
▁slender	-11.3119
▁snail	-11.3119
▁surrey	-11.3119
▁syracusian	-11.3119
▁tiber	-11.3119
▁tyrannous	-11.3119
▁tyrrel	-11.3119
▁ursula	-11.3119
▁alliance	-11.3119
▁nightingale	-11.3119
▁tinker	-11.3119
▁famish	-11.3119
▁flint	-11.3119
▁froth	-11.3119
▁ostler	-11.3119
▁barber	-11.3119
▁excess	-11.3119
▁blaze	-11.3119
▁humility	-11.3119
▁posterity	-11.3119
▁belch	-11.3119
▁broil	-11.3119
▁misfortune	-11.3119
▁tardy	-11.3119
▁interim	-11.3119
▁decius	-11.3119
▁wrestling	-11.3119
▁stark	-11.3119
▁bubble	-11.3119
▁pestilence	-11.3119
morris	-11.3119
▁pastime	-11.3119
▁reference	-11.3119
▁style	-11.3119
▁combat	-11.3119
▁recount	-11.3119
▁truant	-11.3119
▁trash	-11.3119
▁fleance	-11.3119
▁cabin	-11.3119
▁carries	-11.312
▁trace	-11.312
▁election	-11.312
▁stew	-11.312
▁brace	-11.312
▁studies	-11.312
▁branch	-11.312
▁steward	-11.312
▁crew	-11.312
▁hedge	-11.312
▁dram	-11.312
▁climate	-11.312
▁loathsome	-11.312
▁scold	-11.312
▁cities	-11.312
▁distraction	-11.312
▁creation	-11.312
▁dim	-11.312
▁serious	-11.312
▁tubal	-11.312
▁surety	-11.312
▁solemnity	-11.312
▁gallop	-11.312
▁divers	-11.3121
▁cel	-11.3121
▁dissolve	-11.3121
▁oliver	-11.3121
▁pith	-11.3121
▁dissembling	-11.3121
▁sheriff	-11.3121
▁hoist	-11.3121
▁dainty	-11.3121
▁plantagenet	-11.3121
▁discreet	-11.3121
▁torches	-11.3121
▁wand	-11.3122
▁sweep	-11.3122
▁readiness	-11.3122
▁partake	-11.3122
▁lick	-11.3123
▁dian	-11.3123
▁map	-11.3124
▁scarf	-11.3124
▁sola	-11.3124
▁whistle	-11.3125
▁appel	-11.3125
▁dice	-11.3125
▁grandsire	-11.3125
▁stool	-11.3125
▁puppet	-11.3125
▁gust	-11.3126
▁budge	-11.3126
▁baby	-11.3126
▁commendable	-11.3126
but	-11.3126
▁deformed	-11.3126
▁daylight	-11.3126
▁compelled	-11.3126
▁mansion	-11.3127
▁healthful	-11.3128
▁bestride	-11.3128
▁verily	-11.3129
▁admitted	-11.3129
▁teem	-11.3129
▁whereupon	-11.313
▁cheerfully	-11.313
▁mightily	-11.313
▁outside	-11.313
▁sonnet	-11.313
▁watchful	-11.3131
▁ashes	-11.3131
▁approaches	-11.3132
▁nonny	-11.3133
▁somewhat	-11.3133
▁armies	-11.3133
▁bushy	-11.3133
▁distracted	-11.3136
▁lily	-11.3137
▁vanished	-11.3137
▁murderous	-11.3137
▁getting	-11.3138
▁wildness	-11.3138
▁sunday	-11.3139
▁admired	-11.314
▁daring	-11.314
▁inclined	-11.3141
▁dragon	-11.3142
▁discovery	-11.3144
not	-11.3144
▁speechless	-11.3145
▁hood	-11.3146
▁wracked	-11.3146
▁jaws	-11.3149
▁nobleman	-11.315
▁created	-11.3154
▁leaden	-11.3155
▁ingrateful	-11.3156
▁quest	-11.3159
▁du	-11.316
▁halter	-11.3161
▁dissemble	-11.3165
▁lodged	-11.3165
▁shorten	-11.3166
▁ewes	-11.3169
▁nin	-11.3169
▁upward	-11.3172
▁required	-11.3172
▁mocks	-11.3173
▁curl	-11.3176
▁maintained	-11.3177
▁rascally	-11.3177
▁rendered	-11.318
▁bower	-11.3181
▁bitterly	-11.3182
▁roundly	-11.3183
▁owl	-11.3186
▁denies	-11.3187
▁condemned	-11.3189
▁fairies	-11.3189
▁roared	-11.3192
▁balls	-11.3194
▁card	-11.3195
▁observed	-11.3196
▁blushing	-11.3196
▁valued	-11.3197
▁covered	-11.3199
she	-11.32
z	-11.3203
ent	-11.3203
▁sprites	-11.3208
▁grieved	-11.3208
▁afterwards	-11.3209
▁melted	-11.321
▁strings	-11.3213
▁dealing	-11.3214
▁dearth	-11.3215
▁antiqu	-11.3216
▁weighed	-11.3217
scaped	-11.3218
▁approved	-11.3232
▁mot	-11.3235
▁ripen	-11.324
▁richly	-11.324
go	-11.3243
▁tatter	-11.3248
▁persons	-11.3251
▁bide	-11.3266
▁mates	-11.3266
▁summons	-11.3267
▁lamentabl	-11.327
▁burned	-11.3271
▁oppos	-11.3271
▁mare	-11.3275
▁coldly	-11.3281
▁dido	-11.3287
dies	-11.3294
▁actors	-11.3301
▁curtains	-11.3306
▁extremes	-11.3309
▁laughing	-11.331
▁scars	-11.3314
▁inter	-11.332
▁leagues	-11.3326
▁millions	-11.3326
▁sinful	-11.3327
▁confines	-11.3327
ess	-11.334
▁confessed	-11.3343
▁jades	-11.3346
▁requires	-11.3347
▁wayward	-11.3351
way	-11.3351
▁attended	-11.3357
▁teaching	-11.3357
▁holes	-11.3357
▁fasting	-11.3361
▁keeper	-11.3384
▁plants	-11.3386
▁pra	-11.3394
▁bands	-11.3425
▁temples	-11.3426
▁flying	-11.3429
▁bruis	-11.3444
▁feathers	-11.3446
▁debate	-11.3447
ns	-11.3452
ny	-11.348
▁resemble	-11.348
▁whet	-11.3482
▁belov	-11.3485
▁fighting	-11.3486
▁hasten	-11.349
▁starts	-11.3509
▁tri	-11.351
▁isis	-11.3514
▁bo	-11.3522
▁crows	-11.3533
▁weal	-11.3554
▁su	-11.3601
▁reports	-11.3601
▁fen	-11.3606
▁fork	-11.3606
▁circumstances	-11.3609
lings	-11.3615
colored	-11.3616
▁floods	-11.3629
▁rocks	-11.363
▁ox	-11.3673
▁breathes	-11.3687
▁tables	-11.3691
▁abuses	-11.3694
ra	-11.3714
▁heap	-11.3729
b	-11.3733
▁playing	-11.3744
▁pa	-11.3747
▁hills	-11.3752
▁intends	-11.3754
▁bounds	-11.3766
▁bastards	-11.3796
▁h	-11.3827
▁mac	-11.3827
f	-11.3833
▁mate	-11.3868
how	-11.3873
▁songs	-11.391
▁lists	-11.3921
▁sc	-11.3928
▁drinks	-11.394
▁snatch	-11.3941
ned	-11.3944
light	-11.3955
▁shores	-11.3963
▁fooling	-11.3976
▁rascals	-11.3985
▁deaths	-11.3992
▁beds	-11.4066
▁fiends	-11.4091
hem	-11.4093
▁hurts	-11.4133
▁nut	-11.4141
len	-11.4156
long	-11.4158
▁rust	-11.4198
▁writer	-11.4238
ut	-11.424
▁dar	-11.4257
old	-11.4273
▁ro	-11.4277
▁brim	-11.4282
come	-11.4303
▁plea	-11.4321
fellow	-11.4339
▁revel	-11.4339
▁cases	-11.4352
gs	-11.4353
▁chronicle	-11.4354
▁disorder	-11.436
▁willful	-11.4365
▁indirect	-11.4366
▁greek	-11.4366
▁motive	-11.4367
▁fountain	-11.4369
▁brake	-11.4369
▁capon	-11.437
▁hip	-11.4371
▁anchor	-11.4381
tle	-11.4382
▁beetle	-11.4384
▁tribe	-11.4385
▁schoolmaster	-11.4385
▁maidenhead	-11.4385
▁foam	-11.4386
▁threat	-11.4387
▁gav	-11.4387
▁bas	-11.439
▁yard	-11.4391
▁monkey	-11.4392
▁accusation	-11.4392
▁eagle	-11.4394
▁spot	-11.4394
▁hoo	-11.4397
▁fan	-11.4397
▁spark	-11.4397
▁fang	-11.4399
▁sleeve	-11.4399
▁cave	-11.4402
▁hag	-11.4403
▁thorn	-11.4404
▁str	-11.4408
▁element	-11.441
▁al	-11.4414
▁crest	-11.442
▁sith	-11.4426
▁cope	-11.4435
▁promis	-11.4436
bbed	-11.4442
▁dart	-11.4446
▁dig	-11.4464
▁promises	-11.4469
▁twin	-11.4471
ins	-11.4475
▁kindle	-11.4478
▁flatterer	-11.4481
▁compel	-11.4483
ship	-11.4485
▁non	-11.4487
▁offers	-11.4495
▁cru	-11.4502
sick	-11.4507
▁translate	-11.4511
▁reserve	-11.4514
▁bowl	-11.4515
beat	-11.4518
ulous	-11.4519
▁dally	-11.452
civil	-11.452
banish	-11.452
▁fig	-11.452
pardon	-11.452
grown	-11.4521
elbow	-11.4521
water	-11.4521
fair	-11.4521
why	-11.4521
▁va	-11.4522
▁extend	-11.4522
calling	-11.4525
▁pant	-11.4526
▁constrain	-11.4528
▁mole	-11.4531
▁stout	-11.4533
▁incense	-11.4533
▁christ	-11.4535
▁knav	-11.4537
▁parthia	-11.4539
▁prop	-11.4542
▁unquiet	-11.4545
▁overthrow	-11.4545
▁exact	-11.4545
sciv	-11.4546
▁excel	-11.4547
▁specif	-11.4548
erwhelm	-11.4548
▁abandon	-11.4548
▁antigonus	-11.4548
▁applaud	-11.4548
▁aunchient	-11.4548
▁autumn	-11.4548
▁avaunt	-11.4548
▁bereft	-11.4548
▁berkeley	-11.4548
▁blossom	-11.4548
▁boatswain	-11.4548
▁buckram	-11.4548
▁canopy	-11.4548
▁chastity	-11.4548
▁cicero	-11.4548
▁codpiece	-11.4548
▁companies	-11.4548
▁consecrate	-11.4548
▁contagion	-11.4548
▁contagious	-11.4548
▁contemplation	-11.4548
▁courtesies	-11.4548
▁dedicate	-11.4548
▁defiance	-11.4548
▁descent	-11.4548
▁duchess	-11.4548
▁dunsinane	-11.4548
▁duteous	-11.4548
▁eager	-11.4548
▁eastcheap	-11.4548
▁epilogue	-11.4548
▁exchequer	-11.4548
▁froward	-11.4548
▁grudge	-11.4548
▁gulf	-11.4548
▁harfleur	-11.4548
▁hypocrite	-11.4548
▁innocence	-11.4548
▁lawrence	-11.4548
▁ligarius	-11.4548
▁malcolm	-11.4548
▁messina	-11.4548
▁mirror	-11.4548
▁miscarry	-11.4548
▁oberon	-11.4548
▁penury	-11.4548
▁period	-11.4548
▁precept	-11.4548
▁publius	-11.4548
▁ravenspurgh	-11.4548
▁redemption	-11.4548
▁resolute	-11.4548
▁rosaline	-11.4548
▁shrift	-11.4548
▁strict	-11.4548
▁tearsheet	-11.4548
▁underneath	-11.4548
▁venetian	-11.4548
▁yeoman	-11.4548
▁enlarge	-11.4548
▁pupil	-11.4548
▁spaniel	-11.4548
▁welkin	-11.4548
▁admiration	-11.4548
▁bullcalf	-11.4548
▁channel	-11.4548
▁follies	-11.4548
▁hearken	-11.4548
▁insult	-11.4548
▁slack	-11.4548
▁stony	-11.4548
▁morsel	-11.4548
▁jolly	-11.4548
▁usurer	-11.4548
▁waist	-11.4548
▁method	-11.4548
▁admirable	-11.4548
▁crystal	-11.4548
▁famine	-11.4548
▁geld	-11.4548
▁lartius	-11.4548
▁relent	-11.4548
▁levy	-11.4548
▁sequel	-11.4548
▁text	-11.4548
▁graft	-11.4548
▁kinsmen	-11.4548
▁bail	-11.4548
▁cleave	-11.4548
▁rabble	-11.4548
▁fortnight	-11.4548
▁murmur	-11.4548
▁tunis	-11.4548
▁confidence	-11.4548
▁verity	-11.4548
▁cowardice	-11.4548
▁scarlet	-11.4548
▁indignation	-11.4548
▁enjoin	-11.4548
▁accomplish	-11.4548
▁tullus	-11.4548
▁servingman	-11.4548
▁tartar	-11.4548
▁skies	-11.4548
▁surmise	-11.4548
▁sexton	-11.4548
▁station	-11.4548
▁dane	-11.4548
▁iniquity	-11.4548
▁churlish	-11.4548
▁penalty	-11.4548
▁shock	-11.4549
▁guiltiness	-11.4549
▁knighthood	-11.4549
▁vexation	-11.4549
▁precedent	-11.4549
▁mariana	-11.4549
▁swain	-11.4549
▁vary	-11.4549
▁assistance	-11.4549
▁alteration	-11.4549
▁cancel	-11.4549
▁gentlewomen	-11.4549
▁downright	-11.4549
▁oyster	-11.4549
▁harlot	-11.4549
▁fulfill	-11.4549
▁vial	-11.4549
▁helmet	-11.455
▁moonlight	-11.455
▁penance	-11.455
▁diana	-11.455
▁utterance	-11.455
▁wrestler	-11.455
▁spies	-11.455
well	-11.455
▁yawn	-11.455
construe	-11.455
▁drench	-11.455
▁borachio	-11.455
▁jaques	-11.455
▁snare	-11.455
▁thrall	-11.455
▁globe	-11.455
▁ginger	-11.455
▁clout	-11.455
▁trimmed	-11.455
▁balance	-11.455
▁repentance	-11.4551
▁speedily	-11.4551
▁gnaw	-11.4551
▁miscarried	-11.4551
▁pill	-11.4552
▁mockery	-11.4552
▁scald	-11.4552
▁moder	-11.4553
▁hacked	-11.4553
▁gay	-11.4553
▁forthwith	-11.4553
▁bondman	-11.4554
▁dieu	-11.4554
▁limp	-11.4554
▁trencher	-11.4554
▁clef	-11.4554
▁sung	-11.4554
▁girdle	-11.4554
▁exception	-11.4555
▁appearance	-11.4555
▁farm	-11.4555
▁stall	-11.4555
▁pasture	-11.4555
▁moist	-11.4556
▁changing	-11.4556
▁wheat	-11.4557
▁bragg	-11.4557
▁incorporate	-11.4557
▁parley	-11.4558
▁wretches	-11.4558
▁partial	-11.4558
▁mewed	-11.4558
▁courageous	-11.4558
▁consideration	-11.4559
▁nerve	-11.4559
▁painter	-11.4559
▁crooked	-11.4559
▁chapel	-11.456
weary	-11.456
▁hilts	-11.456
▁fitted	-11.4561
▁forgiveness	-11.4561
▁wrinkled	-11.4561
▁cloudy	-11.4562
▁gratis	-11.4562
▁glasses	-11.4562
▁scattered	-11.4563
▁displeased	-11.4563
▁goodwill	-11.4563
▁sew	-11.4564
▁incur	-11.4565
▁oppressed	-11.4565
▁ditch	-11.4567
▁driven	-11.4567
▁solely	-11.4568
▁shrewdly	-11.4569
▁pence	-11.4569
▁restraint	-11.4569
▁abominabl	-11.457
▁nicely	-11.457
▁tenderness	-11.4571
▁transported	-11.4572
▁crutch	-11.4575
▁changeling	-11.4577
▁swallowed	-11.4578
▁faintly	-11.4579
▁sheet	-11.4581
▁eve	-11.4581
▁reserved	-11.4582
▁grievances	-11.4582
▁arch	-11.4583
▁super	-11.4583
▁shillings	-11.4585
▁fourth	-11.4585
▁converted	-11.4586
▁lawless	-11.4588
▁atone	-11.4588
▁breathless	-11.459
▁fruitful	-11.4591
▁tainted	-11.4592
▁challenger	-11.4594
▁corrupted	-11.4596
▁packed	-11.4596
▁coy	-11.4596
▁adulter	-11.4597
▁neglected	-11.4599
▁secretly	-11.4601
▁wiser	-11.4602
▁employed	-11.4602
▁lour	-11.4603
▁feats	-11.4605
▁usurped	-11.4606
▁rarely	-11.4607
▁stopp	-11.4609
▁louder	-11.4618
▁preserved	-11.4618
▁directed	-11.4619
▁discomfort	-11.4619
▁pressed	-11.4619
liest	-11.4624
▁invited	-11.4624
▁wages	-11.4624
▁pronounced	-11.4628
▁kites	-11.4628
▁statutes	-11.4628
▁retired	-11.4628
▁covert	-11.4628
▁sailors	-11.4629
▁purged	-11.463
▁entreaty	-11.4631
▁counsels	-11.4635
▁arrows	-11.4639
▁asses	-11.464
▁uttered	-11.4641
▁cow	-11.4644
▁sweating	-11.4644
ic	-11.4645
▁goats	-11.4648
▁lethe	-11.4653
▁beads	-11.4655
▁offenders	-11.4657
▁diseased	-11.4658
me	-11.4665
▁pursued	-11.4665
▁refused	-11.4665
cet	-11.4667
▁gore	-11.4673
▁spheres	-11.4674
▁bowed	-11.4677
▁considered	-11.4677
▁mangle	-11.4681
▁frowning	-11.4681
▁butter	-11.4694
ans	-11.47
▁muster	-11.4706
▁wary	-11.4711
▁takest	-11.4713
▁suffering	-11.4714
are	-11.4714
▁crossed	-11.4717
▁fasten	-11.4719
▁disciplines	-11.472
▁decrees	-11.472
▁depends	-11.4726
▁toys	-11.4728
tish	-11.4734
▁harder	-11.4739
▁banks	-11.4743
▁rigor	-11.4743
▁graced	-11.4757
▁contains	-11.4766
during	-11.4769
▁rags	-11.4769
▁wisest	-11.4782
▁lacked	-11.4782
▁smiled	-11.48
▁truer	-11.4801
▁fouler	-11.4808
▁proceedings	-11.4813
▁haunts	-11.4813
▁passages	-11.4813
▁excused	-11.4822
▁wheels	-11.4836
▁fully	-11.4866
▁watching	-11.4874
▁principal	-11.4881
ar	-11.4883
ically	-11.4893
▁murderers	-11.4895
▁turks	-11.4906
▁n	-11.4908
▁objects	-11.493
▁asking	-11.493
ist	-11.4945
▁sweeten	-11.4975
▁captains	-11.4984
▁scots	-11.5001
▁mid	-11.5003
▁bathe	-11.5014
▁shameful	-11.5029
▁sall	-11.5029
▁strangers	-11.506
wing	-11.5063
▁sp	-11.5067
▁gallants	-11.5073
▁sticks	-11.5075
▁bites	-11.5079
▁needles	-11.5084
▁eats	-11.5095
do	-11.5116
▁hits	-11.512
now	-11.5122
▁il	-11.5125
▁ghosts	-11.5145
▁figures	-11.5169
▁lasting	-11.5172
▁gad	-11.5177
▁hall	-11.5179
tify	-11.5186
▁ru	-11.519
▁images	-11.5193
▁offences	-11.5217
▁bells	-11.5223
▁merits	-11.5243
▁thousands	-11.5244
ff	-11.5251
where	-11.5288
dst	-11.5292
▁particulars	-11.5315
▁br	-11.5316
▁dit	-11.5324
▁smells	-11.5339
▁tents	-11.536
▁believed	-11.5389
ery	-11.5394
▁cuts	-11.5453
▁garter	-11.5462
▁tops	-11.5468
▁fl	-11.5471
▁beck	-11.5474
king	-11.555
▁winters	-11.5589
▁labors	-11.5621
▁posts	-11.5636
▁breasts	-11.5639
▁offenses	-11.5639
▁pat	-11.5649
▁receives	-11.5671
side	-11.5675
▁gun	-11.5691
▁dul	-11.5696
lies	-11.5709
▁chains	-11.5715
▁mort	-11.5716
▁dangers	-11.5716
▁charges	-11.5718
▁feasts	-11.5721
▁fer	-11.5723
▁se	-11.5724
▁gil	-11.5763
▁bruise	-11.5789
▁quot	-11.5801
▁jacks	-11.5818
tress	-11.582
land	-11.5828
▁falcon	-11.5835
cy	-11.5859
▁helps	-11.5892
▁oppose	-11.5913
fall	-11.5918
▁unclean	-11.592
song	-11.5925
maid	-11.5929
master	-11.5929
liness	-11.593
livered	-11.5984
▁causes	-11.5989
ia	-11.5991
▁range	-11.5999
▁chances	-11.6006
▁ages	-11.6008
▁tutor	-11.6013
▁carrion	-11.6034
▁cobweb	-11.6034
▁kitchen	-11.6034
▁parrot	-11.6034
▁hind	-11.6034
▁braggart	-11.6034
▁charter	-11.6034
▁unthrift	-11.6035
ver	-11.6036
played	-11.6036
▁profession	-11.6037
▁stare	-11.6044
tree	-11.6051
▁fowl	-11.6051
▁gape	-11.6053
▁lamentation	-11.6054
▁discord	-11.6054
▁stab	-11.6056
▁taunt	-11.6056
▁riot	-11.6057
▁spider	-11.6059
▁nettle	-11.606
▁neighbour	-11.6067
monger	-11.6068
▁sphere	-11.6072
▁rite	-11.6072
▁alarum	-11.6075
▁hound	-11.6082
▁building	-11.6094
▁shakes	-11.6095
coming	-11.61
▁j	-11.6108
▁cr	-11.6113
▁pent	-11.6114
▁liv	-11.6117
▁im	-11.6122
far	-11.6141
ird	-11.6145
hood	-11.6146
guard	-11.6152
▁worships	-11.6158
▁judgments	-11.6158
post	-11.6161
gress	-11.6164
▁shriek	-11.6165
▁buckle	-11.6168
▁reckon	-11.617
▁clip	-11.6171
▁thi	-11.6171
▁invent	-11.6175
upon	-11.6175
▁stumble	-11.6178
▁relieve	-11.618
▁subscribe	-11.618
▁subdue	-11.6181
▁engage	-11.6182
▁fade	-11.6183
stabs	-11.6184
▁bat	-11.6184
kneels	-11.6184
▁buzz	-11.6185
▁interpret	-11.6186
fortunate	-11.6186
▁obscure	-11.6187
brain	-11.6187
▁discern	-11.6188
▁vanish	-11.6188
▁lace	-11.619
shows	-11.619
▁resist	-11.619
▁distract	-11.619
▁establish	-11.6192
▁affright	-11.6192
▁appoint	-11.6192
▁obtain	-11.6193
▁buri	-11.6193
▁disturb	-11.6195
▁create	-11.6196
▁fur	-11.6197
▁cheat	-11.6201
▁jail	-11.6202
▁easi	-11.6203
▁continual	-11.6204
▁listen	-11.6205
▁wren	-11.6206
▁accurs	-11.6208
borne	-11.621
▁imperfect	-11.6212
footed	-11.6212
▁volu	-11.6214
▁churl	-11.6214
▁protect	-11.6214
▁disloyal	-11.6214
▁advocate	-11.6214
▁alexandria	-11.6214
▁applause	-11.6214
▁arabia	-11.6214
▁barnardo	-11.6214
▁benvolio	-11.6214
▁blazon	-11.6214
▁calendar	-11.6214
▁carthage	-11.6214
▁center	-11.6214
▁chuck	-11.6214
▁claudius	-11.6214
▁conception	-11.6214
▁dignities	-11.6214
▁domestic	-11.6214
▁edict	-11.6214
▁education	-11.6214
▁engine	-11.6214
▁epidamnum	-11.6214
▁eternity	-11.6214
▁frantic	-11.6214
▁gadshill	-11.6214
▁geese	-11.6214
▁hippolyta	-11.6214
▁integrity	-11.6214
▁lantern	-11.6214
▁lazy	-11.6214
▁merchandise	-11.6214
▁necessaries	-11.6214
▁nicholas	-11.6214
▁pedlar	-11.6214
▁perdition	-11.6214
▁philosopher	-11.6214
▁phoenix	-11.6214
▁pyrrhus	-11.6214
▁ravish	-11.6214
▁release	-11.6214
▁religion	-11.6214
▁remedies	-11.6214
▁remnant	-11.6214
▁remote	-11.6214
▁repeat	-11.6214
▁reprieve	-11.6214
▁rutland	-11.6214
▁sceptre	-11.6214
▁secrecy	-11.6214
▁sepulcher	-11.6214
▁tabor	-11.6214
▁testament	-11.6214
▁tumble	-11.6214
▁ventidius	-11.6214
▁visor	-11.6214
▁wrote	-11.6214
▁belmont	-11.6214
▁chrish	-11.6214
▁derby	-11.6214
▁mispris	-11.6214
▁pilot	-11.6214
▁plebeians	-11.6214
▁smack	-11.6214
auf	-11.6214
lorn	-11.6214
▁abode	-11.6214
▁cambridge	-11.6214
▁staves	-11.6214
▁streak	-11.6214
▁vineyard	-11.6214
▁silly	-11.6214
▁spacious	-11.6214
▁christendom	-11.6214
▁garb	-11.6214
▁glean	-11.6214
▁mustardseed	-11.6214
▁dispraise	-11.6214
▁durance	-11.6214
▁barbarous	-11.6214
▁eyne	-11.6214
▁fickle	-11.6214
▁crimson	-11.6214
▁augment	-11.6215
▁latin	-11.6215
▁recreant	-11.6215
▁relation	-11.6215
▁wardrobe	-11.6215
▁greyhound	-11.6215
▁fardel	-11.6215
▁pridge	-11.6215
▁bagot	-11.6215
▁celia	-11.6215
▁diligence	-11.6215
▁divinity	-11.6215
▁observation	-11.6215
▁befits	-11.6215
▁continuance	-11.6215
▁conversation	-11.6215
▁blister	-11.6215
▁echo	-11.6215
▁planet	-11.6215
▁brutish	-11.6215
▁hymen	-11.6215
▁hammer	-11.6215
▁ostentation	-11.6215
▁hovel	-11.6215
▁captive	-11.6215
▁choleric	-11.6215
▁confiden	-11.6215
▁monday	-11.6215
▁compulsion	-11.6215
▁conjunction	-11.6215
▁meditation	-11.6215
▁dotage	-11.6215
▁generation	-11.6215
▁boat	-11.6215
▁chastisement	-11.6215
▁cherry	-11.6215
▁chamberlain	-11.6215
▁suggestion	-11.6215
▁adriana	-11.6215
▁protector	-11.6215
▁nether	-11.6215
▁miseries	-11.6215
▁dale	-11.6215
▁overdone	-11.6215
▁acre	-11.6215
▁starveling	-11.6215
▁villany	-11.6215
▁peremptory	-11.6215
▁merriment	-11.6215
▁navy	-11.6215
▁scythe	-11.6215
▁coil	-11.6215
▁smart	-11.6215
▁distinctly	-11.6215
▁cuff	-11.6216
▁corinth	-11.6216
▁chink	-11.6216
▁acceptance	-11.6216
▁fifth	-11.6216
▁uttermost	-11.6216
▁jig	-11.6216
▁boon	-11.6216
▁somebody	-11.6216
▁audit	-11.6216
▁powder	-11.6216
▁impression	-11.6216
▁impose	-11.6216
rising	-11.6216
▁riotous	-11.6216
▁parch	-11.6216
▁wiltshire	-11.6216
▁pursuit	-11.6217
▁harmony	-11.6217
▁satan	-11.6217
▁poetry	-11.6217
▁alehouse	-11.6217
▁inclining	-11.6217
▁branches	-11.6217
▁relief	-11.6217
▁pennyworth	-11.6217
▁bashful	-11.6217
▁puissan	-11.6217
▁pulse	-11.6217
▁compliment	-11.6217
▁glamis	-11.6217
▁havoc	-11.6217
▁paradise	-11.6217
▁sparrow	-11.6217
▁orange	-11.6217
▁ungentle	-11.6217
▁strato	-11.6218
▁mistaking	-11.6218
▁battery	-11.6218
▁license	-11.6218
▁mortality	-11.6219
▁disdainful	-11.6219
▁rout	-11.6219
▁elsewhere	-11.6219
▁overheard	-11.622
▁quantity	-11.622
▁dug	-11.622
▁betrothed	-11.622
▁worthiness	-11.6221
▁hoop	-11.6221
▁maim	-11.6221
▁stinking	-11.6221
shearing	-11.6221
estial	-11.6222
▁dishes	-11.6222
▁tub	-11.6222
▁hecate	-11.6222
▁damnable	-11.6222
▁wrench	-11.6222
▁advancement	-11.6223
▁circle	-11.6223
▁cloth	-11.6223
▁chosen	-11.6223
▁englishman	-11.6223
ical	-11.6223
▁chopped	-11.6223
▁calf	-11.6224
▁rashness	-11.6224
pated	-11.6224
▁cloy	-11.6225
▁incapable	-11.6226
▁wickedness	-11.6227
▁addressed	-11.6228
▁rue	-11.6228
▁majestical	-11.6228
▁vail	-11.6229
▁entreaties	-11.6229
▁swaggering	-11.6229
▁mankind	-11.623
▁link	-11.623
▁midst	-11.623
▁frosty	-11.623
▁worthiest	-11.623
▁gud	-11.6232
▁charitabl	-11.6232
▁flay	-11.6232
▁bitterness	-11.6233
▁indian	-11.6233
▁commendation	-11.6234
▁bespeak	-11.6235
▁witnesses	-11.6236
▁obtained	-11.6236
lash	-11.6236
▁asunder	-11.6236
▁roast	-11.6236
longs	-11.6238
▁thwart	-11.6238
▁comedy	-11.6239
▁carefully	-11.6239
▁comfortable	-11.6239
ertake	-11.624
▁clappe	-11.624
▁mildly	-11.6241
▁gout	-11.6242
▁fe	-11.6243
▁belied	-11.6244
▁lengthen	-11.6244
phos	-11.6245
▁languish	-11.6248
▁relieved	-11.6249
▁summ	-11.625
▁taper	-11.6252
▁conquered	-11.6252
▁dishonored	-11.6252
▁owen	-11.6252
▁detested	-11.6256
▁drugs	-11.6256
▁folks	-11.6256
▁pranks	-11.6256
▁grapes	-11.6256
▁affected	-11.6256
▁anew	-11.6257
bred	-11.6257
▁ross	-11.6258
▁aright	-11.6258
▁leader	-11.626
▁easter	-11.626
▁web	-11.6263
▁spoiled	-11.6264
▁grip	-11.6266
▁vexed	-11.6267
▁steeped	-11.6268
▁compounded	-11.6271
▁futur	-11.6271
▁hunting	-11.6272
▁ref	-11.6275
▁curtis	-11.6279
▁strangeness	-11.628
▁revolted	-11.6281
▁paint	-11.6283
▁railed	-11.6287
▁tending	-11.6292
▁concluded	-11.6296
▁restored	-11.6298
▁aimed	-11.6299
▁informed	-11.63
▁gentleness	-11.6304
▁profaned	-11.6308
▁cracked	-11.6309
▁banners	-11.631
▁theft	-11.6311
▁rapt	-11.6312
▁recovered	-11.6312
▁quill	-11.6318
▁starting	-11.6319
▁fu	-11.6322
▁despised	-11.6324
▁orderly	-11.6327
▁enjoyed	-11.6327
▁angered	-11.6329
▁runn	-11.6332
custome	-11.6338
▁savors	-11.6338
▁boughs	-11.6338
▁nymphs	-11.6341
▁herbs	-11.6342
▁interchange	-11.6343
▁dwelling	-11.6348
▁discharged	-11.6351
▁commence	-11.6352
▁sighing	-11.6357
▁rancor	-11.636
▁shunn	-11.6364
▁boldly	-11.6365
▁beggared	-11.6369
▁sports	-11.6373
▁extern	-11.6375
▁forester	-11.6377
▁doit	-11.6377
▁soften	-11.6378
▁sentenced	-11.6386
▁visited	-11.6387
▁proceeded	-11.6389
▁slandered	-11.639
▁sleeves	-11.6393
▁threats	-11.6393
▁praying	-11.6394
▁sweetness	-11.6398
▁flatterers	-11.6401
▁richer	-11.641
ach	-11.6416
▁sands	-11.6419
▁warriors	-11.642
▁liars	-11.6421
▁shouts	-11.6421
▁embraced	-11.6424
▁feasting	-11.6427
▁blasts	-11.6437
▁hen	-11.6437
▁hoot	-11.6437
▁hay	-11.6442
ged	-11.6443
ise	-11.6444
▁generally	-11.6446
▁complaints	-11.6448
▁accents	-11.6448
▁carriages	-11.6448
▁drunkards	-11.6449
▁scales	-11.6449
▁doting	-11.6469
▁nearly	-11.647
▁foils	-11.6475
▁acted	-11.6491
▁quarreling	-11.6494
ringe	-11.6498
▁exceeds	-11.6505
▁brands	-11.6505
▁cured	-11.6505
▁player	-11.6509
▁inf	-11.651
▁warp	-11.6516
▁murders	-11.652
▁abed	-11.6525
▁lightly	-11.6527
▁affords	-11.6532
▁ornaments	-11.6535
▁suited	-11.654
▁carouse	-11.6544
▁seni	-11.6545
nay	-11.655
▁belongs	-11.6552
ro	-11.6557
▁articles	-11.656
▁plum	-11.6563
▁yielding	-11.6565
▁nap	-11.6568
▁ch	-11.6574
▁hitherto	-11.6579
▁jester	-11.6581
▁watched	-11.6581
▁denying	-11.6591
▁slips	-11.6593
▁qualifi	-11.6602
▁rec	-11.6617
c	-11.6626
▁footing	-11.6637
▁herod	-11.6644
▁lambs	-11.6645
▁dreaming	-11.6649
▁compos	-11.665
▁wrap	-11.6651
▁prays	-11.6651
▁suppl	-11.6668
▁revive	-11.6684
▁dotes	-11.6684
▁streams	-11.6702
▁landed	-11.6704
seeming	-11.6707
▁chides	-11.6749
▁angle	-11.6756
▁gashe	-11.6759
erlook	-11.6769
▁par	-11.6772
▁career	-11.6773
▁provok	-11.6779
▁nell	-11.6786
▁pricks	-11.679
▁keys	-11.6817
▁merchants	-11.6817
▁abides	-11.6817
▁presented	-11.6833
▁bib	-11.6857
▁seed	-11.688
▁courses	-11.6882
▁lighted	-11.6887
hand	-11.6893
▁ending	-11.6897
▁bonnet	-11.6903
▁propose	-11.6913
▁thanked	-11.693
▁stomachs	-11.6992
▁bleeds	-11.6993
▁dared	-11.6998
itary	-11.7021
▁pierc	-11.7041
des	-11.7044
▁hoar	-11.7056
▁st	-11.7094
▁chi	-11.7101
dding	-11.7106
▁springs	-11.7106
▁storms	-11.711
▁minded	-11.7127
▁distinguish	-11.7148
enius	-11.7161
▁troubles	-11.7166
▁doubts	-11.7166
ping	-11.7175
▁tru	-11.7187
▁dra	-11.7229
un	-11.7241
end	-11.7256
▁col	-11.726
▁withhold	-11.7317
▁cups	-11.7321
ius	-11.733
▁bows	-11.7331
▁muffle	-11.7332
▁worthi	-11.7351
▁advantages	-11.7351
ding	-11.7352
▁v	-11.7368
ul	-11.7373
der	-11.7378
▁doubl	-11.7392
▁occasions	-11.7413
rate	-11.7421
ol	-11.7431
ux	-11.7458
our	-11.7459
▁widows	-11.7471
▁tyrants	-11.7505
▁lusti	-11.7525
▁suffers	-11.7542
▁gets	-11.7544
▁fights	-11.7586
▁fac	-11.7625
▁breaths	-11.7627
▁qu	-11.764
▁crosses	-11.7643
▁proofs	-11.766
▁cape	-11.7673
tre	-11.7748
▁eggs	-11.7755
▁oppress	-11.7755
▁oil	-11.7762
teful	-11.7815
▁wav	-11.7817
▁wool	-11.7825
▁lass	-11.7837
▁woos	-11.7849
▁shin	-11.7852
ow	-11.7867
▁per	-11.7869
▁fix	-11.7881
▁plagues	-11.7883
mouthed	-11.7885
heart	-11.7899
▁whips	-11.7899
can	-11.79
keeping	-11.7901
▁belie	-11.7914
abble	-11.7921
ph	-11.794
▁fin	-11.7945
▁hew	-11.7945
▁papers	-11.7948
ile	-11.7977
▁strik	-11.7979
▁den	-11.7994
give	-11.7996
stone	-11.7998
father	-11.8005
▁pri	-11.8008
stand	-11.8008
▁towns	-11.801
▁file	-11.8011
hole	-11.8024
▁char	-11.8029
▁gesture	-11.8034
▁salutation	-11.8034
▁session	-11.8034
▁untie	-11.8034
▁flute	-11.8034
▁churchyard	-11.8034
▁groom	-11.8034
▁freeze	-11.8037
▁performance	-11.8037
▁multitude	-11.8037
▁rent	-11.8038
▁male	-11.8043
▁bough	-11.8048
▁ambassador	-11.8051
▁cushion	-11.8051
▁syllable	-11.8051
▁verge	-11.8052
▁vine	-11.8052
▁pageant	-11.8052
▁thigh	-11.8053
▁exclaim	-11.8056
greed	-11.8056
▁stable	-11.8058
▁omit	-11.8058
▁organ	-11.8059
▁violet	-11.8059
▁vapor	-11.8059
▁snake	-11.806
▁eclipse	-11.8063
▁size	-11.8064
cord	-11.8066
▁nymph	-11.8066
▁savor	-11.8067
▁sprite	-11.8069
▁odor	-11.8072
▁afterward	-11.8076
▁ducat	-11.8077
ual	-11.8084
▁clothe	-11.8085
doing	-11.8092
friend	-11.8093
▁sweets	-11.8104
▁bone	-11.811
▁monsters	-11.811
▁acquit	-11.8113
▁string	-11.8114
tide	-11.8114
▁cord	-11.8118
▁herb	-11.8127
fire	-11.813
ize	-11.8135
▁mill	-11.8136
▁traveler	-11.8137
▁measures	-11.8145
havior	-11.8146
▁wan	-11.8153
apped	-11.8155
▁mor	-11.8156
▁goat	-11.8162
▁unse	-11.8169
▁wrestle	-11.817
throw	-11.8171
▁sala	-11.8173
▁conspire	-11.8176
lock	-11.8179
▁offender	-11.818
▁admire	-11.8181
▁pile	-11.8181
dea	-11.8183
offering	-11.8184
woman	-11.8184
glass	-11.8184
pence	-11.8185
thwart	-11.8185
▁glow	-11.8186
▁depose	-11.8186
kissing	-11.8187
book	-11.8187
boy	-11.8187
safe	-11.8187
▁mow	-11.8187
monster	-11.8187
sweet	-11.8188
welcome	-11.8188
caesar	-11.8188
which	-11.8188
▁scour	-11.8188
▁hatch	-11.819
▁droop	-11.819
ban	-11.8192
lical	-11.8192
▁dismay	-11.8193
cold	-11.8193
down	-11.8193
▁distemper	-11.8195
▁bake	-11.8196
▁rend	-11.8198
▁celebrate	-11.8203
▁scatter	-11.8203
your	-11.8204
ntiqu	-11.8205
drinks	-11.8205
grav	-11.8205
▁destin	-11.8208
▁curious	-11.8208
▁smel	-11.8209
▁forswor	-11.8211
▁surge	-11.8211
▁cram	-11.8212
▁covetous	-11.8213
▁wooer	-11.8213
▁annoy	-11.8214
▁reform	-11.8214
▁crop	-11.8214
▁pestilen	-11.8214
▁singular	-11.8214
▁curio	-11.8214
▁rebellio	-11.8214
admiring	-11.8214
honneur	-11.8214
quid	-11.8214
sequent	-11.8214
▁abbess	-11.8214
▁abject	-11.8214
▁almanac	-11.8214
▁apothecary	-11.8214
▁apparition	-11.8214
▁boisterous	-11.8214
▁brethren	-11.8214
▁bridal	-11.8214
▁canidius	-11.8214
▁caparison	-11.8214
▁carbuncle	-11.8214
▁chimney	-11.8214
▁citadel	-11.8214
▁conrade	-11.8214
▁controversy	-11.8214
▁coronet	-11.8214
▁corpse	-11.8214
▁dank	-11.8214
▁degenerate	-11.8214
▁deliberate	-11.8214
▁deprive	-11.8214
▁desolation	-11.8214
▁diamond	-11.8214
▁dissuade	-11.8214
▁doigts	-11.8214
▁donalbain	-11.8214
▁embassy	-11.8214
▁ensuing	-11.8214
▁entrails	-11.8214
▁fleece	-11.8214
▁frederick	-11.8214
▁gaberdine	-11.8214
▁genoa	-11.8214
▁gentry	-11.8214
▁grapple	-11.8214
▁hilding	-11.8214
▁incontinent	-11.8214
▁increasing	-11.8214
▁infamy	-11.8214
▁injustice	-11.8214
▁insolence	-11.8214
▁insolent	-11.8214
▁insurrection	-11.8214
▁lanthorn	-11.8214
▁lethargy	-11.8214
▁lodovico	-11.8214
▁mariners	-11.8214
▁mercury	-11.8214
▁montano	-11.8214
▁neapolitan	-11.8214
▁nunnery	-11.8214
▁peascod	-11.8214
▁peaseblossom	-11.8214
▁peculiar	-11.8214
▁plenteous	-11.8214
▁plenty	-11.8214
▁polack	-11.8214
▁porpentine	-11.8214
▁prophecies	-11.8214
▁pulpit	-11.8214
▁raiment	-11.8214
▁reprehend	-11.8214
▁retort	-11.8214
▁retreat	-11.8214
▁ridiculous	-11.8214
▁seleucus	-11.8214
▁sherris	-11.8214
▁shrunk	-11.8214
▁sulfur	-11.8214
▁sycorax	-11.8214
▁territories	-11.8214
▁thidias	-11.8214
▁troilus	-11.8214
▁trojan	-11.8214
▁unwholesome	-11.8214
▁wrangle	-11.8214
▁wrangling	-11.8214
▁wreath	-11.8214
▁adversary	-11.8214
▁argue	-11.8214
▁attorney	-11.8214
▁brisk	-11.8214
▁carcass	-11.8214
▁celerity	-11.8214
▁conflict	-11.8214
▁december	-11.8214
▁drudge	-11.8214
▁glimmer	-11.8214
▁gregory	-11.8214
▁hydra	-11.8214
▁intercept	-11.8214
▁jacob	-11.8214
▁judas	-11.8214
▁palpable	-11.8214
▁parallel	-11.8214
▁qualify	-11.8214
▁retain	-11.8214
▁shiver	-11.8214
▁sneak	-11.8214
▁thirst	-11.8214
▁baggage	-11.8214
▁bagpipe	-11.8214
▁devout	-11.8214
▁empress	-11.8214
▁imposition	-11.8214
▁macedon	-11.8214
▁void	-11.8214
▁weasel	-11.8214
▁harbinger	-11.8214
▁robbery	-11.8214
▁stoup	-11.8214
▁angus	-11.8214
▁bourn	-11.8214
▁clamour	-11.8214
▁knell	-11.8214
▁wilful	-11.8214
▁puck	-11.8214
▁spain	-11.8214
▁target	-11.8214
▁stung	-11.8214
▁twelvemonth	-11.8214
▁imputation	-11.8215
▁danish	-11.8215
▁different	-11.8215
▁glories	-11.8215
▁salvation	-11.8215
▁striving	-11.8215
▁recreation	-11.8215
▁whelp	-11.8215
▁awry	-11.8215
▁confused	-11.8215
▁malignant	-11.8215
▁bonny	-11.8215
▁happen	-11.8215
▁siward	-11.8215
▁persever	-11.8215
▁provision	-11.8215
▁malady	-11.8215
▁mardian	-11.8215
▁trail	-11.8215
▁waft	-11.8215
▁boist	-11.8215
▁bunch	-11.8215
▁operation	-11.8215
▁shrink	-11.8215
▁taurus	-11.8215
▁antonius	-11.8215
▁shrug	-11.8215
▁smock	-11.8215
▁stalk	-11.8215
▁replied	-11.8215
▁therewithal	-11.8215
▁variable	-11.8215
▁prerogative	-11.8215
▁parson	-11.8215
▁perturbation	-11.8215
▁skirts	-11.8215
▁generous	-11.8215
▁valeria	-11.8215
▁mooncalf	-11.8215
▁circum	-11.8215
▁magician	-11.8215
▁turkey	-11.8215
▁ceremonies	-11.8215
▁oui	-11.8215
▁parentage	-11.8215
▁elves	-11.8215
▁purity	-11.8215
▁puissance	-11.8215
▁cream	-11.8215
▁patron	-11.8215
▁portend	-11.8215
▁wedlock	-11.8215
▁cloister	-11.8215
▁ceremonious	-11.8215
▁medlar	-11.8215
▁vicious	-11.8215
▁uncertain	-11.8215
▁westward	-11.8215
▁sincerity	-11.8215
▁uneven	-11.8215
▁tallow	-11.8215
▁interpretation	-11.8215
▁dung	-11.8215
▁downstairs	-11.8215
▁opportunity	-11.8215
▁woodcock	-11.8215
▁evidence	-11.8215
▁unlooked	-11.8215
▁housewife	-11.8215
▁idol	-11.8215
▁surgery	-11.8215
▁gloucestershire	-11.8215
▁sanctity	-11.8215
▁capacity	-11.8215
▁nightgown	-11.8215
▁tragedy	-11.8215
▁bier	-11.8216
▁sterile	-11.8216
▁europe	-11.8216
▁empire	-11.8216
▁extempore	-11.8216
▁wight	-11.8216
▁obsequious	-11.8216
▁ghastly	-11.8216
▁overween	-11.8216
▁hobby	-11.8216
▁momentary	-11.8216
▁brine	-11.8216
▁loins	-11.8216
▁vestal	-11.8216
▁oats	-11.8216
▁clog	-11.8216
▁mold	-11.8216
▁touchstone	-11.8216
▁swine	-11.8216
▁repay	-11.8216
▁shepherdess	-11.8216
▁leak	-11.8216
▁armour	-11.8216
▁maw	-11.8216
▁heathen	-11.8217
▁foh	-11.8217
▁rake	-11.8217
▁hatches	-11.8217
▁soldiership	-11.8217
▁ungracious	-11.8217
▁vanquished	-11.8217
▁clement	-11.8217
▁badge	-11.8217
▁palt	-11.8217
▁forfeiture	-11.8217
▁courtship	-11.8218
▁direful	-11.8218
▁unmannerly	-11.8218
▁steer	-11.8218
▁wrongfully	-11.8218
▁gum	-11.8218
▁temptation	-11.8218
▁battlements	-11.8218
▁gobbo	-11.8218
▁cuckoo	-11.8218
▁scroll	-11.8218
▁paragon	-11.8218
▁ordinance	-11.8218
▁rood	-11.8218
▁prevention	-11.8218
▁accompanied	-11.8218
▁trow	-11.8218
▁conveyance	-11.8218
▁fraught	-11.8218
▁legitimate	-11.8219
▁crawl	-11.8219
ient	-11.8219
▁conjecture	-11.8219
▁unprovided	-11.822
▁axe	-11.822
▁fog	-11.822
▁pole	-11.8221
▁reprove	-11.8221
▁mixed	-11.8221
▁slippery	-11.8221
▁yew	-11.8221
▁lieu	-11.8221
▁marian	-11.8221
▁bout	-11.8222
▁overcame	-11.8222
▁robbing	-11.8223
▁sweetheart	-11.8223
▁viper	-11.8223
▁batt	-11.8224
thus	-11.8224
▁jealousies	-11.8224
▁marred	-11.8224
▁accompan	-11.8224
▁ounce	-11.8224
▁tawny	-11.8225
▁accost	-11.8225
▁grandfather	-11.8225
▁lavish	-11.8225
esday	-11.8226
▁protestation	-11.8226
▁adultery	-11.8226
▁flash	-11.8226
▁rusty	-11.8227
▁malt	-11.8227
▁swinged	-11.8227
▁riddle	-11.8227
▁germany	-11.8228
▁unborn	-11.8229
▁jailer	-11.8229
▁indirectly	-11.823
▁largess	-11.8231
▁pry	-11.8231
▁sconce	-11.8231
▁imprisoned	-11.8232
▁spear	-11.8232
▁pense	-11.8232
▁lane	-11.8233
▁imperi	-11.8233
▁galleys	-11.8233
▁across	-11.8234
▁churches	-11.8234
▁childish	-11.8234
alas	-11.8235
▁penny	-11.8235
ergo	-11.8236
▁sourest	-11.8236
▁dismayed	-11.8236
▁flown	-11.8237
▁deathbed	-11.8237
▁distempered	-11.8237
▁crafty	-11.8237
▁drooping	-11.8238
▁unity	-11.8238
▁hunger	-11.8238
whore	-11.8239
▁bespoke	-11.824
▁unjustly	-11.8241
there	-11.8243
▁semblabl	-11.8245
▁affrighted	-11.8245
▁plainness	-11.8247
▁severn	-11.825
▁concealed	-11.8251
▁seventh	-11.8251
▁cheater	-11.8251
awful	-11.8252
▁feigning	-11.8254
▁blasted	-11.8255
times	-11.8256
▁unlike	-11.8258
▁laced	-11.8258
▁declined	-11.826
▁feelingly	-11.826
▁memor	-11.8261
▁passes	-11.8261
▁assign	-11.8262
▁tart	-11.8263
▁equally	-11.8263
pot	-11.8265
▁animals	-11.8266
▁fingres	-11.8266
▁prunes	-11.8267
▁swaggerers	-11.8267
▁mary	-11.8269
▁cart	-11.827
▁wedded	-11.827
▁sicken	-11.8272
▁torn	-11.8273
▁reek	-11.8273
▁lowest	-11.8274
▁incline	-11.8275
▁incite	-11.8276
▁descended	-11.8281
▁poll	-11.8281
singing	-11.8282
▁executioner	-11.8284
▁patched	-11.8285
▁planted	-11.8285
▁mast	-11.8286
▁beggary	-11.8286
▁renew	-11.8288
iest	-11.829
▁masked	-11.829
▁packing	-11.8292
▁whoe	-11.8292
▁chiding	-11.8293
▁wrathful	-11.8293
▁braver	-11.8293
▁standard	-11.8295
▁lightness	-11.8296
▁sli	-11.8299
▁vit	-11.8299
▁union	-11.83
▁confederates	-11.83
▁begging	-11.83
▁simo	-11.8301
▁stooping	-11.8301
▁trained	-11.8305
rrival	-11.8306
▁escaped	-11.8306
▁rudely	-11.8311
▁whipt	-11.8312
▁started	-11.8313
▁destroyed	-11.8315
▁dreaded	-11.832
▁rams	-11.8322
▁starved	-11.8322
▁painful	-11.8326
▁demanded	-11.8326
▁harden	-11.8327
▁lesson	-11.8327
beseem	-11.8332
▁jars	-11.8334
▁coals	-11.8334
▁attendants	-11.8335
affron	-11.8337
▁swiftly	-11.8337
▁ruminate	-11.8339
▁ruined	-11.834
▁latch	-11.8341
▁clapp	-11.8345
▁hairy	-11.8351
▁shorter	-11.836
▁wakest	-11.8363
▁hector	-11.8365
▁beset	-11.8366
▁wildly	-11.8366
▁eclipses	-11.8368
▁regarded	-11.8368
▁travelers	-11.8374
▁queas	-11.8377
▁tenderly	-11.838
▁wooers	-11.838
▁gained	-11.8392
eled	-11.8397
▁graze	-11.8409
▁minc	-11.8414
▁hardy	-11.8417
vez	-11.8422
▁drawer	-11.8427
▁catching	-11.8431
▁cop	-11.8432
ddle	-11.8432
▁sparks	-11.8436
▁spots	-11.8437
▁comb	-11.8438
▁owest	-11.845
▁proudly	-11.8456
▁brit	-11.8459
▁sca	-11.8461
els	-11.8466
▁commended	-11.8467
▁path	-11.8469
time	-11.847
▁rivals	-11.8471
▁steeds	-11.8471
▁bags	-11.8471
▁seeds	-11.8472
▁laboring	-11.8472
▁mourner	-11.8474
gone	-11.8478
▁prized	-11.848
▁guides	-11.8499
ying	-11.8499
▁wo	-11.8506
gging	-11.8507
cks	-11.8525
▁sleepy	-11.8526
read	-11.8532
▁professe	-11.8532
▁deservings	-11.8541
▁follower	-11.8541
▁functions	-11.8541
▁gossips	-11.8541
▁caskets	-11.8541
▁instructions	-11.8541
▁petitions	-11.8543
▁dre	-11.8545
▁waken	-11.8559
▁orl	-11.8571
▁dispute	-11.858
▁vest	-11.8587
▁honestly	-11.8608
▁opened	-11.861
▁brawls	-11.8611
▁leeks	-11.8611
▁physicians	-11.8611
▁poorest	-11.8612
co	-11.8625
▁parish	-11.863
▁fleshed	-11.8645
▁exercises	-11.8646
▁infants	-11.8646
▁spoils	-11.8647
▁courser	-11.865
▁quarters	-11.8652
▁fact	-11.8658
▁foi	-11.8666
▁amaz	-11.8674
▁betide	-11.8678
▁builds	-11.8679
▁lances	-11.8682
▁tokens	-11.8682
▁defects	-11.8682
▁poets	-11.8682
▁blamed	-11.8685
▁closed	-11.8702
▁misle	-11.8706
▁issued	-11.8708
▁chanced	-11.8708
▁nations	-11.8717
▁garlands	-11.8717
▁abridge	-11.8723
▁soar	-11.8732
▁directions	-11.8753
▁warn	-11.8756
▁laps	-11.8769
ig	-11.8782
▁tends	-11.8819
▁montagues	-11.8825
▁possessions	-11.8825
▁owed	-11.8831
▁colt	-11.8837
▁wasp	-11.885
▁herring	-11.8852
▁braved	-11.8854
▁pleases	-11.8854
▁conclusions	-11.8861
▁ar	-11.8886
▁expire	-11.8893
▁brooks	-11.8897
bolt	-11.8906
▁whores	-11.8919
▁itch	-11.8933
▁differences	-11.8933
▁min	-11.8937
mon	-11.8939
shape	-11.8949
ler	-11.8962
more	-11.8964
thing	-11.898
scapes	-11.8981
▁amaze	-11.8982
▁commits	-11.8985
nd	-11.8992
▁consuls	-11.9006
▁sh	-11.9006
▁proclaims	-11.9008
▁mu	-11.9027
▁sucks	-11.9042
▁attaint	-11.9052
ze	-11.9052
▁bon	-11.9081
▁tailors	-11.9081
▁vie	-11.9099
▁girls	-11.9117
▁galls	-11.9118
▁ball	-11.913
ficial	-11.9135
pped	-11.9144
▁debts	-11.915
▁pockets	-11.9154
▁maidens	-11.9155
ard	-11.9165
▁prattle	-11.9168
▁pardoned	-11.9169
▁mon	-11.9178
▁barr	-11.9202
▁notes	-11.9208
▁tripp	-11.9223
uce	-11.9249
▁chap	-11.9267
▁mat	-11.9273
ye	-11.9287
rest	-11.9312
▁ware	-11.9317
▁dances	-11.9323
ix	-11.9324
che	-11.934
▁arguments	-11.9343
worthy	-11.9344
▁diss	-11.9373
▁chari	-11.9382
▁kneels	-11.9392
tempered	-11.9399
attling	-11.9402
▁unpleas	-11.9442
▁addict	-11.9467
ci	-11.9489
▁sorts	-11.9494
▁gains	-11.9499
▁remov	-11.9529
ps	-11.9569
▁thanes	-11.9572
▁pounds	-11.9573
▁fails	-11.9575
med	-11.9597
▁loathe	-11.962
ugh	-11.9654
▁champ	-11.9657
▁spi	-11.9672
▁births	-11.969
▁blushes	-11.969
▁motions	-11.9691
▁rises	-11.9696
ancy	-11.9764
▁ti	-11.9766
▁purg	-11.9767
▁broache	-11.9808
cock	-11.9825
▁marvell	-11.9828
▁beseem	-11.9839
base	-11.9861
▁philip	-11.9862
▁tunes	-11.9864
▁meal	-11.9883
ites	-11.9903
ls	-11.9922
hold	-11.9968
▁opinions	-11.9968
ations	-11.9991
gate	-12.002
▁livest	-12.0022
▁musty	-12.0024
▁smok	-12.0089
▁hunts	-12.0108
▁compose	-12.0111
ie	-12.0118
▁venge	-12.0126
kind	-12.0152
▁unre	-12.017
ton	-12.0192
raught	-12.022
ior	-12.0231
▁enters	-12.0233
shire	-12.0244
kin	-12.0256
▁summers	-12.0259
run	-12.0269
▁starv	-12.0282
▁mortals	-12.0299
▁hug	-12.0306
▁clos	-12.0313
ake	-12.0337
▁mitigat	-12.0342
▁prophetic	-12.0346
▁treat	-12.0361
look	-12.0367
▁arti	-12.0369
▁ke	-12.0382
▁vol	-12.0389
▁u	-12.0408
▁commun	-12.0414
iable	-12.0434
▁sm	-12.0447
▁dive	-12.0449
▁pie	-12.0467
reading	-12.0478
▁assail	-12.0478
▁majest	-12.0485
beard	-12.0515
▁olive	-12.0531
▁decline	-12.0533
▁deceit	-12.0534
▁petticoat	-12.0535
▁buffet	-12.0535
▁schoolboy	-12.0535
▁brat	-12.0537
▁sect	-12.0538
▁wive	-12.0538
▁reel	-12.054
▁arriv	-12.0543
▁cros	-12.0545
pace	-12.0546
▁counselor	-12.0546
▁pagan	-12.0552
▁club	-12.0552
▁potion	-12.0555
▁creditor	-12.0556
▁induce	-12.0556
▁foundation	-12.0557
▁spectacle	-12.0559
▁volscian	-12.0559
▁flaw	-12.0559
▁brier	-12.056
▁dep	-12.0562
▁pike	-12.0564
▁jar	-12.0564
▁banner	-12.0566
▁statute	-12.0568
▁arrow	-12.0568
▁attendant	-12.0571
▁kite	-12.0573
▁sailor	-12.0574
asted	-12.0575
▁citizen	-12.0575
▁coal	-12.0579
▁tribune	-12.0582
passionate	-12.0584
skins	-12.0596
▁reads	-12.0604
▁enforc	-12.0613
▁mess	-12.0618
▁caper	-12.0622
tail	-12.0623
thought	-12.0624
name	-12.0625
pick	-12.0633
▁member	-12.0636
▁compassion	-12.0638
izing	-12.0641
falls	-12.0643
eared	-12.0648
honor	-12.065
▁celebrat	-12.065
▁preach	-12.0651
▁brav	-12.0653
cus	-12.0654
nstead	-12.0656
▁fle	-12.0656
cast	-12.0663
▁plac	-12.0663
qua	-12.0665
▁approv	-12.0667
wis	-12.0669
aver	-12.0669
▁boun	-12.0671
▁swagger	-12.0676
▁disclose	-12.0681
▁believ	-12.0682
cloth	-12.0682
gentle	-12.0682
▁advis	-12.0684
▁thron	-12.0684
minded	-12.0685
valued	-12.0686
lord	-12.0686
nonny	-12.0686
faith	-12.0686
fool	-12.0686
appointed	-12.0686
proof	-12.0687
bone	-12.0687
kisses	-12.0687
sir	-12.0687
human	-12.0687
▁raze	-12.0687
present	-12.0688
spirit	-12.0688
music	-12.0688
madam	-12.0688
much	-12.0688
open	-12.0688
covered	-12.0688
▁declin	-12.0689
▁adopt	-12.0689
better	-12.069
▁sy	-12.069
▁drab	-12.069
advised	-12.069
death	-12.0691
▁imprison	-12.0691
delivered	-12.0692
▁finish	-12.0692
▁suborn	-12.0692
case	-12.0693
▁creat	-12.0693
wind	-12.0693
▁interrupt	-12.0693
▁sojourn	-12.0697
▁address	-12.0698
▁trench	-12.07
con	-12.0701
▁prophes	-12.0701
▁malicious	-12.0703
▁insinuat	-12.0705
▁glutton	-12.0705
▁horribl	-12.0705
▁crook	-12.0707
▁filth	-12.0708
▁che	-12.0711
▁mechanic	-12.0712
▁mould	-12.0712
▁susp	-12.0712
▁kn	-12.0713
▁tragic	-12.0713
▁priam	-12.0713
▁quarr	-12.0714
▁fence	-12.0714
▁sensual	-12.0714
usual	-12.0714
▁popular	-12.0714
▁eloquen	-12.0714
evish	-12.0714
eparation	-12.0714
tiful	-12.0714
▁comple	-12.0714
▁affirm	-12.0714
▁perpend	-12.0714
advancing	-12.0714
▁aediles	-12.0714
▁afresh	-12.0714
▁agincourt	-12.0714
▁anatomize	-12.0714
▁anguish	-12.0714
▁anthony	-12.0714
▁babbling	-12.0714
▁bedlam	-12.0714
▁bequeath	-12.0714
▁calamity	-12.0714
▁calphurnia	-12.0714
▁cheese	-12.0714
▁christopher	-12.0714
▁cleomenes	-12.0714
▁clitus	-12.0714
▁comparisons	-12.0714
▁conduit	-12.0714
▁congregation	-12.0714
▁cottage	-12.0714
▁crocodile	-12.0714
▁curfew	-12.0714
▁dalliance	-12.0714
▁daniel	-12.0714
▁defence	-12.0714
▁dejected	-12.0714
▁descry	-12.0714
▁desperation	-12.0714
▁detect	-12.0714
▁discredit	-12.0714
▁dispense	-12.0714
▁disquiet	-12.0714
▁distrust	-12.0714
▁doctrine	-12.0714
▁earthquake	-12.0714
▁egeon	-12.0714
▁egeus	-12.0714
▁elsinore	-12.0714
▁embassage	-12.0714
▁enact	-12.0714
▁excrement	-12.0714
▁expedience	-12.0714
▁expedient	-12.0714
▁extent	-12.0714
▁extort	-12.0714
▁extremities	-12.0714
▁festival	-12.0714
▁florizel	-12.0714
▁glitt	-12.0714
▁greasy	-12.0714
▁habiliments	-12.0714
▁hawthorn	-12.0714
▁headstrong	-12.0714
▁hecuba	-12.0714
▁hereabout	-12.0714
▁idiot	-12.0714
▁idolatry	-12.0714
▁imaginary	-12.0714
▁immaculate	-12.0714
▁imminent	-12.0714
▁incestuous	-12.0714
▁innocency	-12.0714
▁interlude	-12.0714
▁intermission	-12.0714
▁jerusalem	-12.0714
▁jocund	-12.0714
▁judicious	-12.0714
▁luxurious	-12.0714
▁luxury	-12.0714
▁major	-12.0714
▁marquess	-12.0714
▁masham	-12.0714
▁montjoy	-12.0714
▁mutinous	-12.0714
▁nilus	-12.0714
▁nimbly	-12.0714
▁obscene	-12.0714
▁ominous	-12.0714
▁orphans	-12.0714
▁parliament	-12.0714
▁penitence	-12.0714
▁pharamond	-12.0714
▁plough	-12.0714
▁proculeius	-12.0714
▁promotion	-12.0714
▁prostrate	-12.0714
▁pythagoras	-12.0714
▁regreet	-12.0714
▁relate	-12.0714
▁reveal	-12.0714
▁reverent	-12.0714
▁revoke	-12.0714
▁rhodes	-12.0714
▁rialto	-12.0714
▁rosemary	-12.0714
▁sacrament	-12.0714
▁salerio	-12.0714
▁sergeant	-12.0714
▁seyton	-12.0714
▁simplicity	-12.0714
▁sinister	-12.0714
▁smote	-12.0714
▁snuff	-12.0714
▁snug	-12.0714
▁spoon	-12.0714
▁stride	-12.0714
▁supreme	-12.0714
▁synod	-12.0714
▁syracusa	-12.0714
▁syracuse	-12.0714
▁tabour	-12.0714
▁tarpeian	-12.0714
▁trebonius	-12.0714
▁trivial	-12.0714
▁understood	-12.0714
▁unfirm	-12.0714
▁validity	-12.0714
▁vitae	-12.0714
▁vizards	-12.0714
▁volumnia	-12.0714
▁volumnius	-12.0714
▁wittenberg	-12.0714
angleterre	-12.0714
▁bias	-12.0714
▁brazen	-12.0714
▁carpenter	-12.0714
▁discuss	-12.0714
▁dungeon	-12.0714
▁expostulate	-12.0714
▁extol	-12.0714
▁fulsome	-12.0714
▁galliard	-12.0714
▁gonzago	-12.0714
▁impoten	-12.0714
▁index	-12.0714
▁manifold	-12.0714
▁porch	-12.0714
▁recoil	-12.0714
▁refresh	-12.0714
▁ribbon	-12.0714
▁swarm	-12.0714
▁affable	-12.0714
▁arthur	-12.0714
▁besmear	-12.0714
▁carnal	-12.0714
▁civet	-12.0714
▁cressid	-12.0714
▁happies	-12.0714
▁jollity	-12.0714
▁knives	-12.0714
▁obstinate	-12.0714
▁opposition	-12.0714
▁osric	-12.0714
▁rhenish	-12.0714
▁spade	-12.0714
▁sparta	-12.0714
▁vehemen	-12.0714
▁bestir	-12.0714
▁crispian	-12.0714
▁cypress	-12.0714
▁distaff	-12.0714
▁environ	-12.0714
▁grub	-12.0714
▁margery	-12.0714
▁meek	-12.0714
▁pedant	-12.0714
▁antium	-12.0714
▁forfend	-12.0714
▁italian	-12.0714
▁james	-12.0714
▁minola	-12.0714
▁vernon	-12.0714
▁daub	-12.0714
▁expound	-12.0714
▁grind	-12.0714
▁midwife	-12.0714
▁register	-12.0714
▁mutine	-12.0714
▁quiver	-12.0714
▁appellant	-12.0714
▁apron	-12.0714
▁evident	-12.0714
▁invade	-12.0714
▁submit	-12.0714
▁trudge	-12.0714
▁brood	-12.0715
▁clime	-12.0715
▁coventry	-12.0715
▁luggage	-12.0715
▁disclaim	-12.0715
▁indignities	-12.0715
▁stature	-12.0715
▁proscription	-12.0715
▁copper	-12.0715
▁fustian	-12.0715
▁haggard	-12.0715
▁inclination	-12.0715
▁nook	-12.0715
▁prodigious	-12.0715
▁torchbearer	-12.0715
▁banns	-12.0715
▁gear	-12.0715
▁hogshead	-12.0715
▁shove	-12.0715
▁lenity	-12.0715
▁permission	-12.0715
▁altar	-12.0715
▁perdu	-12.0715
▁libertine	-12.0715
▁residence	-12.0715
▁arbitrament	-12.0715
▁intercession	-12.0715
▁bucket	-12.0715
▁chaff	-12.0715
▁attentive	-12.0715
▁benediction	-12.0715
▁dardanius	-12.0715
▁liberties	-12.0715
▁benedictus	-12.0715
▁cordial	-12.0715
▁servitor	-12.0715
▁disfigure	-12.0715
▁russia	-12.0715
▁requital	-12.0715
▁desolate	-12.0715
▁frailty	-12.0715
▁stafford	-12.0715
▁transgression	-12.0715
▁antiates	-12.0715
▁billow	-12.0715
▁suppliant	-12.0715
▁brach	-12.0715
▁poland	-12.0715
▁deformity	-12.0715
▁tincture	-12.0715
▁wilderness	-12.0715
▁breeches	-12.0715
▁spilt	-12.0715
▁daff	-12.0715
▁regiment	-12.0715
▁pottle	-12.0715
▁variation	-12.0715
▁pester	-12.0715
▁blanket	-12.0715
▁trent	-12.0715
▁alarm	-12.0715
▁hazel	-12.0715
▁prediction	-12.0715
▁tennis	-12.0715
▁authorities	-12.0715
▁dick	-12.0715
▁unluck	-12.0715
▁robbers	-12.0715
▁emulation	-12.0715
▁factor	-12.0715
▁preservation	-12.0715
▁illusion	-12.0715
▁arden	-12.0715
▁adorn	-12.0715
▁brothel	-12.0715
▁springtime	-12.0715
▁nile	-12.0715
▁purgation	-12.0715
▁packet	-12.0715
▁draught	-12.0715
▁cutpurse	-12.0715
▁antiquity	-12.0715
▁unluckily	-12.0715
uspicio	-12.0715
▁gird	-12.0715
▁untainted	-12.0715
▁odious	-12.0715
▁berries	-12.0715
▁waspish	-12.0715
▁deceitful	-12.0715
▁expel	-12.0716
▁desk	-12.0716
▁mab	-12.0716
▁clink	-12.0716
▁buzzard	-12.0716
▁park	-12.0716
▁roan	-12.0716
▁determination	-12.0716
▁denial	-12.0716
▁unprofitable	-12.0716
▁mason	-12.0716
▁lecherous	-12.0716
▁strand	-12.0716
▁pension	-12.0716
▁adversity	-12.0716
▁apoplexy	-12.0716
▁calumny	-12.0716
▁extraordinary	-12.0716
▁lunacy	-12.0716
▁forgetfulness	-12.0716
▁welshmen	-12.0716
▁violate	-12.0716
▁dinnertime	-12.0716
▁triple	-12.0716
▁bauble	-12.0716
▁politician	-12.0716
▁sponge	-12.0716
▁unsure	-12.0716
▁appointment	-12.0716
▁carpet	-12.0716
▁denote	-12.0716
▁plow	-12.0716
▁harlotry	-12.0716
bellied	-12.0717
ntary	-12.0717
▁unclasp	-12.0717
▁furies	-12.0717
▁welshman	-12.0717
▁troublesome	-12.0717
▁bis	-12.0717
▁infectious	-12.0717
▁bum	-12.0717
▁plotted	-12.0717
▁pudding	-12.0717
▁lioness	-12.0717
▁agreement	-12.0717
▁stem	-12.0717
▁pickle	-12.0718
▁worshipped	-12.0718
▁loam	-12.0718
▁rarit	-12.0718
▁supped	-12.0718
▁straightway	-12.0718
▁argosy	-12.0718
▁industry	-12.0718
▁melody	-12.0718
▁gaudy	-12.0718
squeez	-12.0718
▁cramp	-12.0718
▁pelting	-12.0718
▁dawning	-12.0718
▁foretell	-12.0718
▁imperfection	-12.0718
winged	-12.0719
▁austere	-12.0719
▁serving	-12.0719
▁bleat	-12.0719
▁fetter	-12.0719
▁swan	-12.0719
▁merrier	-12.0719
▁construction	-12.0719
▁cipher	-12.0719
▁schedule	-12.0719
▁probable	-12.0719
▁impudent	-12.0719
▁temperate	-12.0719
▁penetra	-12.072
▁peerless	-12.072
▁posture	-12.072
▁unused	-12.072
▁incertain	-12.072
▁surprised	-12.072
▁damask	-12.072
▁highway	-12.072
▁solus	-12.0721
▁pities	-12.0721
▁shipped	-12.0721
▁replies	-12.0721
▁tragical	-12.0721
▁thro	-12.0721
▁lake	-12.0721
▁moth	-12.0722
▁deem	-12.0722
imprimis	-12.0722
▁overthrown	-12.0722
▁witches	-12.0723
▁mightiest	-12.0723
sign	-12.0723
▁coast	-12.0723
▁slipper	-12.0723
▁swoll	-12.0724
▁signal	-12.0724
▁insinuate	-12.0724
▁dun	-12.0724
▁discarded	-12.0724
▁contemned	-12.0724
▁maze	-12.0724
foresaid	-12.0725
▁brotherhood	-12.0725
▁pish	-12.0725
▁temperately	-12.0725
bstract	-12.0725
▁ponder	-12.0725
▁deliverance	-12.0725
▁quint	-12.0726
▁drain	-12.0726
▁confessor	-12.0727
▁howsoever	-12.0727
▁concealment	-12.0727
▁pinches	-12.0728
▁smirch	-12.0728
▁vaunting	-12.0728
▁spotted	-12.0728
▁harmful	-12.0729
▁arrive	-12.0729
▁inheritor	-12.0729
▁anywhere	-12.0729
▁collected	-12.0729
▁breadth	-12.0729
tongued	-12.073
▁peg	-12.073
▁winner	-12.0731
▁unrest	-12.0731
▁tediousness	-12.0732
▁gam	-12.0732
sky	-12.0732
shu	-12.0733
▁wade	-12.0733
▁fester	-12.0733
▁incision	-12.0733
▁officious	-12.0733
▁revengeful	-12.0733
▁footman	-12.0734
▁venomous	-12.0735
willed	-12.0736
▁diverse	-12.0736
▁lubber	-12.0736
alogue	-12.0736
▁warmth	-12.0736
▁cull	-12.0736
▁swa	-12.0737
▁enchanting	-12.0737
▁suborned	-12.0737
▁christen	-12.0737
▁ni	-12.0738
▁simpleness	-12.0738
▁liveries	-12.0738
▁catches	-12.0739
▁hy	-12.0739
▁grossness	-12.0739
▁hoofs	-12.0739
▁minstrels	-12.0739
▁lineaments	-12.0739
▁pangs	-12.0739
▁curtsies	-12.0739
▁indentures	-12.0739
▁payment	-12.0739
gamut	-12.074
▁mightier	-12.074
▁adopted	-12.074
▁snores	-12.0741
▁acorn	-12.0741
▁embracements	-12.0742
▁accommodated	-12.0742
▁crust	-12.0743
▁fishes	-12.0744
▁rote	-12.0744
▁contention	-12.0744
▁gardeners	-12.0745
▁bully	-12.0745
▁guild	-12.0745
▁strucken	-12.0746
▁hart	-12.0747
▁changeable	-12.0749
▁shave	-12.0749
▁indifferently	-12.075
▁disturbed	-12.075
▁established	-12.075
▁spill	-12.075
▁blindness	-12.075
▁quietness	-12.0751
▁pal	-12.0751
▁fleer	-12.0752
▁mistaken	-12.0753
▁lob	-12.0753
▁favorite	-12.0753
▁weaver	-12.0753
obl	-12.0753
▁mud	-12.0754
▁lucky	-12.0754
▁gloss	-12.0755
▁tutored	-12.0755
▁flax	-12.0756
▁constrained	-12.0756
lips	-12.0756
▁exceedingly	-12.0759
▁sui	-12.0759
▁soud	-12.076
▁ignobl	-12.076
▁dullness	-12.076
▁deceased	-12.0762
▁smothered	-12.0763
▁musical	-12.0763
▁interpreter	-12.0763
▁camel	-12.0764
▁popul	-12.0765
▁fawning	-12.0767
▁badness	-12.0768
▁usual	-12.0768
▁restrained	-12.0768
▁succeeding	-12.0768
▁pied	-12.0768
▁handling	-12.0769
▁invested	-12.0769
▁depending	-12.077
▁stumbled	-12.0771
▁proposed	-12.0774
▁heath	-12.0775
▁halting	-12.0775
fare	-12.0776
▁butchered	-12.0777
wrung	-12.0779
fed	-12.078
▁spices	-12.0781
▁reside	-12.0781
▁sorely	-12.0781
▁ivy	-12.0781
▁obscured	-12.0781
▁translated	-12.0782
▁belonging	-12.0782
▁hindered	-12.0782
▁scanted	-12.0782
▁choughs	-12.0783
▁pigeons	-12.0783
▁moi	-12.0784
demeanor	-12.0784
▁logs	-12.0784
▁carp	-12.0787
dom	-12.0787
▁stairs	-12.0787
▁weighty	-12.0788
▁homeward	-12.0791
▁rivet	-12.0791
▁willfully	-12.0792
na	-12.0792
▁norther	-12.0793
▁razed	-12.0795
▁finer	-12.0795
▁baited	-12.0795
▁dye	-12.0795
▁quartered	-12.0796
▁decreed	-12.0797
▁craz	-12.0797
▁hunted	-12.0797
lous	-12.08
▁accordingly	-12.0805
▁button	-12.0808
▁foulness	-12.0808
▁joiner	-12.0808
▁mire	-12.0809
▁mated	-12.081
▁thistle	-12.0811
▁telltale	-12.0812
▁graceful	-12.0812
▁apprehended	-12.0815
▁accidental	-12.0817
fix	-12.0817
▁constantly	-12.0821
▁privately	-12.0821
▁flatt	-12.0822
▁couching	-12.0824
▁nave	-12.0826
▁hunter	-12.0828
▁abound	-12.0828
▁manag	-12.083
▁luster	-12.0831
▁wailing	-12.0838
▁formerly	-12.0839
▁clearer	-12.084
ched	-12.0842
▁railing	-12.0845
▁roughly	-12.0849
▁fewer	-12.0852
babble	-12.0854
▁usage	-12.0855
▁confounded	-12.0855
▁bode	-12.0857
▁unfi	-12.0857
▁whispering	-12.0859
▁bended	-12.086
▁mannerly	-12.086
▁sear	-12.086
▁pricking	-12.0861
▁commander	-12.0866
▁bodes	-12.0867
▁discovered	-12.0867
▁flag	-12.0867
▁acquitt	-12.0869
▁forged	-12.0869
▁winking	-12.0871
▁pikes	-12.0872
▁spectacles	-12.0872
▁volscians	-12.0872
▁briers	-12.0872
▁excepted	-12.0873
▁declines	-12.0875
▁darken	-12.0879
kers	-12.0879
▁cote	-12.0881
▁agate	-12.0881
▁exiled	-12.0886
putation	-12.089
▁lighten	-12.0895
▁mist	-12.0895
▁paths	-12.0898
▁seated	-12.0899
▁swayed	-12.0899
▁allied	-12.09
▁rages	-12.0901
▁jo	-12.0902
▁si	-12.0904
▁numbered	-12.0909
▁scou	-12.0911
▁missing	-12.0911
▁conceived	-12.0911
▁prim	-12.0915
▁tam	-12.0916
▁accuser	-12.0916
▁spe	-12.0917
▁organs	-12.0917
▁violets	-12.0917
▁vapors	-12.0917
▁snakes	-12.0918
▁ransomed	-12.0919
tiate	-12.0922
▁silvered	-12.0925
▁sued	-12.0928
▁etc	-12.0929
▁sighed	-12.0929
▁valiantly	-12.093
▁censured	-12.0932
trees	-12.0935
▁const	-12.0936
▁tellus	-12.0939
▁odors	-12.094
▁fashions	-12.0944
▁showers	-12.0948
▁sorted	-12.0953
▁neighbours	-12.0963
▁nettles	-12.0963
▁spiders	-12.0963
▁riots	-12.0963
▁steeled	-12.0965
▁meals	-12.0974
▁needy	-12.0975
▁forge	-12.0976
▁tough	-12.0983
ey	-12.0985
▁excellently	-12.0987
▁ely	-12.0991
▁hoard	-12.1
▁amble	-12.1001
▁bolder	-12.1002
▁caves	-12.1007
▁crowd	-12.1008
▁crests	-12.1008
▁eagles	-12.1009
▁monkeys	-12.1009
▁accusations	-12.1009
▁sha	-12.1009
▁hips	-12.1009
▁chronicles	-12.101
▁bristle	-12.1012
▁kneeling	-12.1013
▁stabs	-12.1014
▁spared	-12.1014
▁salve	-12.1015
nights	-12.1016
▁bass	-12.1016
ot	-12.1018
▁murra	-12.1018
▁inflame	-12.1019
▁plunge	-12.1021
▁extenuate	-12.1021
▁sympathize	-12.1021
▁heaps	-12.1025
▁raz	-12.103
▁hearers	-12.1039
▁dispatched	-12.1044
▁exhale	-12.1045
▁thereon	-12.1049
▁admitt	-12.1051
▁dolour	-12.1051
▁blanks	-12.1055
▁corners	-12.1061
▁guarded	-12.1061
▁cliff	-12.107
▁pursues	-12.1075
met	-12.1076
▁ac	-12.1086
od	-12.1087
▁slumbers	-12.1101
▁entering	-12.1103
▁abhors	-12.1108
tes	-12.1131
▁rider	-12.1134
▁ordering	-12.1142
ill	-12.1144
▁icy	-12.1146
▁throngs	-12.1147
▁lodges	-12.1149
▁straws	-12.115
▁propertie	-12.1152
rai	-12.1158
trap	-12.1163
▁wanted	-12.1172
▁cas	-12.1178
▁viol	-12.1183
▁proverbs	-12.1194
▁wards	-12.1204
▁lacking	-12.1222
▁offering	-12.1226
▁swells	-12.1231
▁knots	-12.1239
▁dukedoms	-12.1241
▁reckonings	-12.1241
▁ga	-12.1244
tious	-12.1269
▁bulls	-12.1288
▁moans	-12.1288
▁capulets	-12.1289
▁palaces	-12.1289
▁instances	-12.1289
▁rive	-12.1292
▁cankers	-12.1303
▁musters	-12.1303
▁rubs	-12.1334
▁threatens	-12.1336
▁moods	-12.1336
▁greetings	-12.1336
iers	-12.1348
▁pr	-12.1381
▁teaches	-12.1382
▁rewards	-12.1385
▁demonstrate	-12.139
▁doubted	-12.1412
▁scrape	-12.1467
ished	-12.1468
▁doves	-12.1473
▁stings	-12.1479
ha	-12.1479
▁courtiers	-12.1483
will	-12.1495
▁allies	-12.1496
ture	-12.1501
▁comforted	-12.1503
▁splitt	-12.1505
▁awaken	-12.1522
▁shower	-12.1531
▁nuts	-12.1532
▁onion	-12.1556
▁expose	-12.1567
▁checks	-12.1571
▁te	-12.1574
▁mischiefs	-12.1578
▁desirest	-12.1583
▁wishing	-12.1588
ress	-12.1601
drawn	-12.1608
▁attempts	-12.1627
▁characters	-12.1627
▁faints	-12.1627
ite	-12.1629
ad	-12.1642
▁loser	-12.1658
▁wa	-12.1663
▁burdens	-12.1676
▁wh	-12.1681
ept	-12.1699
cian	-12.1704
▁correct	-12.1714
▁untune	-12.1715
▁sores	-12.1727
sity	-12.1751
▁supplies	-12.1772
▁sheathe	-12.1784
▁spin	-12.1799
begotten	-12.1803
▁hostil	-12.182
▁torments	-12.1827
▁cracks	-12.1827
▁wage	-12.1833
▁na	-12.1845
▁au	-12.1847
dor	-12.1859
▁y	-12.1862
▁methoughts	-12.1877
▁breather	-12.1878
▁deface	-12.1879
▁sol	-12.1881
▁snatche	-12.1948
▁sending	-12.1959
▁hol	-12.1972
▁seats	-12.1973
▁sweats	-12.1979
▁conceits	-12.198
use	-12.1997
edified	-12.2007
▁namely	-12.2019
▁travels	-12.2021
▁habits	-12.2026
▁pictures	-12.2029
▁pall	-12.204
▁cats	-12.2042
▁committ	-12.2045
▁spru	-12.2062
▁veri	-12.2068
▁towers	-12.208
thwa	-12.2081
▁perfum	-12.2082
▁angers	-12.2086
▁practices	-12.2098
▁liked	-12.2112
▁fet	-12.2126
▁cor	-12.2128
▁masterly	-12.2129
▁bast	-12.2133
diction	-12.2146
▁ba	-12.2152
▁cures	-12.2154
eam	-12.2161
▁pip	-12.2166
▁moons	-12.218
▁peopled	-12.2187
▁skip	-12.2192
▁ve	-12.2204
rung	-12.221
wards	-12.2235
dy	-12.2244
patent	-12.2255
▁meanings	-12.2291
▁encounters	-12.2293
▁barks	-12.2334
rise	-12.2356
id	-12.2386
▁clears	-12.2396
▁moderate	-12.245
▁simples	-12.2455
▁hurrie	-12.2458
▁cha	-12.2481
▁horsed	-12.2484
nts	-12.2486
▁active	-12.2509
▁tap	-12.2516
▁sayings	-12.2519
▁mop	-12.2536
xen	-12.2542
lo	-12.2597
▁infus	-12.2602
▁requests	-12.2615
▁sop	-12.2638
sses	-12.2658
▁savour	-12.2666
▁earls	-12.2674
prized	-12.2675
inster	-12.2676
▁uncles	-12.2721
tuned	-12.273
ated	-12.2751
fully	-12.2755
▁sheath	-12.2761
▁matt	-12.2771
▁ver	-12.2774
uke	-12.2803
mes	-12.2809
▁aud	-12.2812
aving	-12.2824
▁vi	-12.2826
ag	-12.2838
▁parl	-12.2849
▁cou	-12.2852
icate	-12.2877
▁hearer	-12.2886
▁proceeds	-12.2899
▁loses	-12.2907
ming	-12.292
ural	-12.2921
▁gash	-12.296
tine	-12.2977
pe	-12.2993
und	-12.3002
▁outface	-12.301
▁flu	-12.3043
▁gu	-12.3046
ked	-12.307
▁vigilan	-12.3074
▁loo	-12.3077
ined	-12.3078
low	-12.3082
▁kinds	-12.3098
ri	-12.3101
▁expir	-12.3104
ened	-12.3108
▁usest	-12.3147
▁pursu	-12.317
▁treasur	-12.3174
ta	-12.318
ray	-12.3184
per	-12.3185
▁hearse	-12.3185
practiced	-12.3187
upper	-12.3217
looking	-12.3228
hew	-12.3239
pers	-12.327
lay	-12.3276
ification	-12.3281
▁fla	-12.333
▁hale	-12.3338
▁shepherds	-12.3347
▁accus	-12.3348
▁guards	-12.3351
▁tun	-12.3355
avail	-12.3377
lished	-12.3388
▁ban	-12.3411
ars	-12.3423
▁tur	-12.3455
▁proffer	-12.3457
▁pell	-12.3462
ford	-12.3464
weep	-12.3469
▁deceiv	-12.3473
ap	-12.3484
vocation	-12.3485
mber	-12.3489
ants	-12.3497
io	-12.3508
wept	-12.3513
appareled	-12.3514
▁refer	-12.3532
▁soothe	-12.3533
▁cl	-12.3536
▁frett	-12.3571
riving	-12.3582
rain	-12.3594
▁bal	-12.3607
▁da	-12.3636
▁wisdoms	-12.3643
bless	-12.369
ripped	-12.3691
▁pur	-12.3717
join	-12.3719
ves	-12.3727
▁mov	-12.3734
▁har	-12.3746
wear	-12.3747
▁scor	-12.3749
▁ce	-12.3751
ain	-12.3764
ight	-12.3769
stick	-12.3769
▁blu	-12.3771
▁dolor	-12.3773
▁plu	-12.3777
gent	-12.3779
▁tw	-12.379
utter	-12.3791
▁mellow	-12.3792
forced	-12.3798
ky	-12.3801
utus	-12.3808
ct	-12.3813
rog	-12.3814
▁mal	-12.3818
stock	-12.3823
▁consciences	-12.3826
front	-12.3832
▁gro	-12.3837
▁issues	-12.3842
▁ram	-12.3852
ining	-12.3853
sk	-12.3857
bound	-12.3859
▁chop	-12.3863
▁infidel	-12.3869
▁mountebank	-12.3869
▁stratagem	-12.3869
▁dunghill	-12.3869
▁bribe	-12.3869
▁pander	-12.3869
▁lawyer	-12.3869
▁humour	-12.3869
▁postern	-12.387
▁wrinkle	-12.387
▁portent	-12.387
▁gambol	-12.387
▁flea	-12.3871
▁sinner	-12.3874
▁lou	-12.3874
▁claw	-12.3875
▁ewe	-12.3879
herd	-12.3882
▁pilgrim	-12.3885
▁conspirator	-12.3886
▁dump	-12.3886
pointed	-12.3886
▁masque	-12.3888
▁hog	-12.3891
ron	-12.3891
▁groat	-12.3893
▁casement	-12.3895
▁injunction	-12.3896
▁confederate	-12.3897
gles	-12.3899
stay	-12.3899
▁sable	-12.39
grateful	-12.3904
▁coffer	-12.3904
▁rib	-12.3905
ud	-12.3905
▁ancestor	-12.3906
▁sinew	-12.3906
bove	-12.3909
▁feat	-12.3909
▁gallow	-12.391
▁burr	-12.3914
▁cub	-12.392
▁gr	-12.3924
▁needle	-12.3925
terior	-12.3926
▁moneys	-12.3933
▁parent	-12.3936
nders	-12.3936
ication	-12.3941
▁giv	-12.3946
▁bead	-12.3951
chi	-12.3955
stain	-12.3959
ambles	-12.3962
▁del	-12.3965
▁resid	-12.3965
▁unac	-12.3965
winded	-12.3968
▁beau	-12.3968
inus	-12.3969
quin	-12.3972
going	-12.3974
▁sub	-12.3975
▁temp	-12.3978
▁troy	-12.3981
▁preten	-12.3982
▁sorcer	-12.3983
▁cog	-12.3986
worn	-12.3987
full	-12.3992
▁glanc	-12.3993
▁valu	-12.3997
parted	-12.3997
vant	-12.3999
non	-12.4002
widow	-12.4003
▁contaminate	-12.4006
▁separate	-12.4006
ddling	-12.4009
ism	-12.4009
▁begg	-12.4011
returning	-12.4011
sanctified	-12.4013
anglais	-12.4013
horseback	-12.4013
fast	-12.4014
ven	-12.4014
▁disperse	-12.4014
penny	-12.4014
▁refus	-12.4015
▁bodi	-12.4015
▁deceas	-12.4015
▁combine	-12.4015
broke	-12.4016
conceited	-12.4016
parent	-12.4016
substantial	-12.4016
▁acqui	-12.4016
mark	-12.4016
▁displease	-12.4017
happy	-12.4017
bearer	-12.4017
women	-12.4017
accommodated	-12.4017
odors	-12.4018
▁pronounc	-12.4018
pig	-12.4018
pierc	-12.4018
sconce	-12.4018
put	-12.4019
▁devis	-12.4019
please	-12.4019
oint	-12.4019
hook	-12.4019
beneath	-12.4019
mates	-12.4019
▁appertain	-12.402
haste	-12.402
alice	-12.402
high	-12.402
▁brew	-12.402
siege	-12.402
pitied	-12.402
pull	-12.402
noble	-12.402
mercy	-12.402
ado	-12.402
current	-12.402
washed	-12.402
lusty	-12.402
breach	-12.402
bush	-12.402
dew	-12.4021
fear	-12.4021
breast	-12.4021
wench	-12.4021
blind	-12.4021
tybalt	-12.4021
fashion	-12.4021
married	-12.4021
north	-12.4021
villain	-12.4021
poor	-12.4021
when	-12.4021
moon	-12.4021
hail	-12.4021
farewell	-12.4021
fiery	-12.4021
shine	-12.4021
yea	-12.4021
ladies	-12.4021
therefore	-12.4022
▁tang	-12.4022
child	-12.4022
▁kick	-12.4022
five	-12.4022
wall	-12.4022
gracious	-12.4022
door	-12.4022
▁decease	-12.4023
spear	-12.4023
▁guil	-12.4023
banishment	-12.4023
sort	-12.4024
▁pepper	-12.4024
▁bestrid	-12.4024
▁engross	-12.4024
pit	-12.4025
pr	-12.4025
three	-12.4026
entious	-12.4026
▁enchant	-12.4026
was	-12.4027
teem	-12.4027
▁depos	-12.4027
▁deform	-12.4028
▁distill	-12.4028
beaten	-12.4028
▁intelligen	-12.4028
▁suggest	-12.403
achiev	-12.4031
▁snor	-12.4031
▁gre	-12.4031
▁interr	-12.4032
▁pond	-12.4033
drops	-12.4033
got	-12.4034
disposed	-12.4034
▁conjoin	-12.4034
▁rememb	-12.4034
▁sparing	-12.4035
breaking	-12.4036
▁plentiful	-12.4036
▁stag	-12.4036
dear	-12.4037
▁ethiop	-12.4038
▁travers	-12.4038
▁crim	-12.4038
▁blasphem	-12.4038
▁lecher	-12.4038
▁cite	-12.4039
▁fantastic	-12.404
check	-12.404
▁sig	-12.4044
▁epi	-12.4045
▁origin	-12.4046
▁cal	-12.4046
▁covet	-12.4046
▁corin	-12.4046
▁contradict	-12.4047
▁encourage	-12.4047
▁exhibit	-12.4047
▁alien	-12.4047
▁mirac	-12.4047
▁remiss	-12.4047
▁desp	-12.4047
rove	-12.4047
▁ostent	-12.4047
▁diligen	-12.4047
▁vap	-12.4048
▁patri	-12.4048
▁attent	-12.4048
▁titan	-12.4048
▁brabant	-12.4048
▁scrip	-12.4048
▁elsewh	-12.4048
▁congeal	-12.4048
▁pamper	-12.4048
▁saxon	-12.4048
▁unmatch	-12.4048
.(	-12.4048
baiting	-12.4048
bilities	-12.4048
coutez	-12.4048
errule	-12.4048
pulent	-12.4048
▁abraham	-12.4048
▁abroach	-12.4048
▁abstinence	-12.4048
▁absurd	-12.4048
▁abundant	-12.4048
▁affability	-12.4048
▁aguecheek	-12.4048
▁antipodes	-12.4048
▁arbor	-12.4048
▁arguing	-12.4048
▁arithmetic	-12.4048
▁artemidorus	-12.4048
▁athversary	-12.4048
▁basket	-12.4048
▁bawcock	-12.4048
▁beelzebub	-12.4048
▁benefactors	-12.4048
▁bien	-12.4048
▁blithe	-12.4048
▁brevity	-12.4048
▁bristol	-12.4048
▁brittany	-12.4048
▁brooch	-12.4048
▁bulwark	-12.4048
▁caliver	-12.4048
▁canterbury	-12.4048
▁carlisle	-12.4048
▁carrier	-12.4048
▁caterpillars	-12.4048
▁chameleon	-12.4048
▁chertsey	-12.4048
▁cicatrice	-12.4048
▁claribel	-12.4048
▁clergy	-12.4048
▁commotion	-12.4048
▁comparative	-12.4048
▁confiscate	-12.4048
▁consumption	-12.4048
▁contraries	-12.4048
▁contrarious	-12.4048
▁counterpoise	-12.4048
▁croak	-12.4048
▁crotchets	-12.4048
▁decorum	-12.4048
▁demerits	-12.4048
▁descant	-12.4048
▁dighton	-12.4048
▁dimensions	-12.4048
▁diomed	-12.4048
▁disburse	-12.4048
▁discomfited	-12.4048
▁dissolution	-12.4048
▁dizzy	-12.4048
▁dolphin	-12.4048
▁dominions	-12.4048
▁doricles	-12.4048
▁egregious	-12.4048
▁elysium	-12.4048
▁encamp	-12.4048
▁endeavour	-12.4048
▁entomb	-12.4048
▁erpingham	-12.4048
▁esperance	-12.4048
▁espouse	-12.4048
▁essential	-12.4048
▁exasperate	-12.4048
▁extinct	-12.4048
▁exult	-12.4048
▁fabric	-12.4048
▁farthingale	-12.4048
▁firmament	-12.4048
▁frenzy	-12.4048
▁frustrate	-12.4048
▁gibbet	-12.4048
▁giddi	-12.4048
▁grease	-12.4048
▁grinning	-12.4048
▁hallowmas	-12.4048
▁hellespont	-12.4048
▁hoodwink	-12.4048
▁howbeit	-12.4048
▁husks	-12.4048
▁huswife	-12.4048
▁icicle	-12.4048
▁include	-12.4048
▁inevitable	-12.4048
▁ingenious	-12.4048
▁ingredient	-12.4048
▁innovation	-12.4048
▁invincible	-12.4048
▁jephthah	-12.4048
▁kibe	-12.4048
▁laissez	-12.4048
▁leviathan	-12.4048
▁libya	-12.4048
▁lodowick	-12.4048
▁loggerhead	-12.4048
▁lucifer	-12.4048
▁lucrece	-12.4048
▁ludlow	-12.4048
▁maecenas	-12.4048
▁malmsey	-12.4048
▁marjoram	-12.4048
▁mastiff	-12.4048
▁material	-12.4048
▁mathematics	-12.4048
▁midsummer	-12.4048
▁misadventure	-12.4048
▁mongrel	-12.4048
▁morocco	-12.4048
▁mulberr	-12.4048
▁multiply	-12.4048
▁mutinies	-12.4048
▁nathaniel	-12.4048
▁neutral	-12.4048
▁nonpareil	-12.4048
▁novice	-12.4048
▁olympus	-12.4048
▁overblown	-12.4048
▁overwhelm	-12.4048
▁pancakes	-12.4048
▁parasite	-12.4048
▁pencil	-12.4048
▁perfidious	-12.4048
▁periwig	-12.4048
▁perverse	-12.4048
▁pewter	-12.4048
▁philomel	-12.4048
▁pilate	-12.4048
▁platform	-12.4048
▁popillius	-12.4048
▁porridge	-12.4048
▁precipitati	-12.4048
▁precise	-12.4048
▁predicament	-12.4048
▁predominant	-12.4048
▁prescribe	-12.4048
▁promontory	-12.4048
▁prorogu	-12.4048
▁puritan	-12.4048
▁rabbit	-12.4048
▁radiant	-12.4048
▁ragozine	-12.4048
▁rejoicing	-12.4048
▁rendezvous	-12.4048
▁revolution	-12.4048
▁sampson	-12.4048
▁sanctimon	-12.4048
▁seacole	-12.4048
▁servitude	-12.4048
▁shipwright	-12.4048
▁sicinius	-12.4048
▁snout	-12.4048
▁splinter	-12.4048
▁squash	-12.4048
▁squirrel	-12.4048
▁sterling	-12.4048
▁stockfish	-12.4048
▁sufficiency	-12.4048
▁superfluity	-12.4048
▁supremacy	-12.4048
▁swerving	-12.4048
▁sympathy	-12.4048
▁tapestry	-12.4048
▁tewkesbury	-12.4048
▁thereabouts	-12.4048
▁threshold	-12.4048
▁topple	-12.4048
▁torrent	-12.4048
▁tradition	-12.4048
▁tyrannical	-12.4048
▁unequal	-12.4048
▁unhappily	-12.4048
▁unload	-12.4048
▁unnecessary	-12.4048
▁unparallel	-12.4048
▁unreveren	-12.4048
▁unspeakable	-12.4048
▁untaught	-12.4048
▁varrius	-12.4048
▁verdict	-12.4048
▁videlicet	-12.4048
▁virgilia	-12.4048
▁vomit	-12.4048
▁carbonado	-12.4048
▁clutch	-12.4048
▁countermand	-12.4048
▁drizzle	-12.4048
▁examination	-12.4048
▁extravagan	-12.4048
▁firebrand	-12.4048
▁lammas	-12.4048
▁mixture	-12.4048
▁poesy	-12.4048
▁renounce	-12.4048
▁shrive	-12.4048
▁sicyon	-12.4048
▁stagger	-12.4048
noddy	-12.4048
▁catechis	-12.4048
▁chalk	-12.4048
▁cheval	-12.4048
▁disprove	-12.4048
▁enamel	-12.4048
▁essay	-12.4048
▁estimate	-12.4048
▁intellect	-12.4048
▁ottomites	-12.4048
▁provender	-12.4048
▁pyramid	-12.4048
▁quirk	-12.4048
▁spherical	-12.4048
▁unfathered	-12.4048
▁vulcan	-12.4048
▁cedar	-12.4048
▁comprehend	-12.4048
▁fortitude	-12.4048
▁garlic	-12.4048
▁haught	-12.4048
▁impair	-12.4048
▁knack	-12.4048
▁loiter	-12.4048
▁slough	-12.4048
▁apish	-12.4048
▁cowslip	-12.4048
▁dissension	-12.4048
▁elbe	-12.4048
▁grandmother	-12.4048
▁rumour	-12.4048
▁surrender	-12.4048
▁unhandsome	-12.4048
▁currish	-12.4048
▁defunct	-12.4048
▁gravy	-12.4048
▁hermit	-12.4048
▁obdurate	-12.4048
▁stowed	-12.4048
▁copulati	-12.4048
▁perspective	-12.4048
▁scripture	-12.4048
▁toothache	-12.4048
▁adoration	-12.4048
▁behove	-12.4048
▁diminish	-12.4048
▁disobedience	-12.4048
▁distemperature	-12.4048
▁exposition	-12.4048
▁grasp	-12.4048
▁greece	-12.4048
▁interchangeably	-12.4048
▁lazar	-12.4048
▁martext	-12.4048
▁matron	-12.4048
▁scoff	-12.4048
▁vacancy	-12.4048
▁wassail	-12.4048
▁mules	-12.4048
▁timber	-12.4048
▁butterflies	-12.4048
▁sluttish	-12.4048
▁importunate	-12.4048
▁musk	-12.4048
▁pork	-12.4048
▁solid	-12.4048
▁comply	-12.4048
▁importunity	-12.4048
▁instigation	-12.4048
▁jamy	-12.4048
▁paunch	-12.4048
▁peacock	-12.4048
▁saith	-12.4048
▁turtle	-12.4048
▁vigour	-12.4048
▁butterfly	-12.4048
▁dismantle	-12.4048
▁extant	-12.4048
▁infirmities	-12.4048
▁ditty	-12.4048
▁dotard	-12.4048
▁obligation	-12.4048
▁potency	-12.4048
▁elm	-12.4048
▁fiddle	-12.4048
▁impute	-12.4048
▁lousy	-12.4048
▁naming	-12.4048
▁scanned	-12.4048
▁conjuration	-12.4048
▁profanation	-12.4048
▁prospect	-12.4048
▁sibyl	-12.4048
▁testify	-12.4048
▁votaress	-12.4048
▁crupper	-12.4048
▁enthrall	-12.4048
▁turf	-12.4048
▁bourbon	-12.4048
▁crispin	-12.4048
▁dwarfish	-12.4048
▁review	-12.4048
▁slug	-12.4048
▁submission	-12.4048
▁recommend	-12.4048
▁greediness	-12.4048
▁requiring	-12.4048
▁mineral	-12.4048
▁brimstone	-12.4048
▁indictment	-12.4048
▁knotty	-12.4048
▁minx	-12.4048
▁obstruction	-12.4048
▁patrick	-12.4048
▁silius	-12.4048
▁thrill	-12.4048
▁alps	-12.4048
▁impost	-12.4048
▁advertisement	-12.4048
▁delicious	-12.4048
▁fornication	-12.4048
▁indignity	-12.4048
▁magn	-12.4048
▁ratify	-12.4048
▁temporal	-12.4048
▁tickling	-12.4048
▁gasp	-12.4048
tenance	-12.4048
▁perdy	-12.4048
▁florence	-12.4048
▁otter	-12.4048
▁aerie	-12.4048
▁determinate	-12.4048
▁equivocator	-12.4048
witted	-12.4048
▁disobey	-12.4048
▁drone	-12.4048
▁theatre	-12.4048
▁prefix	-12.4048
▁heaviest	-12.4048
▁resemblance	-12.4048
▁define	-12.4048
▁strut	-12.4048
▁foster	-12.4048
▁vaward	-12.4048
▁detraction	-12.4048
▁gamester	-12.4048
▁luciana	-12.4048
▁situation	-12.4048
▁phil	-12.4048
▁buff	-12.4048
▁scent	-12.4048
anim	-12.4048
▁heedful	-12.4048
▁adulteress	-12.4048
▁puling	-12.4048
▁affiance	-12.4048
▁fuel	-12.4048
▁scone	-12.4048
▁consign	-12.4048
▁furrow	-12.4048
▁sauciness	-12.4048
▁pertain	-12.4048
▁scalp	-12.4048
▁overflow	-12.4048
▁splen	-12.4048
▁sloth	-12.4048
▁annex	-12.4048
▁random	-12.4048
historical	-12.4049
▁poise	-12.4049
▁singularity	-12.4049
cine	-12.4049
▁enfranchisement	-12.4049
▁bais	-12.4049
▁scab	-12.4049
▁skir	-12.4049
▁whoremaster	-12.4049
▁tumbling	-12.4049
▁foison	-12.4049
▁floren	-12.4049
▁thunderbolt	-12.4049
▁chestnut	-12.4049
▁crabbed	-12.4049
▁rye	-12.4049
▁bung	-12.4049
▁cough	-12.4049
▁uprear	-12.4049
▁recall	-12.4049
▁speculation	-12.4049
▁earldom	-12.4049
▁slide	-12.4049
▁cement	-12.4049
▁remission	-12.4049
▁fairyland	-12.4049
▁darling	-12.4049
▁bacon	-12.4049
▁chatter	-12.4049
▁unloose	-12.4049
▁unbutton	-12.4049
▁madcap	-12.4049
▁plod	-12.4049
▁wat	-12.4049
▁dross	-12.4049
▁saturn	-12.4049
▁trice	-12.4049
▁swam	-12.4049
▁misconstrue	-12.4049
▁northward	-12.4049
▁retail	-12.4049
▁seventy	-12.4049
▁compt	-12.4049
eyan	-12.4049
▁foremost	-12.4049
▁justify	-12.4049
▁partition	-12.4049
▁pretence	-12.4049
▁tithe	-12.4049
▁suppertime	-12.4049
▁wain	-12.4049
▁effectual	-12.4049
▁glare	-12.4049
▁gentil	-12.4049
▁graybeard	-12.4049
▁prone	-12.4049
▁mice	-12.4049
▁peach	-12.4049
▁juggl	-12.4049
▁abhorson	-12.405
▁leander	-12.405
▁unhallow	-12.405
▁satir	-12.405
▁lank	-12.405
▁chivalry	-12.405
▁plashy	-12.405
▁blotted	-12.405
▁diffuse	-12.405
▁immode	-12.405
▁morton	-12.405
▁impiety	-12.405
▁malefactor	-12.405
▁rhe	-12.405
▁certainty	-12.405
▁sepulchre	-12.405
▁spouse	-12.405
▁survive	-12.405
▁irre	-12.405
▁sprightly	-12.405
▁anatomy	-12.405
▁preposterously	-12.405
▁cullion	-12.405
▁unworthiness	-12.405
▁pah	-12.405
erthrown	-12.405
▁gaoler	-12.4051
erleap	-12.4051
▁important	-12.4051
▁trenches	-12.4051
▁ungoverned	-12.4051
▁humanity	-12.4051
▁bareheaded	-12.4051
▁jointure	-12.4051
ersway	-12.4051
▁overture	-12.4051
▁cain	-12.4051
▁cresc	-12.4051
▁shard	-12.4051
▁parlor	-12.4052
▁contest	-12.4052
▁mechanical	-12.4052
stinate	-12.4052
▁insert	-12.4052
▁dishonorable	-12.4052
▁childishness	-12.4052
▁covetousness	-12.4052
never	-12.4053
▁childhood	-12.4053
▁westm	-12.4053
▁prolonged	-12.4053
▁sadder	-12.4053
▁smite	-12.4053
▁unbound	-12.4053
▁unprepared	-12.4053
▁rigged	-12.4053
▁forbidden	-12.4053
worms	-12.4053
▁puppy	-12.4053
▁faculty	-12.4053
▁quarrelsome	-12.4053
▁cage	-12.4053
▁foresee	-12.4053
ium	-12.4053
▁countess	-12.4053
▁grieving	-12.4053
▁allowance	-12.4054
▁barefaced	-12.4054
▁endue	-12.4054
▁amendment	-12.4054
▁roaming	-12.4054
▁sisterhood	-12.4054
shotten	-12.4054
▁importance	-12.4054
▁windsor	-12.4054
▁debtor	-12.4054
▁outrageous	-12.4054
▁bedtime	-12.4054
▁retirement	-12.4054
▁ruth	-12.4055
▁hoarse	-12.4055
▁coffin	-12.4055
▁ducdame	-12.4055
▁frequent	-12.4055
▁muzzle	-12.4055
▁successively	-12.4055
▁syria	-12.4055
▁kennel	-12.4055
▁nominate	-12.4055
▁screen	-12.4055
▁wormwood	-12.4055
▁unthought	-12.4055
▁hover	-12.4055
▁skim	-12.4055
▁tiring	-12.4055
▁engraft	-12.4055
▁pool	-12.4055
▁whoop	-12.4055
▁traders	-12.4055
▁satin	-12.4056
▁poetical	-12.4056
▁taxation	-12.4056
▁handkercher	-12.4056
▁fable	-12.4056
neck	-12.4056
▁controlling	-12.4056
▁unstain	-12.4056
▁pont	-12.4056
▁eyesight	-12.4056
▁hob	-12.4056
▁denier	-12.4056
▁misplaced	-12.4056
figuring	-12.4056
▁spurring	-12.4056
lubber	-12.4057
▁womanhood	-12.4057
▁unlock	-12.4057
▁puddle	-12.4057
▁hotter	-12.4057
▁menace	-12.4058
▁pha	-12.4058
▁playfellow	-12.4058
▁assistant	-12.4058
▁row	-12.4058
▁ethiope	-12.4058
▁traverse	-12.4058
▁dependant	-12.4058
▁thankfulness	-12.4058
▁heraldry	-12.4058
▁cable	-12.4058
▁stubbornness	-12.4059
▁englishmen	-12.4059
▁fist	-12.406
▁mildness	-12.406
▁civility	-12.406
▁peas	-12.406
fly	-12.4061
▁drunkenness	-12.4061
▁forsaken	-12.4061
▁sinned	-12.4061
▁shaking	-12.4061
▁devote	-12.4061
mony	-12.4061
▁describe	-12.4062
bodie	-12.4062
▁bullet	-12.4062
▁goddesses	-12.4062
▁unbuckle	-12.4062
▁dries	-12.4062
▁sunder	-12.4062
▁harrow	-12.4062
▁bewitched	-12.4062
▁embarked	-12.4062
▁embossed	-12.4062
▁engendered	-12.4062
▁unfurnished	-12.4062
▁signories	-12.4062
▁disaster	-12.4062
▁molt	-12.4062
▁undertaking	-12.4062
hospitable	-12.4063
culate	-12.4063
nez	-12.4063
▁downfall	-12.4063
▁sage	-12.4063
skin	-12.4063
▁raising	-12.4063
▁waxes	-12.4063
▁bawdry	-12.4063
▁maliciously	-12.4063
▁united	-12.4063
▁endowed	-12.4064
▁smear	-12.4064
filial	-12.4064
▁dropping	-12.4064
▁laud	-12.4065
cible	-12.4065
▁lessened	-12.4065
▁hereof	-12.4065
▁accoutre	-12.4065
▁guardian	-12.4065
▁uphold	-12.4066
▁tardi	-12.4066
▁bestial	-12.4066
▁possesses	-12.4066
▁newborn	-12.4066
▁blear	-12.4067
▁ruinous	-12.4067
▁essence	-12.4067
▁crammed	-12.4067
▁elect	-12.4067
▁pastoral	-12.4067
▁curiously	-12.4068
▁unmask	-12.4068
▁twist	-12.4068
▁seaside	-12.4068
▁skillful	-12.4068
eia	-12.4069
▁parthian	-12.4069
▁sickle	-12.4069
▁mastership	-12.4069
▁downward	-12.407
▁terre	-12.407
▁media	-12.407
▁dumbness	-12.407
▁dignified	-12.4071
▁baffled	-12.4071
▁enfranchised	-12.4071
▁enclosed	-12.4071
▁hollowness	-12.4071
▁conjoined	-12.4071
▁suggested	-12.4071
▁engrossed	-12.4071
▁peppered	-12.4071
▁whipping	-12.4072
▁india	-12.4072
pendant	-12.4072
▁heretic	-12.4072
▁impeachment	-12.4072
inal	-12.4072
▁continually	-12.4072
itive	-12.4073
▁strengthened	-12.4073
▁merc	-12.4073
▁dub	-12.4073
▁luce	-12.4074
▁gin	-12.4074
▁dispos	-12.4074
▁cork	-12.4074
▁profitless	-12.4075
▁gan	-12.4076
▁levied	-12.4076
holy	-12.4077
▁wantonness	-12.4077
▁ravel	-12.4077
▁tackle	-12.4077
▁forgetting	-12.4077
wearie	-12.4077
▁hurly	-12.4078
▁mace	-12.4079
▁humbleness	-12.408
▁nakedness	-12.408
▁substantial	-12.408
▁condole	-12.408
▁alice	-12.408
▁cher	-12.408
▁assailed	-12.4081
▁differ	-12.4081
robe	-12.4081
▁farmer	-12.4081
▁monarchy	-12.4082
▁ratifie	-12.4082
▁tripping	-12.4082
▁hugge	-12.4083
▁sardis	-12.4083
▁leash	-12.4083
▁thews	-12.4084
▁viands	-12.4084
▁adheres	-12.4084
▁daws	-12.4084
▁basilisks	-12.4084
▁gyves	-12.4084
▁magistrates	-12.4084
▁predecessors	-12.4084
▁kerns	-12.4084
▁manacles	-12.4084
▁astonish	-12.4084
▁solace	-12.4084
▁runaways	-12.4085
▁abatement	-12.4085
▁angling	-12.4086
▁epicure	-12.4086
▁june	-12.4086
▁barons	-12.4086
▁sty	-12.4086
▁brewer	-12.4087
▁indent	-12.4087
▁wrest	-12.4088
▁achievement	-12.4088
▁finished	-12.4088
▁tal	-12.4089
▁hastily	-12.4089
yet	-12.4089
▁bareness	-12.409
▁conveniently	-12.409
▁everlastingly	-12.409
▁mutually	-12.409
rdinate	-12.4093
▁divest	-12.4093
▁horseman	-12.4094
nance	-12.4094
mor	-12.4095
▁fume	-12.4096
▁marches	-12.4096
▁concav	-12.4096
▁brandish	-12.4096
▁combined	-12.4097
▁hatched	-12.4098
▁swiftness	-12.4098
▁affi	-12.4099
▁fust	-12.4099
▁customers	-12.41
▁shrieked	-12.41
▁reckoned	-12.41
▁resisted	-12.41
▁perch	-12.41
▁rarer	-12.41
▁strengthen	-12.41
▁disclosed	-12.4101
▁lowness	-12.4101
▁duly	-12.4102
▁meditate	-12.4105
▁browner	-12.4108
▁ibat	-12.4108
▁hangers	-12.4108
▁lyc	-12.4108
▁corr	-12.4108
▁solemnize	-12.4108
▁disordered	-12.411
leave	-12.411
▁craven	-12.4111
▁heresy	-12.4111
▁milder	-12.4113
▁moss	-12.4113
▁sorcerer	-12.4113
▁attest	-12.4114
▁cleanly	-12.4114
▁cert	-12.4114
▁clove	-12.4114
▁dissembler	-12.4115
▁pretend	-12.4115
▁conspired	-12.4116
▁cony	-12.4117
frog	-12.4117
▁defeated	-12.4118
▁troyan	-12.4118
▁dyed	-12.412
▁souther	-12.412
▁jointly	-12.412
▁doubtfully	-12.412
sleeps	-12.4123
did	-12.4123
▁piled	-12.4123
lted	-12.4124
swear	-12.4125
▁peering	-12.4126
▁batter	-12.4126
▁faithfully	-12.4129
▁joyfully	-12.413
▁sedges	-12.413
▁portly	-12.4131
▁grievously	-12.4131
▁unkindly	-12.4131
gender	-12.4131
▁manned	-12.4132
sees	-12.4132
▁shouting	-12.4133
▁abus	-12.4133
▁ranged	-12.4134
▁recovery	-12.4134
▁norw	-12.4134
▁subscribed	-12.4136
▁digested	-12.4137
▁weakens	-12.4137
▁cooled	-12.4139
▁panting	-12.4139
▁noises	-12.414
aw	-12.4142
▁bitterest	-12.4144
▁publicly	-12.4144
stine	-12.4145
▁reeds	-12.4145
▁agreeing	-12.4146
▁gems	-12.4146
▁cudgeled	-12.4147
▁manifested	-12.4147
▁goblins	-12.4147
▁conserves	-12.4147
▁competitors	-12.4147
▁executors	-12.4147
▁nuns	-12.4147
▁meteors	-12.4147
▁bogs	-12.4148
▁chronicled	-12.4148
▁hardness	-12.4148
▁tenants	-12.4149
▁defie	-12.4152
▁rashly	-12.4153
▁firmly	-12.4153
▁greed	-12.4154
sword	-12.4154
▁cakes	-12.4155
dge	-12.4155
▁messes	-12.4155
▁valorous	-12.4156
▁twi	-12.4156
▁haunted	-12.4158
▁wane	-12.4159
▁ability	-12.4161
▁sped	-12.4161
▁wend	-12.4162
▁modestly	-12.4162
▁feeder	-12.4163
▁wealthy	-12.4166
▁pint	-12.4166
▁divorced	-12.4167
▁butler	-12.4167
▁meads	-12.4167
▁earnestly	-12.4167
▁lib	-12.4167
▁bastardy	-12.4167
▁miser	-12.4169
ley	-12.4169
▁interior	-12.4172
▁utterly	-12.4172
▁unable	-12.4173
▁laboured	-12.4175
▁paler	-12.4178
▁withering	-12.4178
▁overlook	-12.4181
▁competenc	-12.4184
lays	-12.4184
▁surfeited	-12.4185
▁delve	-12.4185
▁goodnight	-12.4185
ath	-12.4185
▁gale	-12.4188
▁bellows	-12.4188
▁slowly	-12.419
▁sincere	-12.4192
razed	-12.4192
▁shaken	-12.4196
link	-12.4197
▁toiled	-12.4197
▁corrupting	-12.4197
▁complaining	-12.4197
▁shad	-12.4197
▁hired	-12.4209
▁groats	-12.4212
▁dumps	-12.4212
▁conspirators	-12.4212
▁pilgrims	-12.4212
▁provokes	-12.4213
▁chops	-12.4213
▁masques	-12.4213
nnight	-12.4213
▁instructed	-12.4213
ub	-12.4214
▁paddl	-12.4215
press	-12.4215
▁compell	-12.4216
merce	-12.4218
rais	-12.422
▁tangle	-12.4223
▁decayed	-12.4225
▁rebuked	-12.4226
ctual	-12.4229
▁thatched	-12.4235
path	-12.4236
▁flouting	-12.4238
▁mocker	-12.4239
▁strained	-12.4242
▁rehearsed	-12.4243
▁ministered	-12.4244
▁properly	-12.4245
▁backs	-12.4245
ild	-12.4246
▁ranker	-12.4248
▁becoming	-12.4251
▁unseasonabl	-12.4251
▁acknowledged	-12.4253
▁rescued	-12.4253
▁drove	-12.4255
▁mournful	-12.4256
ttery	-12.4258
▁seconds	-12.426
▁fisher	-12.426
wives	-12.4261
ield	-12.4262
feeling	-12.4262
▁lamented	-12.4265
▁neglecting	-12.4269
▁teen	-12.4274
▁bated	-12.4275
▁rooted	-12.4278
▁flaws	-12.4278
▁clubs	-12.4279
▁pagans	-12.4279
▁potions	-12.4279
tories	-12.4279
▁usance	-12.428
▁creditors	-12.428
▁lin	-12.4282
▁entreats	-12.4283
▁wins	-12.4285
▁mus	-12.4287
▁tra	-12.4291
▁galled	-12.4293
▁chaps	-12.4295
▁abated	-12.4299
▁successful	-12.4304
▁convenience	-12.4307
smen	-12.431
▁intest	-12.4311
▁canon	-12.4314
▁commanders	-12.4316
holes	-12.4317
stle	-12.4324
▁continued	-12.4326
▁discolor	-12.4327
▁loathes	-12.433
▁incred	-12.4331
▁merited	-12.4332
▁foolishly	-12.4336
▁conceited	-12.4337
▁wearie	-12.4337
▁omitt	-12.4337
▁warmed	-12.4341
▁thighs	-12.4345
▁exclaims	-12.4345
▁verges	-12.4345
▁ambassadors	-12.4345
▁cushions	-12.4345
▁syllables	-12.4345
▁vines	-12.4345
▁stables	-12.4345
▁pageants	-12.4346
▁credul	-12.4346
▁files	-12.4347
▁recorder	-12.4352
▁cy	-12.4357
▁beheaded	-12.4357
▁poisoner	-12.4357
▁til	-12.4357
▁encountered	-12.4362
parable	-12.4362
▁unb	-12.4369
lush	-12.4371
nose	-12.4375
▁ventured	-12.4377
room	-12.438
▁strives	-12.4384
▁chant	-12.4385
▁despairing	-12.4386
▁vowed	-12.4391
▁arme	-12.4398
ume	-12.4403
▁fau	-12.4404
▁oration	-12.4409
makers	-12.4409
angling	-12.441
▁failed	-12.4411
▁openly	-12.4411
▁discords	-12.4412
▁taunts	-12.4413
▁fowls	-12.4413
▁hinds	-12.4413
▁lamentations	-12.4413
mongers	-12.4416
▁fr	-12.4417
▁requested	-12.442
▁pas	-12.4421
cite	-12.4421
▁lawn	-12.4424
homme	-12.4424
▁perfected	-12.4425
▁garters	-12.4426
▁indies	-12.4426
riety	-12.4437
▁famed	-12.4441
tunable	-12.4446
▁warranty	-12.4449
ets	-12.4454
▁charming	-12.4457
▁wanderer	-12.446
ja	-12.447
gar	-12.4471
▁twins	-12.4473
▁figs	-12.4477
▁fangs	-12.4479
▁yards	-12.448
▁tribes	-12.448
▁schoolmasters	-12.4481
▁maidenheads	-12.4481
▁disorders	-12.4481
▁tearing	-12.4487
▁lined	-12.4487
▁beetles	-12.4488
▁finest	-12.4491
ingling	-12.4496
▁sw	-12.4513
▁van	-12.4515
ore	-12.4516
▁danced	-12.4528
▁ling	-12.4531
▁blowing	-12.4539
▁substitutes	-12.4547
▁aches	-12.4549
▁lackeys	-12.4549
▁groves	-12.4549
▁shirts	-12.4549
▁continents	-12.4549
▁swims	-12.4551
▁owls	-12.4551
▁breeder	-12.4554
▁singer	-12.4556
▁ax	-12.4556
▁carrying	-12.4557
▁adders	-12.456
▁blacker	-12.4564
▁sliver	-12.4565
▁irks	-12.4568
ried	-12.4568
▁stored	-12.4569
wit	-12.4569
nned	-12.4571
ines	-12.4574
pin	-12.458
sa	-12.4582
▁rubb	-12.4596
▁royally	-12.4603
▁rolls	-12.461
▁authors	-12.4618
▁regions	-12.4618
▁clamors	-12.4618
▁passions	-12.4621
▁ordered	-12.4623
▁armorer	-12.4623
▁crossing	-12.4625
▁earlie	-12.4628
▁forc	-12.4633
▁dainties	-12.4636
ker	-12.4641
▁jesting	-12.4643
▁sainted	-12.4651
▁stirre	-12.4655
▁sob	-12.4663
▁chastise	-12.4667
art	-12.4669
lain	-12.4675
▁stud	-12.4684
▁comforter	-12.4685
▁hooks	-12.4686
▁tigers	-12.4688
▁squires	-12.4688
▁cools	-12.4688
▁monarchs	-12.4688
▁conquerors	-12.4688
▁butchers	-12.469
ace	-12.4702
bit	-12.4702
ign	-12.4708
▁granting	-12.471
▁frets	-12.4711
▁crowner	-12.4714
erbear	-12.4717
▁bellow	-12.4723
▁fins	-12.4727
▁bew	-12.473
pleached	-12.4732
vail	-12.4734
▁toads	-12.4747
▁sacrifices	-12.4748
▁outstrip	-12.4752
▁designs	-12.4758
▁impediments	-12.4758
▁scruples	-12.4758
▁silks	-12.4758
▁referr	-12.4758
▁medicines	-12.4759
▁affects	-12.476
▁throughly	-12.4761
▁bides	-12.4762
▁goal	-12.4805
ering	-12.4806
provident	-12.4807
▁patche	-12.4816
uff	-12.4819
▁mocking	-12.482
▁hums	-12.4826
rds	-12.4826
▁ravens	-12.4828
alect	-12.4834
▁scare	-12.4835
fallen	-12.4837
ably	-12.4842
gi	-12.4855
shell	-12.4886
▁blocks	-12.49
▁varlets	-12.49
▁features	-12.49
▁pieced	-12.4909
▁silenced	-12.492
▁mete	-12.4923
▁favored	-12.4923
▁mur	-12.4936
dry	-12.4945
▁lighter	-12.4947
▁discontents	-12.497
▁cuckolds	-12.4971
▁females	-12.4972
▁ballads	-12.4972
▁ble	-12.4978
▁winn	-12.499
▁consum	-12.4993
reputed	-12.5012
▁founder	-12.5018
houses	-12.5019
▁z	-12.5022
▁wagg	-12.5028
▁revenues	-12.5044
▁donne	-12.5049
▁speedie	-12.5071
▁pardoner	-12.5084
▁footed	-12.5085
▁fopp	-12.5092
▁hom	-12.5098
▁needed	-12.5106
▁suspects	-12.5115
▁skulls	-12.5118
▁divisions	-12.5118
▁peasants	-12.5118
▁dates	-12.5123
▁nursed	-12.5135
eritable	-12.5157
visible	-12.5162
oh	-12.5176
ferret	-12.5178
▁rates	-12.5182
▁penn	-12.5182
anged	-12.5192
oze	-12.5207
gal	-12.5223
ssing	-12.5256
▁grat	-12.5258
▁chins	-12.5262
▁whipp	-12.5265
▁candles	-12.5266
nted	-12.5278
▁chafe	-12.5283
probation	-12.5292
does	-12.5309
▁arg	-12.5325
▁behaviors	-12.5341
▁irons	-12.5341
▁elders	-12.5342
pping	-12.5343
▁doers	-12.5343
▁decays	-12.5344
▁treads	-12.5377
sore	-12.5408
▁paces	-12.5413
▁devices	-12.5417
▁ridge	-12.5426
▁bel	-12.5453
sel	-12.5464
▁sheds	-12.5471
▁implore	-12.5486
▁vessels	-12.5493
▁serpents	-12.5493
▁enterprises	-12.5493
her	-12.5502
ory	-12.5523
lion	-12.5536
scul	-12.5547
erst	-12.5561
lots	-12.5569
▁rhymes	-12.5569
▁trembles	-12.557
▁rightful	-12.5583
eeze	-12.5594
▁net	-12.5611
ale	-12.5653
▁flats	-12.5656
ora	-12.5681
▁glo	-12.569
days	-12.5695
▁trades	-12.5714
▁adds	-12.5751
rubb	-12.5752
tic	-12.5768
▁appa	-12.5773
▁pens	-12.5802
▁dews	-12.5803
▁unfolds	-12.5805
arred	-12.5813
▁votar	-12.5856
▁conferr	-12.5877
▁nipp	-12.589
▁justices	-12.5909
hanging	-12.5927
▁wearer	-12.5929
ndre	-12.5939
▁sentences	-12.5974
▁cle	-12.5982
▁newt	-12.6
ement	-12.6
▁emptie	-12.6001
▁stains	-12.6002
▁travell	-12.6028
▁curt	-12.6036
▁edges	-12.6042
▁disabl	-12.6043
▁stirr	-12.6062
▁restor	-12.6076
lter	-12.6102
bert	-12.6108
ages	-12.6111
▁divines	-12.6112
apt	-12.6126
▁husbanded	-12.6128
nel	-12.6143
▁tuck	-12.615
avin	-12.6167
▁pinion	-12.6203
holds	-12.6203
▁mayest	-12.6217
ak	-12.624
ces	-12.6255
▁tombs	-12.6286
▁complexions	-12.6295
▁thunders	-12.6295
ility	-12.6298
▁pav	-12.6337
hipped	-12.6344
▁bane	-12.6346
cing	-12.6349
▁cu	-12.635
ft	-12.6371
▁span	-12.6386
▁embraces	-12.6406
ptly	-12.641
ram	-12.6411
im	-12.6431
▁gowns	-12.6461
lly	-12.6485
▁empti	-12.6498
ains	-12.6502
▁centuri	-12.6503
rance	-12.6504
▁refu	-12.6507
cess	-12.6527
litary	-12.6542
▁spites	-12.6548
▁discourses	-12.655
▁fois	-12.6554
ma	-12.6573
ink	-12.6579
onian	-12.659
ally	-12.6593
phy	-12.6617
▁warr	-12.6626
ster	-12.6627
eck	-12.6646
om	-12.6687
unch	-12.6694
artial	-12.6698
ify	-12.6733
▁benefic	-12.6761
▁beholder	-12.6765
▁combinat	-12.6802
▁lav	-12.6805
▁bawds	-12.681
tag	-12.6833
▁determin	-12.6847
▁staying	-12.6862
bonneted	-12.6946
angled	-12.6948
ded	-12.6958
▁fum	-12.6966
arded	-12.6975
▁dia	-12.6994
▁warbl	-12.701
▁stretche	-12.7018
allies	-12.7033
▁truths	-12.7036
ibble	-12.7042
▁gen	-12.7046
▁implor	-12.7063
▁forbids	-12.708
pan	-12.708
▁chaf	-12.7095
▁counterfeits	-12.7098
▁cont	-12.7108
lab	-12.712
▁clod	-12.7132
▁seiz	-12.7145
▁supplie	-12.7177
portion	-12.722
▁succ	-12.7227
▁sho	-12.7228
▁speaker	-12.7247
ab	-12.7269
▁orator	-12.729
▁nourishe	-12.7365
▁subtl	-12.7367
rers	-12.7393
▁silli	-12.7415
experienced	-12.7419
▁resembl	-12.7459
create	-12.7462
ai	-12.7462
▁injure	-12.748
count	-12.7516
west	-12.7532
▁curd	-12.7557
ena	-12.7584
amon	-12.7637
▁uglie	-12.764
dong	-12.7659
▁gi	-12.7676
▁mai	-12.7686
ppery	-12.7702
deserving	-12.7702
inch	-12.7715
udder	-12.7755
ome	-12.7756
▁weari	-12.7763
▁demonstrat	-12.7769
▁debat	-12.7809
als	-12.7816
▁vo	-12.7817
▁pac	-12.784
rop	-12.7873
▁courts	-12.7875
▁bett	-12.7887
ba	-12.7934
hion	-12.7964
▁carous	-12.7973
les	-12.7985
hall	-12.7986
▁betid	-12.7998
▁sen	-12.8023
ared	-12.8029
bel	-12.8029
▁divin	-12.8036
▁supple	-12.8041
▁whirl	-12.8044
▁woods	-12.8048
▁excuses	-12.8053
▁quote	-12.8058
▁afric	-12.8062
bus	-12.8069
cked	-12.807
▁unsh	-12.808
rcan	-12.8082
ards	-12.8086
▁pl	-12.809
▁unp	-12.8093
arnel	-12.8137
▁sl	-12.814
▁exper	-12.8153
▁dainti	-12.8154
rd	-12.8164
lic	-12.8177
dler	-12.8195
v	-12.8196
nes	-12.8197
sop	-12.8208
▁airs	-12.8253
tted	-12.8256
▁pu	-12.8277
▁hemp	-12.8291
▁generals	-12.8296
▁aby	-12.831
▁yok	-12.8315
lot	-12.8324
▁ven	-12.8338
loudly	-12.8339
ater	-12.8344
orable	-12.8371
ittle	-12.8374
shot	-12.8383
ah	-12.8403
▁equi	-12.8412
▁roi	-12.8416
▁vale	-12.8416
ebos	-12.8427
ks	-12.8449
gn	-12.8456
▁ow	-12.8459
▁measur	-12.8473
▁franchise	-12.8474
▁practic	-12.8479
igo	-12.8481
▁uneas	-12.8488
mem	-12.8488
▁rustic	-12.8489
▁ple	-12.8493
mender	-12.8502
▁ruff	-12.854
lip	-12.8544
paid	-12.8548
right	-12.8582
▁jul	-12.8608
▁jog	-12.8609
urn	-12.8611
ique	-12.8618
lant	-12.862
ferred	-12.8624
pipes	-12.8626
▁dip	-12.8627
▁excus	-12.8629
▁qui	-12.8642
▁ob	-12.8649
larum	-12.8656
berry	-12.8657
staring	-12.8658
sleep	-12.868
▁flam	-12.8684
port	-12.8692
shaked	-12.8694
ripe	-12.8696
que	-12.87
▁springe	-12.8707
▁sip	-12.8715
away	-12.8718
mew	-12.8739
▁repos	-12.8754
▁expi	-12.8755
▁rap	-12.8755
bu	-12.8761
bow	-12.8766
fer	-12.8767
lie	-12.8773
cide	-12.8774
devil	-12.8774
sister	-12.8775
call	-12.8783
eur	-12.8787
year	-12.8789
acy	-12.8789
nut	-12.8795
tales	-12.8806
hu	-12.8806
rim	-12.8806
word	-12.8807
tender	-12.8808
▁overta	-12.8809
▁adul	-12.881
rk	-12.8812
of	-12.8815
dog	-12.8816
▁tip	-12.8818
▁allot	-12.8818
▁competen	-12.883
sion	-12.8833
bear	-12.8835
cote	-12.8843
llied	-12.8844
mine	-12.8852
vouche	-12.8852
rode	-12.8852
▁tak	-12.8852
rse	-12.886
▁bastin	-12.8867
com	-12.8869
servant	-12.887
▁esquire	-12.8871
▁sentinel	-12.8871
▁valley	-12.8871
▁partisan	-12.8871
▁pump	-12.8871
▁cluster	-12.8871
▁applejohn	-12.8871
▁quip	-12.8871
▁bonfire	-12.8871
new	-12.8872
▁spout	-12.8872
▁prescription	-12.8872
▁complot	-12.8872
▁barn	-12.8875
pen	-12.8876
▁digestion	-12.8878
▁log	-12.8881
ouch	-12.8881
▁cere	-12.8882
▁slop	-12.8883
▁augurer	-12.8884
▁nun	-12.8885
▁sham	-12.8886
▁competitor	-12.8887
▁executor	-12.8888
▁conserve	-12.8888
▁meteor	-12.8888
▁chan	-12.8889
▁bog	-12.8889
▁cake	-12.8889
▁prov	-12.889
speak	-12.8891
▁hitherward	-12.8892
▁demean	-12.8892
▁marr	-12.8892
tack	-12.8894
▁pigeon	-12.8895
▁stair	-12.8895
▁chough	-12.8895
▁buckler	-12.8898
▁animal	-12.8899
▁fingre	-12.8899
▁goblin	-12.89
breaker	-12.8901
▁cocks	-12.8901
▁folk	-12.8901
▁grape	-12.8901
▁prank	-12.8902
▁drug	-12.8903
▁grievance	-12.8903
off	-12.8904
▁tenant	-12.8904
▁jaw	-12.8905
▁cla	-12.8906
▁patrician	-12.8906
nointed	-12.8907
spect	-12.8908
▁continu	-12.8908
▁compe	-12.8909
▁prune	-12.891
▁shilling	-12.8913
soever	-12.8913
constant	-12.8914
▁gem	-12.8916
vulnerable	-12.8917
▁fri	-12.8918
form	-12.8919
curs	-12.892
▁pebble	-12.892
▁eminen	-12.8925
▁legion	-12.8925
▁vel	-12.8927
▁swaggerer	-12.8931
▁kno	-12.8931
▁chang	-12.8932
worth	-12.8933
▁moveable	-12.8934
witch	-12.8934
▁deni	-12.8934
joyed	-12.8937
▁expe	-12.894
spoke	-12.8941
ware	-12.8947
▁deserv	-12.8949
▁unm	-12.895
▁bras	-12.8954
dest	-12.8956
▁lik	-12.8956
vi	-12.8961
lace	-12.8962
▁crann	-12.8963
rested	-12.8968
die	-12.897
fie	-12.8971
▁purpos	-12.8972
eaten	-12.8975
face	-12.8975
lius	-12.898
ively	-12.898
▁nurs	-12.898
▁diff	-12.8981
get	-12.8981
break	-12.8982
bber	-12.8983
▁invit	-12.8983
believ	-12.8983
roar	-12.8983
gree	-12.8984
▁alley	-12.8984
mingled	-12.8984
▁meditat	-12.8985
ook	-12.8985
tongue	-12.8985
▁convenienc	-12.8986
▁epicur	-12.8986
answer	-12.8987
▁fir	-12.8987
trick	-12.8987
rit	-12.8988
▁jun	-12.8988
pate	-12.8989
▁ra	-12.899
fill	-12.8992
ized	-12.8992
▁obscur	-12.8993
dispos	-12.8993
broth	-12.8994
ending	-12.8995
▁lim	-12.8995
lift	-12.8996
▁vor	-12.8996
▁contemn	-12.8998
▁rave	-12.9
garter	-12.9
▁gib	-12.9002
color	-12.9002
killed	-12.9004
though	-12.9004
▁repl	-12.9004
bru	-12.9005
▁robb	-12.9005
▁swe	-12.9005
▁abjure	-12.9007
▁bridle	-12.9007
▁enquire	-12.9007
▁defile	-12.9007
▁seduc	-12.9007
▁appease	-12.9008
▁resolv	-12.9009
▁enfranchise	-12.9009
▁beguil	-12.901
▁dignifie	-12.901
▁baffle	-12.901
▁incens	-12.9011
dealer	-12.9012
vil	-12.9012
umbling	-12.9012
float	-12.9013
embark	-12.9013
paramour	-12.9013
▁swinge	-12.9013
watched	-12.9014
governed	-12.9015
og	-12.9015
thrift	-12.9015
brow	-12.9016
▁chanc	-12.9016
▁bonne	-12.9016
wife	-12.9016
shaken	-12.9016
▁grac	-12.9016
elect	-12.9016
rooted	-12.9016
crammed	-12.9016
pastoral	-12.9016
meditate	-12.9016
unmask	-12.9016
essence	-12.9016
lib	-12.9017
cease	-12.9017
crook	-12.9018
icken	-12.9018
smirch	-12.9018
spotted	-12.9018
temperate	-12.9018
▁discharg	-12.9018
ability	-12.9018
distinguish	-12.9018
▁vaunt	-12.9018
grandfather	-12.9018
tawny	-12.9018
accost	-12.9018
lavish	-12.9018
scatter	-12.9018
trip	-12.9019
circle	-12.9019
informed	-12.9019
neighbour	-12.9019
steeped	-12.9019
purse	-12.9019
hound	-12.9019
spur	-12.9019
numbered	-12.9019
luce	-12.9019
silver	-12.9019
grandsire	-12.902
▁burs	-12.902
puppet	-12.902
budge	-12.902
pregnant	-12.902
inhabit	-12.902
security	-12.902
▁shuffl	-12.902
mount	-12.902
▁lisp	-12.902
survey	-12.902
knocking	-12.902
stool	-12.902
beef	-12.902
confirm	-12.902
rank	-12.902
breathed	-12.902
cuckold	-12.902
baby	-12.902
hungry	-12.902
killing	-12.902
sitting	-12.902
olivia	-12.9021
fifty	-12.9021
offers	-12.9021
plight	-12.9021
moan	-12.9021
wooing	-12.9021
thirty	-12.9021
rebellion	-12.9021
access	-12.9021
goose	-12.9021
stretch	-12.9021
verily	-12.9021
pon	-12.9021
burden	-12.9021
whisper	-12.9021
wounded	-12.9021
ruled	-12.9021
found	-12.9021
discretion	-12.9021
mortimer	-12.9021
bleeding	-12.9021
figure	-12.9021
launcelot	-12.9021
visage	-12.9021
avoid	-12.9021
bbing	-12.9021
help	-12.9021
lady	-12.9021
bottom	-12.9021
deaf	-12.9021
wounds	-12.9021
john	-12.9021
dealing	-12.9021
vow	-12.9021
uncle	-12.9021
conscience	-12.9021
mighty	-12.9021
rosalind	-12.9021
hair	-12.9021
gentlewoman	-12.9021
laid	-12.9021
murder	-12.9021
grief	-12.9021
sorrow	-12.9021
walk	-12.9021
black	-12.9021
free	-12.9021
wonder	-12.9021
ground	-12.9021
remember	-12.9021
white	-12.9021
antony	-12.9021
husband	-12.9021
merry	-12.9021
romeo	-12.9021
brutus	-12.9021
daughter	-12.9021
should	-12.9021
jack	-12.9021
flies	-12.9021
▁nip	-12.9021
rum	-12.9021
spread	-12.9022
forgive	-12.9022
cries	-12.9022
course	-12.9022
hardy	-12.9022
field	-12.9022
doting	-12.9022
tame	-12.9022
have	-12.9022
wherefore	-12.9022
nual	-12.9022
grass	-12.9023
▁lu	-12.9023
hot	-12.9023
▁confin	-12.9023
enough	-12.9023
gentleman	-12.9023
fought	-12.9023
page	-12.9024
little	-12.9024
true	-12.9024
▁assur	-12.9024
▁collect	-12.9024
▁stan	-12.9024
above	-12.9024
▁emboss	-12.9024
▁para	-12.9025
▁stink	-12.9025
list	-12.9025
took	-12.9026
▁discard	-12.9026
▁engender	-12.9026
▁tick	-12.9026
tua	-12.9026
▁unfurnish	-12.9027
porter	-12.9027
▁fals	-12.9027
doubted	-12.9027
made	-12.9027
▁bin	-12.9027
green	-12.9027
nature	-12.9028
▁disguis	-12.9028
suited	-12.9029
divided	-12.9029
▁enclose	-12.9029
gave	-12.903
rash	-12.903
▁descri	-12.903
cloy	-12.9031
▁defens	-12.9031
urb	-12.9032
sickness	-12.9032
▁prosp	-12.9032
▁advertis	-12.9033
▁unfel	-12.9033
▁settle	-12.9034
▁plan	-12.9035
▁numb	-12.9035
▁quart	-12.9036
▁multitud	-12.9036
noon	-12.9037
▁endow	-12.9037
▁medicin	-12.9037
▁prun	-12.9037
▁tributar	-12.9038
▁gramerc	-12.9038
closes	-12.9038
▁pupp	-12.9039
▁paw	-12.9039
▁excellenc	-12.9039
▁facult	-12.9039
▁possibl	-12.9039
▁vic	-12.9039
▁argos	-12.9039
▁majestic	-12.904
obey	-12.904
▁demure	-12.904
▁hallo	-12.904
▁melod	-12.904
▁quantit	-12.904
shown	-12.904
inous	-12.904
▁feebl	-12.904
▁alban	-12.9041
▁sland	-12.9041
▁twent	-12.9041
cerns	-12.9042
mast	-12.9042
▁successive	-12.9042
▁merci	-12.9042
▁auster	-12.9042
ews	-12.9043
iety	-12.9043
certainties	-12.9043
ounce	-12.9043
▁obsequi	-12.9044
▁dela	-12.9044
anon	-12.9045
burned	-12.9045
▁harb	-12.9045
stocking	-12.9045
junct	-12.9046
▁berri	-12.9046
▁adrian	-12.9046
yard	-12.9046
▁desdemon	-12.9046
▁rais	-12.9046
eaters	-12.9046
ullus	-12.9046
▁disparage	-12.9047
igation	-12.9047
▁prescript	-12.9047
ppo	-12.9047
scription	-12.9047
▁tinct	-12.9047
reservation	-12.9047
▁falc	-12.9047
▁ingrate	-12.9047
▁infirm	-12.9047
fancy	-12.9047
bot	-12.9047
spired	-12.9047
▁pruden	-12.9047
▁attract	-12.9047
▁admira	-12.9047
▁malign	-12.9048
▁shrin	-12.9048
rfume	-12.9048
vors	-12.9048
ggler	-12.9048
▁imbrue	-12.9048
▁uncurb	-12.9048
▁amplif	-12.9048
▁dismember	-12.9048
▁enthron	-12.9048
▁extract	-12.9048
▁felicit	-12.9048
▁furbish	-12.9048
▁kitten	-12.9048
▁lump	-12.9048
▁pavilion	-12.9048
▁perplex	-12.9048
▁pygm	-12.9048
▁result	-12.9048
▁reverb	-12.9048
▁shipwrack	-12.9048
▁sulphur	-12.9048
▁surpass	-12.9048
▁tranquil	-12.9048
▁unfeign	-12.9048
contemplative	-12.9048
crates	-12.9048
dazzl	-12.9048
ducking	-12.9048
ephesians	-12.9048
erpast	-12.9048
erpower	-12.9048
ershade	-12.9048
sinewed	-12.9048
stanzo	-12.9048
▁accumulat	-12.9048
▁aeneas	-12.9048
▁agitation	-12.9048
▁alabaster	-12.9048
▁albion	-12.9048
▁alderman	-12.9048
▁aloft	-12.9048
▁ambling	-12.9048
▁ancestry	-12.9048
▁anticipate	-12.9048
▁apology	-12.9048
▁armenia	-12.9048
▁associate	-12.9048
▁attribute	-12.9048
▁autolycus	-12.9048
▁baboon	-12.9048
▁babylon	-12.9048
▁bacchanals	-12.9048
▁balthazar	-12.9048
▁baptism	-12.9048
▁barbarian	-12.9048
▁barbarism	-12.9048
▁bartholomew	-12.9048
▁behoove	-12.9048
▁benedicite	-12.9048
▁benison	-12.9048
▁bennet	-12.9048
▁bergomask	-12.9048
▁berhyme	-12.9048
▁bewail	-12.9048
▁blackberries	-12.9048
▁bladder	-12.9048
▁blench	-12.9048
▁bolster	-12.9048
▁bombast	-12.9048
▁bondslave	-12.9048
▁bonjour	-12.9048
▁bouciqualt	-12.9048
▁brawn	-12.9048
▁brick	-12.9048
▁cackling	-12.9048
▁captivity	-12.9048
▁carcanet	-12.9048
▁catechiz	-12.9048
▁centre	-12.9048
▁chattels	-12.9048
▁cheveril	-12.9048
▁choosing	-12.9048
▁chorus	-12.9048
▁circumstantial	-12.9048
▁circumvent	-12.9048
▁cleitus	-12.9048
▁clients	-12.9048
▁cockney	-12.9048
▁colossus	-12.9048
▁commodities	-12.9048
▁complices	-12.9048
▁compris	-12.9048
▁comrade	-12.9048
▁confederacy	-12.9048
▁consequently	-12.9048
▁consolation	-12.9048
▁continency	-12.9048
▁convoy	-12.9048
▁coraggio	-12.9048
▁coranto	-12.9048
▁cormorant	-12.9048
▁crassus	-12.9048
▁custody	-12.9048
▁cutthroat	-12.9048
▁cydnus	-12.9048
▁cytherea	-12.9048
▁daffodils	-12.9048
▁dapple	-12.9048
▁daunt	-12.9048
▁definitive	-12.9048
▁delectable	-12.9048
▁demoiselle	-12.9048
▁deprave	-12.9048
▁derision	-12.9048
▁difficult	-12.9048
▁dimple	-12.9048
▁dirge	-12.9048
▁disadvantage	-12.9048
▁discandy	-12.9048
▁discontinue	-12.9048
▁dishearten	-12.9048
▁disproportion	-12.9048
▁dissolute	-12.9048
▁distaste	-12.9048
▁dobbin	-12.9048
▁domitius	-12.9048
▁drachmas	-12.9048
▁drollery	-12.9048
▁dwindle	-12.9048
▁effeminate	-12.9048
▁eisel	-12.9048
▁elegies	-12.9048
▁elephant	-12.9048
▁embassies	-12.9048
▁emphasis	-12.9048
▁empoison	-12.9048
▁enfeebled	-12.9048
▁ensnare	-12.9048
▁envelop	-12.9048
▁envenomed	-12.9048
▁ercles	-12.9048
▁espy	-12.9048
▁eterne	-12.9048
▁evasion	-12.9048
▁exclamation	-12.9048
▁exeunt	-12.9048
▁exigent	-12.9048
▁fertility	-12.9048
▁fiction	-12.9048
▁fitchew	-12.9048
▁flibbertigibbet	-12.9048
▁foggy	-12.9048
▁fragment	-12.9048
▁freckle	-12.9048
▁frolic	-12.9048
▁furniture	-12.9048
▁garboils	-12.9048
▁gawsey	-12.9048
▁gleek	-12.9048
▁glimpse	-12.9048
▁gormandiz	-12.9048
▁gossamer	-12.9048
▁gradation	-12.9048
▁griffin	-12.9048
▁grudging	-12.9048
▁grunt	-12.9048
▁gunpowder	-12.9048
▁halberds	-12.9048
▁hampton	-12.9048
▁hedgehog	-12.9048
▁hurry	-12.9048
▁hybla	-12.9048
▁hyperbolical	-12.9048
▁hyperion	-12.9048
▁hypocrisy	-12.9048
▁imitation	-12.9048
▁impregnable	-12.9048
▁induction	-12.9048
▁insensible	-12.9048
▁intemperance	-12.9048
▁inveterate	-12.9048
▁invocate	-12.9048
▁invoke	-12.9048
▁ivory	-12.9048
▁jasons	-12.9048
▁jordan	-12.9048
▁jutty	-12.9048
▁juvenal	-12.9048
▁kickshaws	-12.9048
▁leicester	-12.9048
▁leonardo	-12.9048
▁lestrale	-12.9048
▁lupercal	-12.9048
▁maggots	-12.9048
▁malapert	-12.9048
▁mamillius	-12.9048
▁marigold	-12.9048
▁metaphysic	-12.9048
▁monachum	-12.9048
▁moult	-12.9048
▁neaf	-12.9048
▁negative	-12.9048
▁nicanor	-12.9048
▁nutmeg	-12.9048
▁offspring	-12.9048
▁omnipotent	-12.9048
▁orpheus	-12.9048
▁outbrave	-12.9048
▁overcharged	-12.9048
▁overplus	-12.9048
▁packthread	-12.9048
▁paddock	-12.9048
▁pantaloon	-12.9048
▁panthino	-12.9048
▁participate	-12.9048
▁pauca	-12.9048
▁peddler	-12.9048
▁pegasus	-12.9048
▁pentecost	-12.9048
▁philostrate	-12.9048
▁phoenicia	-12.9048
▁plood	-12.9048
▁poniards	-12.9048
▁predominance	-12.9048
▁prelate	-12.9048
▁prescience	-12.9048
▁procrus	-12.9048
▁prolixity	-12.9048
▁prononce	-12.9048
▁provincial	-12.9048
▁ptolemies	-12.9048
▁ptolemy	-12.9048
▁puzzle	-12.9048
▁quiddities	-12.9048
▁radish	-12.9048
▁rambures	-12.9048
▁redoubled	-12.9048
▁replenish	-12.9048
▁retinue	-12.9048
▁reverted	-12.9048
▁reynaldo	-12.9048
▁rheumatic	-12.9048
▁rhyming	-12.9048
▁runagate	-12.9048
▁sabbath	-12.9048
▁sagittary	-12.9048
▁salarino	-12.9048
▁scabbard	-12.9048
▁scambling	-12.9048
▁sciences	-12.9048
▁screech	-12.9048
▁scullion	-12.9048
▁serviteur	-12.9048
▁shackles	-12.9048
▁simpering	-12.9048
▁snip	-12.9048
▁solanio	-12.9048
▁southampton	-12.9048
▁spaniard	-12.9048
▁spectators	-12.9048
▁squadron	-12.9048
▁steterat	-12.9048
▁stubble	-12.9048
▁suffocat	-12.9048
▁suffolk	-12.9048
▁sultry	-12.9048
▁sunk	-12.9048
▁sweetmeats	-12.9048
▁synagogue	-12.9048
▁syrups	-12.9048
▁temporize	-12.9048
▁termagant	-12.9048
▁terribly	-12.9048
▁testimonie	-12.9048
▁thimble	-12.9048
▁timorous	-12.9048
▁tinder	-12.9048
▁tortoise	-12.9048
▁trampl	-12.9048
▁trappings	-12.9048
▁trompe	-12.9048
▁trophies	-12.9048
▁truncheon	-12.9048
▁tumult	-12.9048
▁type	-12.9048
▁ulcerous	-12.9048
▁unarmed	-12.9048
▁uncaught	-12.9048
▁universe	-12.9048
▁unkiss	-12.9048
▁unlettered	-12.9048
▁unmeet	-12.9048
▁unperfect	-12.9048
▁unsatisfied	-12.9048
▁unschooled	-12.9048
▁unsuspected	-12.9048
▁unswayed	-12.9048
▁untruth	-12.9048
▁unwieldy	-12.9048
▁utensil	-12.9048
▁vagabond	-12.9048
▁valentinus	-12.9048
▁varrus	-12.9048
▁vaudemont	-12.9048
▁venuto	-12.9048
▁voluptuousness	-12.9048
▁vraiment	-12.9048
▁whereabout	-12.9048
▁whiff	-12.9048
▁wildcat	-12.9048
▁wildfowl	-12.9048
▁withdrew	-12.9048
▁woodbine	-12.9048
▁woodeville	-12.9048
▁yeomen	-12.9048
▁yorick	-12.9048
▁zir	-12.9048
▁admonition	-12.9048
▁aussi	-12.9048
▁buoy	-12.9048
▁dedication	-12.9048
▁gratitude	-12.9048
▁lonely	-12.9048
▁smithfield	-12.9048
▁sociable	-12.9048
▁approof	-12.9048
▁astronom	-12.9048
▁brushed	-12.9048
▁cessez	-12.9048
▁cockatrice	-12.9048
▁cogitation	-12.9048
▁congregate	-12.9048
▁deflower	-12.9048
▁displant	-12.9048
▁dorothy	-12.9048
▁dowlas	-12.9048
▁dutchman	-12.9048
▁filching	-12.9048
▁imagining	-12.9048
▁kinswoman	-12.9048
▁massacre	-12.9048
▁misgovern	-12.9048
▁nostril	-12.9048
▁obstacle	-12.9048
▁pilch	-12.9048
▁plaintiff	-12.9048
▁province	-12.9048
▁recomfort	-12.9048
▁relics	-12.9048
▁semi	-12.9048
▁shank	-12.9048
▁sleek	-12.9048
▁sluggard	-12.9048
▁stifle	-12.9048
▁territory	-12.9048
▁trophy	-12.9048
▁unquestion	-12.9048
▁unthankful	-12.9048
▁wharf	-12.9048
▁whelk	-12.9048
beautified	-12.9048
ercharged	-12.9048
erturn	-12.9048
mettled	-12.9048
queller	-12.9048
sanguine	-12.9048
▁appurtenan	-12.9048
▁bechance	-12.9048
▁bodkin	-12.9048
▁caddis	-12.9048
▁censer	-12.9048
▁deplor	-12.9048
▁impudence	-12.9048
▁levity	-12.9048
▁movables	-12.9048
▁palfrey	-12.9048
▁perpendicular	-12.9048
▁poop	-12.9048
▁respite	-12.9048
▁rind	-12.9048
▁seignior	-12.9048
▁sermon	-12.9048
▁shearers	-12.9048
▁sloven	-12.9048
▁thawed	-12.9048
▁abram	-12.9048
▁cherub	-12.9048
▁cotus	-12.9048
▁hinges	-12.9048
▁noisome	-12.9048
▁abbot	-12.9048
▁cherubim	-12.9048
rdeaux	-12.9048
▁equity	-12.9048
▁fealty	-12.9048
▁gnarl	-12.9048
▁participation	-12.9048
▁quittance	-12.9048
▁transpose	-12.9048
▁blanc	-12.9048
▁impetuo	-12.9048
▁tripolis	-12.9048
breth	-12.9048
burly	-12.9048
▁befell	-12.9048
▁contriving	-12.9048
▁espi	-12.9048
▁machin	-12.9048
▁nibbling	-12.9048
▁portrait	-12.9048
▁selves	-12.9048
▁sobriety	-12.9048
▁welladay	-12.9048
▁wittingly	-12.9048
▁ambiguities	-12.9048
▁desist	-12.9048
▁purblind	-12.9048
▁purgatory	-12.9048
▁quaff	-12.9048
▁caval	-12.9048
▁cripple	-12.9048
▁diminuti	-12.9048
▁hacket	-12.9048
▁kettle	-12.9048
▁plaster	-12.9048
▁subsist	-12.9048
▁courtesan	-12.9048
▁franklin	-12.9048
▁jaun	-12.9048
▁mutabilit	-12.9048
▁ovid	-12.9048
▁pollution	-12.9048
▁poult	-12.9048
▁usury	-12.9048
▁crumb	-12.9048
▁paradox	-12.9048
▁intrins	-12.9048
▁monastery	-12.9048
▁pacified	-12.9048
▁progen	-12.9048
▁propagat	-12.9048
▁tract	-12.9048
▁trident	-12.9048
▁whined	-12.9048
▁logic	-12.9048
▁minim	-12.9048
▁scribe	-12.9048
▁shark	-12.9048
▁wolvish	-12.9048
comical	-12.9048
gays	-12.9048
▁defeatures	-12.9048
▁unloved	-12.9048
▁perdie	-12.9048
▁january	-12.9048
▁stumbling	-12.9048
▁cannibal	-12.9048
▁canopies	-12.9048
▁crowkeeper	-12.9048
▁dependency	-12.9048
▁dexterity	-12.9048
▁directitude	-12.9048
▁doncaster	-12.9048
▁fencing	-12.9048
▁scandalized	-12.9048
▁supposition	-12.9048
▁porn	-12.9048
▁twinkling	-12.9048
▁uncertainty	-12.9048
▁miscreant	-12.9048
▁misdoubt	-12.9048
▁pillory	-12.9048
▁treatise	-12.9048
ltitude	-12.9048
▁whatsoe	-12.9048
▁adventurous	-12.9048
▁posset	-12.9048
▁disloyalty	-12.9048
▁punk	-12.9048
▁surmount	-12.9048
appado	-12.9048
▁disarm	-12.9048
▁privil	-12.9048
▁thornbush	-12.9048
▁myrtle	-12.9048
▁embattle	-12.9048
▁mislead	-12.9048
▁potpan	-12.9048
▁preeminence	-12.9048
▁sorrie	-12.9048
▁cardinal	-12.9048
▁enfe	-12.9048
▁limbeck	-12.9048
▁repel	-12.9048
▁student	-12.9048
▁thessaly	-12.9048
▁illumin	-12.9048
▁retold	-12.9048
▁rook	-12.9048
▁shipboard	-12.9048
▁emulat	-12.9048
▁furze	-12.9048
▁stirrup	-12.9048
▁vacan	-12.9048
▁attractive	-12.9048
▁marrow	-12.9048
▁inhabitants	-12.9048
▁prudence	-12.9048
▁burg	-12.9048
▁licence	-12.9048
▁sully	-12.9048
▁wizard	-12.9048
▁fumble	-12.9048
▁henri	-12.9048
▁retention	-12.9048
▁swart	-12.9048
▁gorgon	-12.9048
▁recognizance	-12.9048
▁adjudg	-12.9048
▁falter	-12.9048
▁goblet	-12.9048
▁redeliver	-12.9048
▁argier	-12.9048
▁bilbo	-12.9048
▁honeysuckle	-12.9048
▁pear	-12.9048
▁ravin	-12.9048
▁terti	-12.9048
▁livia	-12.9048
▁pathway	-12.9048
▁revile	-12.9048
▁vigo	-12.9048
▁distant	-12.9048
▁mermaid	-12.9048
issi	-12.9048
▁prognostication	-12.9048
▁quail	-12.9048
▁whetstone	-12.9048
▁honeyseed	-12.9048
▁reversion	-12.9048
▁strawberries	-12.9048
▁wires	-12.9048
▁strait	-12.9048
▁film	-12.9048
▁flavius	-12.9048
▁bob	-12.9048
▁fantasies	-12.9048
▁mahu	-12.9048
▁prodigies	-12.9048
▁shog	-12.9048
▁caution	-12.9048
▁ferv	-12.9048
▁gagged	-12.9048
▁legacy	-12.9048
▁miscall	-12.9048
▁excite	-12.9048
▁memorial	-12.9048
▁herdsmen	-12.9048
▁squand	-12.9048
igmatical	-12.9048
▁shorn	-12.9048
▁tilter	-12.9048
▁avaric	-12.9048
▁psalm	-12.9048
▁holily	-12.9048
▁plump	-12.9048
▁jug	-12.9048
▁milksop	-12.9048
▁dismount	-12.9048
▁deficient	-12.9048
▁cavil	-12.9048
▁feu	-12.9048
▁mudded	-12.9048
▁moys	-12.9048
▁scarecrow	-12.9048
▁astray	-12.9048
▁ebon	-12.9048
▁modo	-12.9048
▁stile	-12.9048
▁crib	-12.9048
▁sheepcote	-12.9048
▁gondola	-12.9049
▁holloa	-12.9049
▁prains	-12.9049
culo	-12.9049
▁blent	-12.9049
▁fliers	-12.9049
▁foregone	-12.9049
▁wanned	-12.9049
▁swarth	-12.9049
ency	-12.9049
▁copied	-12.9049
▁jolt	-12.9049
▁bugs	-12.9049
udgeon	-12.9049
▁battali	-12.9049
▁coven	-12.9049
▁unpol	-12.9049
▁atomies	-12.9049
▁bobbed	-12.9049
▁casque	-12.9049
▁colic	-12.9049
▁plausi	-12.9049
stitches	-12.9049
▁primrose	-12.9049
▁iceland	-12.9049
▁ipse	-12.9049
▁shone	-12.9049
▁scum	-12.9049
▁pitiless	-12.9049
▁ditties	-12.9049
▁overpeer	-12.9049
▁piety	-12.9049
▁worry	-12.9049
▁popularity	-12.9049
▁sensuality	-12.9049
▁servingmen	-12.9049
▁burgher	-12.9049
▁crete	-12.9049
▁slime	-12.9049
▁mandate	-12.9049
▁spanish	-12.9049
▁barley	-12.9049
▁squeal	-12.9049
▁accite	-12.9049
▁disparagement	-12.9049
▁launch	-12.9049
▁collection	-12.9049
▁exist	-12.9049
▁accommodation	-12.9049
▁peu	-12.9049
▁cupbearer	-12.9049
▁jill	-12.9049
▁milkmaid	-12.9049
▁cobbler	-12.9049
▁monast	-12.9049
▁quicksilver	-12.9049
▁gainsay	-12.9049
▁corrival	-12.9049
▁unreasonable	-12.9049
▁halloo	-12.9049
▁trout	-12.9049
▁southward	-12.9049
▁unreconcil	-12.9049
▁erewhile	-12.9049
▁toasts	-12.9049
▁gna	-12.9049
▁thickens	-12.9049
▁coach	-12.905
▁gallia	-12.905
▁trop	-12.905
▁unstai	-12.905
▁monde	-12.905
▁zo	-12.905
acious	-12.905
▁agony	-12.905
▁unbrac	-12.905
▁collar	-12.905
▁bots	-12.905
▁excelling	-12.905
▁laudable	-12.905
▁enchantment	-12.905
▁sixty	-12.905
▁encouragement	-12.905
▁contradiction	-12.905
risons	-12.905
▁resistance	-12.905
▁digged	-12.905
▁consulship	-12.905
▁unproper	-12.905
▁untrod	-12.905
▁roughcast	-12.905
▁exhibition	-12.905
▁cattle	-12.905
▁glaz	-12.905
▁martlet	-12.905
▁housekeeper	-12.905
▁statesman	-12.905
▁auditor	-12.905
▁stripling	-12.905
▁cellar	-12.905
▁slaughterhouse	-12.905
▁lena	-12.905
▁cicel	-12.905
▁shipboy	-12.905
▁gibes	-12.905
▁sharing	-12.905
▁craftily	-12.905
▁blink	-12.905
▁jure	-12.905
▁indite	-12.905
▁tenantless	-12.9051
▁upbraidings	-12.9051
▁overtopp	-12.9051
▁overbear	-12.9051
hort	-12.9051
▁unsay	-12.9051
▁original	-12.9051
▁reformation	-12.9051
▁unwed	-12.9051
urch	-12.9051
▁coverture	-12.9051
clusi	-12.9051
▁shovel	-12.9051
▁laban	-12.9051
▁dap	-12.9051
icock	-12.9051
▁jowl	-12.9051
▁pinfold	-12.9051
ference	-12.9051
▁pail	-12.9051
▁hams	-12.9051
▁housewifery	-12.9051
▁priami	-12.9051
▁passado	-12.9051
▁gypsy	-12.9051
▁insufficiency	-12.9051
▁undertook	-12.9051
▁university	-12.9051
occupy	-12.9051
ikin	-12.9051
▁enrage	-12.9051
▁untouched	-12.9051
aunted	-12.9051
▁cozenage	-12.9051
▁dispraising	-12.9052
▁gauntlet	-12.9052
▁lig	-12.9052
▁urine	-12.9052
▁carters	-12.9052
▁infallible	-12.9052
▁lowliness	-12.9052
▁source	-12.9052
licker	-12.9052
▁grumble	-12.9052
▁unwo	-12.9052
▁ferry	-12.9052
▁incest	-12.9052
▁burt	-12.9052
cious	-12.9052
▁industr	-12.9052
▁tilth	-12.9052
vally	-12.9052
▁preferred	-12.9052
▁counsellor	-12.9052
▁mercies	-12.9052
▁derivati	-12.9053
▁jan	-12.9053
erboard	-12.9053
▁lambkin	-12.9053
▁sententious	-12.9053
▁hearsay	-12.9053
▁bre	-12.9053
▁tape	-12.9053
▁heifer	-12.9053
▁hollander	-12.9053
catcher	-12.9053
▁mista	-12.9053
▁vanquisher	-12.9053
erflow	-12.9053
erweigh	-12.9053
▁dewlap	-12.9053
▁honorably	-12.9053
▁eyebrow	-12.9053
gravel	-12.9053
▁assailant	-12.9053
▁untrue	-12.9053
ution	-12.9053
▁coinage	-12.9053
▁forestall	-12.9054
▁sunburnt	-12.9054
▁glowworm	-12.9054
▁jay	-12.9054
▁debatement	-12.9054
▁bona	-12.9054
ola	-12.9054
▁landlord	-12.9054
▁archers	-12.9054
▁unwish	-12.9054
▁lure	-12.9054
▁evade	-12.9054
tub	-12.9054
▁bedford	-12.9054
▁wealthily	-12.9054
firk	-12.9055
▁portance	-12.9055
min	-12.9055
▁shrewish	-12.9055
pressed	-12.9055
graff	-12.9055
▁eff	-12.9055
▁scornfully	-12.9055
▁recure	-12.9055
▁limitation	-12.9055
▁sequester	-12.9055
▁curate	-12.9055
▁pans	-12.9055
▁bawl	-12.9056
▁victories	-12.9056
▁filche	-12.9056
rom	-12.9056
hne	-12.9056
▁pout	-12.9056
▁impertinent	-12.9056
▁conso	-12.9056
▁slut	-12.9056
▁vouchers	-12.9056
toric	-12.9056
▁fencer	-12.9057
▁dishonourable	-12.9057
renz	-12.9057
▁observing	-12.9057
▁billeted	-12.9057
stained	-12.9057
▁uplifted	-12.9057
▁bruited	-12.9057
▁convented	-12.9057
▁emboweled	-12.9057
▁unbruised	-12.9057
▁enfold	-12.9057
▁immured	-12.9057
▁balked	-12.9057
▁pillar	-12.9057
▁tributary	-12.9057
▁annoyance	-12.9057
▁gramercy	-12.9057
nque	-12.9057
▁augury	-12.9057
▁suppressed	-12.9058
▁keel	-12.9058
▁mention	-12.9058
differency	-12.9058
▁label	-12.9058
orld	-12.9058
harming	-12.9058
▁cropped	-12.9058
▁exaction	-12.9058
▁blubbering	-12.9058
▁embracing	-12.9058
▁swash	-12.9058
▁sale	-12.9058
▁defendant	-12.9058
▁aprico	-12.9058
▁liable	-12.9058
▁betroth	-12.9058
▁scion	-12.9058
two	-12.9058
▁underhand	-12.9059
ority	-12.9059
▁collier	-12.9059
▁unquietness	-12.9059
▁stoutness	-12.9059
▁misgives	-12.9059
▁hull	-12.9059
▁botcher	-12.9059
nshire	-12.9059
▁unrespected	-12.9059
▁embark	-12.9059
▁position	-12.906
▁spotless	-12.906
▁unt	-12.906
▁humanely	-12.906
▁demurely	-12.906
raine	-12.906
▁carnation	-12.906
▁estimable	-12.9061
▁negligent	-12.9061
▁borough	-12.9061
▁revolv	-12.9061
▁stabbing	-12.9061
▁shipping	-12.9061
▁mandrake	-12.9061
▁behaved	-12.9061
▁leasing	-12.9061
▁buttock	-12.9061
▁dimmed	-12.9061
▁tench	-12.9061
▁benches	-12.9061
ocks	-12.9061
▁eaves	-12.9061
▁birthday	-12.9062
pourquoi	-12.9062
▁float	-12.9062
ertook	-12.9062
erwatched	-12.9062
▁overgo	-12.9062
▁portable	-12.9062
▁rudder	-12.9062
cheque	-12.9062
▁frau	-12.9062
▁july	-12.9062
marked	-12.9063
▁intermix	-12.9063
▁knaveries	-12.9063
▁unpeopled	-12.9063
▁unheedful	-12.9063
▁grizzled	-12.9063
▁unyoked	-12.9063
voiced	-12.9063
▁displaced	-12.9063
▁busi	-12.9063
▁unbless	-12.9063
▁palmers	-12.9063
▁untangle	-12.9063
nancy	-12.9064
▁blasphemy	-12.9064
▁magnifico	-12.9064
▁sunken	-12.9064
▁concur	-12.9064
▁chopp	-12.9064
becoming	-12.9064
▁castaway	-12.9065
▁gaud	-12.9065
▁barm	-12.9065
▁anoint	-12.9065
▁compile	-12.9065
▁darkling	-12.9065
▁garde	-12.9065
▁unsettled	-12.9065
▁bondmen	-12.9065
▁wheresoever	-12.9065
▁traveller	-12.9065
▁steph	-12.9066
▁fittest	-12.9066
▁twinkle	-12.9066
▁outright	-12.9066
▁virginity	-12.9066
▁germ	-12.9066
▁racket	-12.9066
▁flourishes	-12.9066
▁unpin	-12.9066
enseign	-12.9067
▁stint	-12.9067
▁reple	-12.9067
rid	-12.9067
bad	-12.9068
▁sincerely	-12.9068
▁trespasses	-12.9068
▁mope	-12.9068
▁swimmer	-12.9068
▁sle	-12.9068
▁sparingly	-12.9068
▁plentifully	-12.9068
▁trippingly	-12.9068
▁vanishest	-12.9068
erheard	-12.9068
▁featly	-12.9068
▁novel	-12.9068
▁nomination	-12.9068
ccessory	-12.9069
▁pluto	-12.9069
▁heedfully	-12.9069
▁bushes	-12.9069
▁portal	-12.907
▁tray	-12.907
▁chambermaid	-12.907
▁gluttony	-12.907
▁comedian	-12.907
▁varnished	-12.907
▁recoveries	-12.907
lanta	-12.907
▁manured	-12.907
▁harmon	-12.9071
▁leman	-12.9071
▁untoward	-12.9071
▁easiness	-12.9071
erworn	-12.9071
mander	-12.9071
active	-12.9071
malkin	-12.9072
▁broth	-12.9072
kles	-12.9072
▁lameness	-12.9072
▁headlong	-12.9073
▁menton	-12.9073
▁whensoever	-12.9073
▁glister	-12.9074
▁rift	-12.9074
▁lull	-12.9074
chus	-12.9074
▁fanning	-12.9074
oble	-12.9075
▁anymore	-12.9075
▁floating	-12.9076
▁shuffling	-12.9076
▁lisping	-12.9076
▁licen	-12.9076
▁contemning	-12.9076
▁eld	-12.9076
▁confirmation	-12.9076
▁rudd	-12.9076
▁outworn	-12.9076
▁impossibilit	-12.9077
▁mich	-12.9077
▁inches	-12.9077
clasp	-12.9078
▁otherwhere	-12.9078
▁ungartered	-12.9078
▁attendance	-12.9078
▁chary	-12.9079
▁shy	-12.9079
▁hillo	-12.9079
▁lineal	-12.908
▁begnaw	-12.908
▁increaseth	-12.908
fixed	-12.908
▁askance	-12.9081
▁hebrew	-12.9081
▁frie	-12.9081
▁noah	-12.9081
▁lus	-12.9081
▁startle	-12.9081
▁intelligencer	-12.9082
dances	-12.9082
▁enamor	-12.9082
▁paramour	-12.9083
▁divert	-12.9083
clang	-12.9083
▁convince	-12.9083
▁renege	-12.9083
violat	-12.9084
▁glide	-12.9084
▁unlikely	-12.9084
▁hungerly	-12.9084
▁applied	-12.9084
lph	-12.9085
▁litter	-12.9085
▁impawn	-12.9085
▁hangmen	-12.9085
erthrow	-12.9086
▁foxes	-12.9086
▁bereav	-12.9086
▁qualm	-12.9086
▁clipped	-12.9087
▁pion	-12.9087
hours	-12.9087
▁osier	-12.9087
thanks	-12.9087
▁wavering	-12.9087
▁gar	-12.9088
▁firmness	-12.9088
fortune	-12.9088
▁seduced	-12.9089
▁abjured	-12.9089
▁bridled	-12.9089
▁defiled	-12.9089
▁appeased	-12.9089
▁buttery	-12.9089
▁enquired	-12.909
▁godliness	-12.909
separable	-12.909
aking	-12.909
▁roy	-12.909
▁kicked	-12.909
▁palter	-12.909
▁forgetful	-12.9091
▁frontier	-12.9091
▁gibing	-12.9092
▁vouches	-12.9092
▁interred	-12.9092
▁thankings	-12.9092
▁cress	-12.9093
rteen	-12.9093
emand	-12.9094
ntas	-12.9094
▁appertaining	-12.9094
▁ancientry	-12.9094
▁undeserver	-12.9095
▁loathness	-12.9096
▁waver	-12.9096
▁singleness	-12.9097
lity	-12.9097
dyed	-12.9097
▁intolerable	-12.9097
▁clam	-12.9098
ension	-12.9098
▁torturer	-12.9098
▁ewer	-12.9098
▁riddl	-12.9098
▁smoothness	-12.9098
▁encompasse	-12.9099
▁enkindle	-12.9099
▁stoutly	-12.91
▁certainties	-12.9101
▁dispossess	-12.9101
▁cates	-12.9101
▁ramp	-12.9102
rayed	-12.9103
▁harpy	-12.9104
▁levie	-12.9104
▁undertaker	-12.9104
mire	-12.9105
elf	-12.9105
▁leanness	-12.9105
▁sportful	-12.9105
cupboard	-12.9105
▁anglais	-12.9106
ided	-12.9106
rary	-12.9106
▁oars	-12.9106
▁lendings	-12.9106
▁grateful	-12.9107
▁horseback	-12.9107
▁interrupted	-12.9107
▁sojourned	-12.9107
▁deemed	-12.9107
▁piss	-12.9107
▁workman	-12.9107
affe	-12.9108
▁marring	-12.9108
▁vocation	-12.9108
▁prettily	-12.9108
▁triumphantly	-12.9108
▁unlawfully	-12.9108
▁yarely	-12.9108
▁indign	-12.9109
▁butchery	-12.9109
▁fou	-12.9109
burn	-12.911
▁inventor	-12.911
▁parings	-12.9111
▁luc	-12.9112
▁bewitch	-12.9112
▁dressings	-12.9112
▁agents	-12.9112
▁anyone	-12.9112
▁appr	-12.9113
▁exits	-12.9113
▁garners	-12.9113
▁crickets	-12.9113
▁passengers	-12.9113
▁similes	-12.9113
▁victuals	-12.9113
▁whirlwinds	-12.9113
▁bretons	-12.9113
▁eruptions	-12.9113
▁eyeballs	-12.9113
▁fridays	-12.9113
▁kernels	-12.9113
▁plackets	-12.9113
▁bracelets	-12.9114
▁steeples	-12.9114
▁aragon	-12.9114
▁whistl	-12.9115
▁arose	-12.9115
entice	-12.9116
▁apiece	-12.9116
▁contaminated	-12.9116
▁separated	-12.9116
▁fortunately	-12.9116
bering	-12.9116
mus	-12.9117
zard	-12.9117
▁forerunn	-12.9117
▁conjurer	-12.9118
▁capering	-12.9118
caps	-12.9119
▁cozeners	-12.912
▁eno	-12.912
▁sanctified	-12.9121
▁cited	-12.9121
▁molest	-12.9121
▁counties	-12.9121
▁signifie	-12.9122
▁renewed	-12.9122
▁bled	-12.9123
▁capet	-12.9123
▁religiously	-12.9124
▁villanously	-12.9124
▁scoured	-12.9125
▁inventori	-12.9125
▁dancer	-12.9126
▁heartstrings	-12.9126
peak	-12.9127
▁watchers	-12.9127
▁enroll	-12.9128
▁commoners	-12.9128
spice	-12.9129
aks	-12.9129
shaped	-12.913
rable	-12.913
▁glowing	-12.9131
▁mowing	-12.9132
▁pompe	-12.9133
▁thankfully	-12.9133
▁crannie	-12.9133
▁barred	-12.9134
▁labi	-12.9135
▁equivocate	-12.9135
▁solitary	-12.9135
outrun	-12.9135
ombard	-12.9136
ty	-12.9137
▁mont	-12.9138
▁unhous	-12.9139
▁disjoin	-12.9139
ms	-12.914
ernight	-12.9141
▁consummat	-12.9142
▁jangl	-12.9143
dead	-12.9145
ttish	-12.9145
▁baker	-12.9146
icide	-12.9147
▁reinforce	-12.9147
▁virginal	-12.9147
▁plumes	-12.9148
▁vermi	-12.9148
kets	-12.9149
▁ph	-12.9149
▁buzzing	-12.9149
▁discerning	-12.9149
▁shrieking	-12.9149
stead	-12.915
▁listening	-12.915
▁traduce	-12.9153
▁lor	-12.9154
eux	-12.9156
▁thinly	-12.9157
▁drunkenly	-12.9157
▁loveliness	-12.9157
▁wived	-12.9158
▁extended	-12.9158
▁prompter	-12.9159
nis	-12.9159
▁tipp	-12.916
▁amain	-12.9161
▁bridget	-12.9161
seems	-12.9161
▁pla	-12.9161
▁loop	-12.9168
▁outlaw	-12.9168
▁dallying	-12.9168
rful	-12.9168
▁reveling	-12.917
▁salad	-12.9171
▁wrestled	-12.9171
▁gladness	-12.9171
▁abst	-12.9172
eminence	-12.9172
▁humane	-12.9172
▁famously	-12.9173
▁brut	-12.9174
▁hooded	-12.9175
ickly	-12.9176
▁shouted	-12.9177
▁decked	-12.9177
▁sta	-12.9177
▁pebbles	-12.9177
▁assayed	-12.9177
▁barne	-12.9181
▁infinitely	-12.9181
▁invulnerable	-12.9183
▁opposing	-12.9183
▁exa	-12.9183
▁mead	-12.9183
▁hawking	-12.9186
▁inferred	-12.9188
▁strewed	-12.9188
▁filed	-12.9189
▁womanish	-12.9189
▁risen	-12.9191
▁blemished	-12.9192
▁arrayed	-12.9192
▁devoured	-12.9192
▁cata	-12.9193
▁clipp	-12.9194
▁capi	-12.9195
▁villainies	-12.9196
▁smilingly	-12.9197
strings	-12.9198
▁buckled	-12.9198
▁faded	-12.9199
cas	-12.9199
▁soliciting	-12.92
▁dough	-12.9201
▁stirrer	-12.9204
▁boiling	-12.9205
▁swallowing	-12.9205
speaks	-12.9208
▁gathered	-12.9209
▁cherished	-12.921
▁sext	-12.921
pouch	-12.9212
nerable	-12.9213
▁borrower	-12.9213
mines	-12.9213
▁pard	-12.9213
▁ab	-12.9214
▁spice	-12.9215
▁blackness	-12.9215
cis	-12.9217
tests	-12.9217
▁devouring	-12.9219
reach	-12.9219
salia	-12.9223
▁crownet	-12.9223
▁cherishing	-12.9224
▁tenth	-12.9224
▁sleepers	-12.9226
▁complots	-12.9226
▁mistrusted	-12.9226
▁alleys	-12.9226
▁moveables	-12.9227
▁slops	-12.9227
▁spouts	-12.9228
▁clusters	-12.9228
▁esquires	-12.9228
▁pumps	-12.9228
▁applejohns	-12.9228
▁valleys	-12.9228
▁bonfires	-12.9228
▁partisans	-12.9228
▁sentinels	-12.9228
▁ceres	-12.9228
▁prescriptions	-12.9228
▁quips	-12.9228
▁digestions	-12.9228
k	-12.9229
▁augurers	-12.9229
▁branded	-12.9229
dying	-12.9229
cides	-12.923
▁tips	-12.923
▁celebrated	-12.923
egitimate	-12.9231
▁redeemer	-12.9231
▁laughs	-12.9232
▁gallantly	-12.9233
▁barns	-12.9234
▁answerable	-12.9234
▁hitherwards	-12.9236
▁pier	-12.9237
▁unmanner	-12.9237
▁inwardly	-12.9237
▁doubtless	-12.9239
spiration	-12.9239
▁unmitiga	-12.924
▁bucklers	-12.9243
bal	-12.9244
mell	-12.9247
▁nodded	-12.9251
▁pert	-12.9255
don	-12.9257
▁persia	-12.9261
▁forewar	-12.9262
▁falconer	-12.9262
▁aga	-12.9263
mas	-12.9265
▁canary	-12.9266
many	-12.927
▁envi	-12.927
▁attired	-12.9271
▁visitor	-12.9273
▁whereat	-12.9273
▁chants	-12.9273
▁nob	-12.9275
▁tamely	-12.9276
eca	-12.9278
▁inca	-12.9279
▁kindled	-12.9279
▁invocation	-12.928
▁limed	-12.928
▁cubi	-12.928
▁rebat	-12.9281
ressing	-12.9281
▁justicer	-12.9283
▁angerly	-12.9283
▁inherited	-12.9291
inners	-12.9291
scot	-12.9293
▁appli	-12.9293
▁reveler	-12.9296
herds	-12.9296
▁scaled	-12.9297
▁damm	-12.9297
▁stocked	-12.9299
▁neighborly	-12.9299
▁scotch	-12.9303
done	-12.9304
ipping	-12.9315
▁chafes	-12.9315
state	-12.9317
▁perused	-12.9319
snapper	-12.9321
▁later	-12.9322
▁befriend	-12.9328
▁dismissed	-12.933
▁strumpeted	-12.933
stocks	-12.9338
save	-12.9343
▁limited	-12.9343
▁sables	-12.9345
▁claws	-12.9346
exton	-12.9346
▁injunctions	-12.9347
▁bribes	-12.9347
▁humours	-12.9347
▁gambols	-12.9347
▁posterns	-12.9347
▁infidels	-12.9347
▁mountebanks	-12.9347
▁stratagems	-12.9347
▁dunghills	-12.9347
▁portents	-12.9347
they	-12.9347
▁panders	-12.9347
▁slower	-12.9347
▁lawyers	-12.9348
▁sinners	-12.9349
▁examined	-12.9351
▁fleas	-12.9354
▁bluntly	-12.9354
▁norman	-12.9359
ssa	-12.9359
▁casements	-12.9359
▁hogs	-12.9361
▁wailed	-12.9361
stles	-12.9365
ified	-12.9373
▁fann	-12.9373
▁requited	-12.9375
▁stra	-12.9376
▁leisurely	-12.9379
supper	-12.9379
compassionate	-12.9381
▁expected	-12.9382
hers	-12.9387
▁gorged	-12.9389
▁footb	-12.939
▁feeders	-12.9391
tiny	-12.9392
▁fleeting	-12.9394
▁observer	-12.9394
▁forfeited	-12.9396
▁cruelly	-12.9396
▁mockers	-12.9404
▁signed	-12.9405
▁chas	-12.9405
▁supporter	-12.9408
gall	-12.9408
ndal	-12.9409
▁worthies	-12.9411
▁leaping	-12.9413
▁petitioner	-12.9413
▁householder	-12.9414
▁schooled	-12.9417
then	-12.9422
▁unworthi	-12.9432
▁conducted	-12.9434
▁fainting	-12.9435
▁quell	-12.9436
▁busk	-12.9437
▁groaned	-12.944
▁lessen	-12.9441
▁warder	-12.9442
▁virtuously	-12.9446
▁possessing	-12.9447
▁forg	-12.9449
▁boasting	-12.9451
▁rely	-12.9452
▁augur	-12.9452
▁malevolen	-12.9457
▁forges	-12.9457
gates	-12.9459
▁falser	-12.946
has	-12.9465
▁compassed	-12.9466
▁brats	-12.9467
▁sects	-12.9467
▁reels	-12.9468
▁petticoats	-12.9468
▁schoolboys	-12.9468
▁deceits	-12.9468
▁buffets	-12.9468
▁olives	-12.9469
▁fullness	-12.9471
▁flowed	-12.9471
▁foundations	-12.9475
▁counselors	-12.9478
▁deceiver	-12.9481
lighted	-12.9483
string	-12.9485
▁delayed	-12.9489
▁syc	-12.9496
▁capers	-12.9497
▁concludes	-12.9497
pri	-12.9498
▁sinking	-12.9499
▁seel	-12.9499
▁profited	-12.95
▁laborer	-12.95
lorous	-12.9516
▁pies	-12.9522
▁disput	-12.9523
▁ros	-12.9523
▁marriages	-12.9524
usan	-12.9524
▁delaying	-12.953
▁majesti	-12.953
▁exchanged	-12.9537
▁profiting	-12.9542
▁expressing	-12.9549
▁capt	-12.9553
assailable	-12.9556
▁slipp	-12.9557
▁triumphing	-12.9557
▁prom	-12.9558
▁pleas	-12.9563
ice	-12.9564
▁cri	-12.9566
stones	-12.9567
▁uttering	-12.9569
fathers	-12.9573
▁goad	-12.9574
▁mills	-12.9577
▁fines	-12.9578
▁casualt	-12.9583
▁winged	-12.9584
▁sizes	-12.9586
▁ruffl	-12.9587
rn	-12.9589
▁shins	-12.959
▁grooms	-12.9592
▁sessions	-12.9592
▁gestures	-12.9592
▁churchyards	-12.9592
▁salutations	-12.9592
▁flutes	-12.9592
▁performances	-12.9592
▁rents	-12.9593
▁freezes	-12.9593
▁multitudes	-12.9595
▁males	-12.9596
hat	-12.9599
eers	-12.9602
▁warming	-12.9614
ca	-12.9614
bility	-12.9616
▁unmanne	-12.9618
▁yearn	-12.9619
▁chased	-12.9621
▁spawn	-12.9623
dure	-12.9625
▁display	-12.9626
▁scape	-12.9627
hallow	-12.9628
▁fingering	-12.9635
▁paste	-12.9636
▁pined	-12.9646
▁beam	-12.9649
▁jeer	-12.9653
▁deserver	-12.9653
▁driv	-12.9664
arch	-12.9665
▁ey	-12.9669
verness	-12.9674
▁overturn	-12.9684
▁sleepest	-12.969
▁rous	-12.9703
▁stuffing	-12.9707
▁drawers	-12.9711
▁ranked	-12.9712
▁eased	-12.9716
▁endings	-12.9717
▁parrots	-12.9718
▁unthrifts	-12.9718
▁carrions	-12.9718
▁braggarts	-12.9718
▁cobwebs	-12.9718
▁kitchens	-12.9718
▁charters	-12.9718
▁buildings	-12.9718
▁professions	-12.9719
▁ranges	-12.9719
▁thrusting	-12.9721
▁usurper	-12.9721
▁tutors	-12.9723
▁reed	-12.9724
▁veni	-12.9726
▁feels	-12.9731
▁delighted	-12.9731
errant	-12.9733
▁gapes	-12.9737
▁meta	-12.9744
▁stared	-12.9744
▁receivest	-12.9745
comes	-12.9751
▁wounding	-12.9756
▁topped	-12.9764
▁counterfeited	-12.9766
▁stares	-12.9769
▁communicat	-12.977
▁weaken	-12.9774
▁equivocat	-12.9775
ians	-12.9781
▁effected	-12.9784
▁departing	-12.9785
▁alarums	-12.9786
formation	-12.9803
▁leaders	-12.9805
fellows	-12.9808
uge	-12.9814
▁unmov	-12.9816
▁counterfeiting	-12.982
▁foams	-12.9822
▁mending	-12.9823
▁shre	-12.9826
dden	-12.9826
▁yielder	-12.9831
▁darts	-12.9833
▁bowls	-12.9834
▁scarr	-12.9841
▁anchors	-12.9844
▁brakes	-12.9845
▁fountains	-12.9846
▁motives	-12.9846
▁greeks	-12.9847
▁handi	-12.9847
▁capons	-12.985
iddle	-12.9852
shed	-12.9853
▁fans	-12.9854
▁bees	-12.9865
▁approached	-12.9866
slight	-12.9866
▁soever	-12.9891
▁oversho	-12.9896
▁broker	-12.9897
▁harmed	-12.9897
ature	-12.99
▁righteous	-12.9901
lets	-12.9904
▁grate	-12.9905
umber	-12.991
treatment	-12.9913
sadoes	-12.9916
▁feasted	-12.9917
▁pers	-12.9921
▁curls	-12.9926
ung	-12.9934
oublie	-12.9935
cation	-12.9942
▁leve	-12.9957
joint	-12.9959
▁dollar	-12.9963
▁hedges	-12.9968
▁assays	-12.9973
▁gulls	-12.9975
▁endeavors	-12.9977
diments	-12.9978
▁halts	-12.9979
▁succeeds	-12.9979
▁bridges	-12.998
toss	-12.998
▁attires	-12.9981
mont	-12.9983
▁disguises	-12.9983
play	-12.9984
▁escapes	-12.9988
mel	-12.9993
▁real	-12.9997
gle	-12.9998
▁consenting	-13.0005
▁bearer	-13.0024
clare	-13.0025
▁countenanced	-13.0033
▁qua	-13.004
▁lied	-13.004
▁wis	-13.0059
swept	-13.006
▁servi	-13.0072
▁bard	-13.0072
▁sk	-13.0079
tal	-13.008
▁throned	-13.0084
▁sealing	-13.0084
gin	-13.0086
nest	-13.0091
▁fathoms	-13.0109
▁pillows	-13.0109
▁outrages	-13.011
▁reins	-13.0113
▁bedfellows	-13.0114
▁scepters	-13.0123
wl	-13.0124
▁africa	-13.0138
▁lau	-13.0149
▁pos	-13.0151
▁turp	-13.0153
▁whirli	-13.0159
▁keepest	-13.017
▁intrud	-13.0171
etical	-13.0175
used	-13.0197
▁dealer	-13.0212
▁prophets	-13.0214
tive	-13.0222
▁fighter	-13.0231
▁chambers	-13.0233
▁fatherless	-13.0238
▁uns	-13.0238
▁keepers	-13.0242
▁writings	-13.0245
ord	-13.0246
▁justifi	-13.0247
▁rigo	-13.0253
▁households	-13.0263
▁herds	-13.0267
straught	-13.0269
▁seconded	-13.0276
▁sweeting	-13.0278
volt	-13.0279
lconbridge	-13.0281
ttle	-13.0287
equality	-13.0288
▁tendered	-13.0321
tors	-13.0321
ther	-13.0326
▁fra	-13.0327
▁endur	-13.0335
▁seditio	-13.0343
fal	-13.0344
▁prates	-13.0348
ums	-13.0366
▁bits	-13.0372
unner	-13.0377
▁loads	-13.0378
▁helms	-13.0379
▁peeps	-13.0381
▁dislikes	-13.0381
▁ruffians	-13.0382
▁weeks	-13.0382
▁partners	-13.0382
▁cooks	-13.0382
ift	-13.0385
▁agues	-13.039
▁states	-13.0406
▁awaking	-13.0414
glutted	-13.0427
▁tortures	-13.0431
vouches	-13.0433
▁revenger	-13.0434
▁counters	-13.0438
▁intru	-13.0452
unction	-13.0484
horses	-13.0487
▁swin	-13.0513
▁undeserv	-13.0516
▁roofs	-13.0519
▁swoons	-13.0521
▁adventures	-13.0521
▁funerals	-13.0521
▁nephews	-13.0521
▁bargains	-13.0522
▁slaughters	-13.0525
▁rebukes	-13.0528
▁flocks	-13.054
▁tuned	-13.0541
▁tasted	-13.0542
▁pres	-13.0547
▁pom	-13.0551
lasses	-13.062
▁wags	-13.0629
quean	-13.0631
▁grains	-13.066
▁shields	-13.0663
▁strifes	-13.0664
▁horrors	-13.0664
▁heure	-13.0669
▁enorm	-13.0679
▁oaks	-13.0685
▁knitte	-13.0687
▁shaped	-13.0712
▁contribut	-13.0738
▁wott	-13.0744
sol	-13.0747
▁palat	-13.0752
vy	-13.0777
▁clo	-13.0782
▁racks	-13.079
▁unde	-13.0802
▁elbows	-13.0804
▁messages	-13.0809
▁uncou	-13.081
▁pages	-13.0811
▁sender	-13.0815
▁hares	-13.0822
▁eyed	-13.0826
▁slanderer	-13.083
edward	-13.0853
▁soles	-13.0862
▁vigil	-13.0868
▁decrease	-13.0883
▁sedge	-13.0908
divulged	-13.0942
tting	-13.0954
▁confusions	-13.0956
▁williams	-13.0956
▁jesus	-13.0957
▁markets	-13.0962
▁retires	-13.0968
▁entitle	-13.099
eries	-13.1033
▁myster	-13.1046
ulate	-13.1069
▁cloaks	-13.1106
▁manhoods	-13.1106
▁aspects	-13.1107
▁cau	-13.1147
▁chewe	-13.1164
▁spokes	-13.1168
reproving	-13.1171
▁wor	-13.1185
▁wel	-13.1197
▁heady	-13.1207
▁toils	-13.1214
▁dilat	-13.1216
▁monuments	-13.126
▁revolts	-13.1265
▁cutt	-13.1267
cia	-13.1291
rings	-13.1318
twig	-13.1339
▁conjunct	-13.1349
nsel	-13.1361
▁compuls	-13.1366
▁ooz	-13.1386
plies	-13.1394
▁phrases	-13.1415
▁conc	-13.1416
▁perfections	-13.142
blasting	-13.1425
hopeful	-13.1434
▁transgresse	-13.1458
tripping	-13.146
▁broach	-13.1467
akes	-13.1473
dpole	-13.148
▁dilate	-13.148
tant	-13.1496
▁simula	-13.1511
rated	-13.1518
▁pitying	-13.1542
mutation	-13.1544
▁botche	-13.1549
▁sque	-13.1549
▁deput	-13.1551
▁distribut	-13.1552
seed	-13.1552
▁fitte	-13.1557
▁rustl	-13.1564
▁returning	-13.1574
▁fil	-13.1577
ilbert	-13.1586
atory	-13.1592
misused	-13.1614
▁fumit	-13.1621
▁deba	-13.1668
ening	-13.1669
hardiness	-13.1683
▁beseeched	-13.169
weaved	-13.169
xi	-13.17
▁unpriz	-13.1707
dem	-13.1723
▁clerks	-13.1735
▁corns	-13.1792
savoury	-13.1802
▁fathered	-13.1832
ions	-13.1834
▁stealer	-13.1846
▁frette	-13.1867
died	-13.1876
ickle	-13.1883
ust	-13.1912
▁champai	-13.1955
▁islands	-13.1977
▁gri	-13.1999
fulness	-13.2021
▁depute	-13.2022
▁mil	-13.2069
▁pros	-13.207
ures	-13.2073
▁furthe	-13.2076
▁spir	-13.2085
▁winks	-13.2096
▁tilly	-13.21
▁islander	-13.2108
endeared	-13.2131
tribution	-13.2132
▁unworthie	-13.2158
▁muffl	-13.2159
ugal	-13.2165
fortified	-13.2183
ttest	-13.2183
▁upturn	-13.2192
▁unsea	-13.2206
▁seizes	-13.221
ampler	-13.2215
▁dropp	-13.2252
▁combin	-13.2261
▁unbat	-13.2263
▁onward	-13.2281
▁hurri	-13.2329
moderately	-13.2367
▁bea	-13.2372
▁amazon	-13.2373
ragged	-13.2395
owls	-13.2409
other	-13.2429
▁centur	-13.2434
▁enforces	-13.2436
fledged	-13.247
rants	-13.2525
▁metre	-13.2527
▁pleasest	-13.2547
▁yell	-13.256
▁villager	-13.2567
ction	-13.2587
seem	-13.2592
owed	-13.2603
tion	-13.2636
▁sto	-13.2651
▁merri	-13.2667
cut	-13.267
ave	-13.2697
pinioned	-13.2711
lling	-13.2718
turned	-13.2727
eith	-13.2752
▁quire	-13.2778
ith	-13.2781
▁inwards	-13.2789
▁verif	-13.2801
lag	-13.2826
rack	-13.2828
▁freed	-13.2831
▁reasoned	-13.2835
gia	-13.2882
▁bene	-13.2928
▁regi	-13.2943
▁tempts	-13.295
▁counsell	-13.2972
▁reporting	-13.2976
reasonably	-13.2983
▁triumphs	-13.2987
▁gett	-13.3015
▁marking	-13.3022
▁distinguishe	-13.3046
▁cred	-13.3105
fused	-13.3122
dent	-13.3125
▁gau	-13.3126
ody	-13.3127
▁merrie	-13.313
reversed	-13.3186
▁propos	-13.3189
pawned	-13.3208
▁guilti	-13.3211
lves	-13.3244
tling	-13.3294
▁restorati	-13.3301
ens	-13.3312
zed	-13.332
ckle	-13.3322
cens	-13.3327
▁disable	-13.3341
bated	-13.3434
ock	-13.3474
erhang	-13.3503
▁dreamer	-13.352
cutter	-13.357
appren	-13.3578
sheath	-13.3595
▁perma	-13.36
▁sinn	-13.3608
ernal	-13.3631
suckle	-13.3642
arily	-13.3642
▁edifi	-13.365
▁gl	-13.3657
▁bro	-13.3671
tial	-13.3672
bookish	-13.3696
umb	-13.3707
cap	-13.3716
▁fru	-13.373
▁fortifie	-13.3736
▁preserv	-13.3797
▁befitt	-13.3804
▁lusts	-13.3808
▁furth	-13.3829
▁hearted	-13.3844
▁ge	-13.3861
▁fledge	-13.3873
lican	-13.3881
shrub	-13.3913
▁innocents	-13.3946
▁prattl	-13.3951
▁squ	-13.4003
bri	-13.4023
erate	-13.4087
▁sheeps	-13.4095
▁foreh	-13.412
tres	-13.4164
rac	-13.4204
▁cleans	-13.4221
gotten	-13.4222
ga	-13.4321
▁reverse	-13.4323
dian	-13.4326
▁expos	-13.434
mities	-13.4344
▁diabl	-13.4345
itory	-13.4382
▁strangl	-13.4406
▁countenances	-13.4409
▁backing	-13.4413
ennel	-13.4427
▁squin	-13.4436
▁botch	-13.4461
▁weave	-13.4487
▁wha	-13.4496
sceptered	-13.4538
quint	-13.4539
pole	-13.4543
bitte	-13.4564
ough	-13.4567
hap	-13.4571
corrected	-13.4573
mic	-13.4595
▁transgress	-13.4596
ingly	-13.4623
reaches	-13.4712
ced	-13.4717
▁compulsi	-13.4719
▁und	-13.4728
▁conjuncti	-13.4742
rature	-13.4762
rel	-13.4765
ridges	-13.4766
iments	-13.4776
eel	-13.4783
▁tow	-13.481
othed	-13.4817
▁vari	-13.4821
▁ou	-13.4883
▁talker	-13.4895
cho	-13.491
▁guid	-13.492
terate	-13.4923
▁injur	-13.493
ell	-13.4946
▁reprov	-13.4964
▁reprobat	-13.501
▁chew	-13.5019
ute	-13.5057
▁appea	-13.5063
▁mortif	-13.5069
▁visibl	-13.5076
cup	-13.5082
▁wisher	-13.5085
tulate	-13.51
tly	-13.5134
ime	-13.5137
loving	-13.5139
▁sedg	-13.5154
alus	-13.5163
▁rip	-13.5164
ldest	-13.5175
nodding	-13.5215
ides	-13.5244
▁entitl	-13.5261
landers	-13.5263
sisted	-13.5275
▁paten	-13.528
▁repents	-13.5294
▁biding	-13.5328
▁divulg	-13.5332
ttered	-13.5351
raci	-13.5359
ching	-13.5384
▁midw	-13.5424
▁decreas	-13.5425
▁scrap	-13.5483
▁reviv	-13.5517
▁pala	-13.5534
▁bru	-13.5564
rock	-13.5582
gre	-13.559
lled	-13.5591
onia	-13.5615
squint	-13.5624
acked	-13.5667
colted	-13.5707
termed	-13.5714
▁opportun	-13.5764
amo	-13.5806
▁meats	-13.581
pi	-13.5819
▁bl	-13.5829
iding	-13.5848
▁endear	-13.5857
itable	-13.586
▁prat	-13.586
▁riv	-13.5868
fit	-13.5881
col	-13.5884
▁peli	-13.5921
▁lon	-13.5934
swearing	-13.5947
▁continua	-13.596
ais	-13.5961
▁qual	-13.5985
▁principalit	-13.6
attainted	-13.6001
rried	-13.6001
▁loa	-13.6001
▁abridg	-13.6005
mage	-13.6033
▁impu	-13.6047
▁intr	-13.605
▁ski	-13.6053
gling	-13.6059
▁unsc	-13.6064
sty	-13.6092
usion	-13.6103
▁doings	-13.611
▁donner	-13.6116
▁plume	-13.6129
eted	-13.6169
ence	-13.6178
newest	-13.6193
▁chick	-13.6201
▁englut	-13.6217
part	-13.6226
bridge	-13.6246
treaty	-13.6248
▁marg	-13.6293
▁vexes	-13.6302
range	-13.631
serviceable	-13.6331
edition	-13.6347
tho	-13.6368
suppose	-13.6406
baned	-13.6413
gra	-13.6435
▁fired	-13.6455
tired	-13.6458
▁hipp	-13.6501
ops	-13.6504
oes	-13.6511
▁carv	-13.6515
▁maz	-13.6538
▁revers	-13.6551
ended	-13.6554
▁favorabl	-13.6573
mocked	-13.6583
cul	-13.6585
▁trump	-13.6604
nker	-13.6617
cu	-13.6634
▁suns	-13.6645
▁pleach	-13.6656
bearing	-13.6683
▁trifl	-13.6708
▁erect	-13.671
mad	-13.6712
▁serv	-13.6715
▁reconcil	-13.6726
▁rem	-13.6727
burning	-13.6753
amour	-13.6755
▁worthie	-13.6755
▁sickli	-13.6761
aching	-13.6763
▁dr	-13.6765
▁tro	-13.6777
▁infuse	-13.6798
▁assembl	-13.6803
▁chastis	-13.683
▁decl	-13.686
▁intrude	-13.6872
▁sacrific	-13.6879
pendent	-13.6903
fied	-13.6919
ann	-13.6921
▁starr	-13.698
▁prose	-13.6994
uous	-13.7001
▁rug	-13.7025
odes	-13.7035
▁oubli	-13.7067
dollars	-13.7074
hell	-13.708
▁vul	-13.7081
▁emme	-13.7086
vied	-13.7128
charmed	-13.7142
tainted	-13.7177
ere	-13.7195
cot	-13.7195
▁clif	-13.7205
coloured	-13.7205
j	-13.7218
ination	-13.7222
ltered	-13.7232
▁dang	-13.7251
moved	-13.7271
ging	-13.7272
manned	-13.7275
▁importun	-13.7275
dolours	-13.7277
▁pare	-13.7295
▁exhal	-13.7305
▁rud	-13.7318
ark	-13.7323
▁mos	-13.7404
cchus	-13.7406
inish	-13.7409
▁stu	-13.7416
aries	-13.7422
▁sympathiz	-13.7422
▁extenuat	-13.7422
▁plung	-13.7425
bite	-13.7426
azure	-13.7427
hing	-13.7435
[...]
